#version: 0.2
t h
e n
r o
s t
i n
a n
p o
th e</w>
r e
t i
t e
t o</w>
o n
o n</w>
l i
o u
r a
a r
c h</w>
l e
o v
o f</w>
e r
a l
a t</w>
n e
i t
an d</w>
o r
o m
s e</w>
p ro
l a
i s</w>
i n</w>
n o
s k
e d
p ř
n í</w>
c h
in g</w>
s i
d e
p r
i s
p e
c e</w>
m en
e s</w>
b e
l y</w>
a n</w>
j e</w>
ti on</w>
v e</w>
s e
n i
o d
a l</w>
o b
s t</w>
th at</w>
n a
o r</w>
c i
t a
i t</w>
te r
n a</w>
e m
v e
o u</w>
h o</w>
s u
n í
ž e</w>
a s</w>
a t
á v
l e</w>
c om
b y</w>
th e
b u
i l
c on
m e</w>
m o
en í</w>
r i
e v
l o
po r
z a
d o
ý ch</w>
f or</w>
w e</w>
ro p
e d</w>
w h
a d
d i
e n</w>
a c
m u
b y
n ě</w>
p ar
v y
e u
h a
t s</w>
k ter
th is</w>
men t</w>
m ě
v o
t u
v i
s po
t o
c e
ev rop
m e
p re
v ě
st a
d e</w>
s a
á ní</w>
ř e
m a
ti on
l d</w>
b e</w>
o p
v ý
j e
f i
n é</w>
c k
př ed
m i</w>
ar e</w>
r u
f or
st i</w>
p ra
en t</w>
j a
l u
í m</w>
t y</w>
c ou
g i
po d
n ě
s o
n á
no t</w>
h o
r an
j í
a g
c i</w>
ro z
c u
e x
i m
q u
eu ro
po li
é ho</w>
př í
ha ve</w>
evrop sk
z á
d u
c a
u ni
com m
c í</w>
euro pe
pr áv
k on
u n
i ch</w>
europe an</w>
w it
pr o</w>
wit h</w>
te d</w>
p an
s h
v á
ou ld</w>
k y</w>
j í</w>
r á
d ě
si on</w>
s ou
il l</w>
ta k
a s
k o
g h
st á
o t
w e
er e</w>
l en
j s
d o</w>
s o</w>
l a</w>
l i</w>
i st
k u
k om
t e</w>
a b
w ill</w>
ou t</w>
cou n
tion s</w>
j ed
k a
š í</w>
s ed
v š
ní ch</w>
ou r</w>
e u</w>
m í
c o
it y</w>
h od
l á
n ov
wh ich</w>
kter é</w>
t ě
d ů
por t</w>
p a
g e
jí cí</w>
v í</w>
poli ti
al l</w>
m i
er s</w>
př i
r e</w>
f e
ov ání</w>
m u</w>
pra v
v a
at e</w>
k e</w>
t u</w>
sk u
m in
ov at</w>
d y</w>
z em
m y</w>
comm is
s s</w>
po s
ý m</w>
w or
st i
b i
t r
k u</w>
si d
it u
h as</w>
á l
2 0
te s</w>
e m</w>
be r</w>
no sti</w>
v er
před sed
u je</w>
pre sid
c í
g ra
the r</w>
f in
ro v
d á
ja k
t en
t ře
ti v
m em
g u
ž it
v í
k la
ti ve</w>
d a
é m</w>
a by</w>
p la
á z
f u
p u
s pe
z a</w>
no st</w>
al so</w>
le d
e r</w>
m an
/ w
< /w
</w ></w>
mu s
c y</w>
t ra
a li
n u
ní m</w>
b o
f ro
' s</w>
c an</w>
sk é</w>
presid ent</w>
st u
h la
te l
př e
l o</w>
t ing</w>
js ou</w>
w ould</w>
s v
st an
m r</w>
p l
i se</w>
commis sion</w>
s l
bu t</w>
spo le
o d</w>
al e</w>
20 0
ž en
c t</w>
a tion</w>
le žit
an t</w>
se d</w>
t é
pr á
č len
le g
f a
al ly</w>
bu d
fro m</w>
j i</w>
on e</w>
ve l
vě t
g e</w>
spole č
pro b
li d
z e</w>
ř í
ro u
j m
n áv
mem ber</w>
p er
sh ould</w>
te r</w>
so ci
a p
h u</w>
n á</w>
en er
k e
v z
par la
h e
d s</w>
m or
ž i
n y</w>
b ý
t om
ní ho</w>
c t
ch o
b le</w>
i r</w>
c es</w>
g o
en t
it s</w>
em e</w>
te č
mu st</w>
st ra
uni on</w>
ř ed
t ri
m ar
t í</w>
s s
ne j
ri gh
n o</w>
jak o</w>
evropsk é</w>
sta tes</w>
li a
th ere</w>
s i</w>
se m</w>
u se</w>
mor e</w>
z práv
z na
par lia
me z
no u</w>
sk ých</w>
kom ise</w>
s p
c re
k a</w>
dě l
j i
by ch</w>
d ing</w>
c o</w>
bu de</w>
n ý</w>
a f
st řed
si on
z d
á d
men ts</w>
pan e</w>
st e
st ví</w>
y ou</w>
s m
tion al</w>
w a
de r</w>
ti es</w>
c tion</w>
n ých</w>
a k</w>
a m
č e
tak é</w>
re port</w>
g y</w>
d is
po z
d ob
s y
be en</w>
c al</w>
na š
j sem</w>
qu ot
w as</w>
í me</w>
js me</w>
in ter
parlia ment</w>
náv r
a r</w>
č in
pr i
í ch</w>
ob la
im por
e f
en ce</w>
ů m</w>
eu rop
ja k</w>
re gi
the ir</w>
u s</w>
té to</w>
a jící</w>
europ e</w>
h u
g re
vě d
y e
re for
bý t</w>
p le
t i</w>
be z
ý mi</w>
t re
quot ;</w>
& quot;</w>
s er
mo ž
st í</w>
a m</w>
ra l</w>
ver y</w>
p ů
pro du
fin an
i r
f er
su p
f un
ck é</w>
kter á</w>
impor t
po ku
s itu
no w</w>
de mo
v ed
ř ení</w>
předsed ající</w>
ř í</w>
pra c
m y
f o
m on
li ke</w>
the y</w>
o ther</w>
k te
uni e</w>
ov é</w>
k ra
hla s
ál ní</w>
š ení</w>
l ou
c er
sku teč
ot áz
cu l
a k
m ů
in st
l é
vš e
sy st
s ch
the se</w>
š t
á m</w>
ve r</w>
kter ý</w>
parla men
in g
j u
al i</w>
kla d
ar y</w>
wh at</w>
pe č
m s</w>
cho m</w>
by chom</w>
t ran
d a</w>
s en
en e
dů ležit
g h</w>
b li
po u
coun ci
vš ak</w>
counci l</w>
stra te
r y</w>
al a</w>
s om
poku d</w>
bez peč
or i
t ro
be t
k ů</w>
od a
mo h
li ty</w>
stá t
ro d
le m</w>
po tře
or g
re d</w>
ab le</w>
ve lo
t h</w>
č ní</w>
a u
de velo
ne w</w>
c en
pro střed
vel mi</w>
ch an
z e
in i
sta v
kom is
o pe
m no
la tion</w>
pro to</w>
u r
tri es</w>
ag re
v lá
coun tries</w>
i f</w>
w i
in te
wor k</w>
pan í</w>
m ad
c tive</w>
jed no
p en
pe op
z áv
righ ts</w>
in for
b or
tu re</w>
z en
t y
h i
import ant</w>
jm é
k ro
t ý
mar ke
fi r
re s</w>
mus í</w>
n ého</w>
om i
ab out</w>
b o</w>
peop le</w>
men t
na tional</w>
é mu</w>
ce l
d y
ne ed</w>
on ly</w>
c lu
cu r
tran s
n i</w>
ca use</w>
cí ch</w>
ar d</w>
an ce</w>
ov an
p ad
ou s</w>
ro n
by lo</w>
we l
w ho</w>
pro to
r is
poli cy</w>
s led
k ing</w>
i d</w>
sku p
ra tion</w>
obla sti</w>
ti me</w>
b a
ne bo</w>
n u</w>
f ac
d al
c le
ov á
i l</w>
ta k</w>
regi on
st ran
parlamen tu</w>
inst itu
de m</w>
ve n</w>
vo l
s ob
e con
st ru
o f
v r
li v
r it
u jí</w>
par ti
com e</w>
ag a
st o
m at
in y</w>
spe ci
is su
ž e
mus íme</w>
m á</w>
be cause</w>
stu p
roz hod
c ts</w>
en cy</w>
j ší</w>
ni t</w>
z ení</w>
su b
s mě
gh t</w>
g rou
si l
comm it
pod por
develo p
ca tion</w>
j eme</w>
m á
j in
al o
š ím</w>
ž í
l ob
o se</w>
o ch
pro te
ex ist
se l
proto že</w>
mez i</w>
de d</w>
t in
od po
k dy
č an
le d</w>
w n</w>
ten to</w>
j en
sup port</w>
ar i
ho we
u s
ov er
howe ver</w>
u p</w>
m an</w>
so lu
je j
vo t
ra z
an s</w>
le p
su ch</w>
stá ty</w>
tu r
m p
te ch
t n
st at
g lob
ob čan
ener gy</w>
a d</w>
wi th
pro gra
v od
zá klad
d í
pro pos
en ti
qu e
a re
marke t</w>
ro b
lo gi
d ru
re gu
ch od
sp ě
č as
su re</w>
ř en
ov o
ž ení</w>
by la</w>
di re
d u</w>
z pů
d ne
som e</w>
man y</w>
nov é</w>
z mě
ne s
sion s</w>
pro ti</w>
e ve</w>
jej ich</w>
ho spo
the refor
therefor e</w>
n ity</w>
sl ov
k ov
po in
n ení</w>
l in
or y</w>
s lu
v en
op at
ti ck
th ose</w>
j ist
př i</w>
hospo dá
vá m</w>
a ch
g a
h y</w>
s in
ř e</w>
por tu
hospodá ř
pu bli
št ě</w>
t ím</w>
vá žen
f ra
wh en</w>
r y
e ment</w>
s vět
n e</w>
wa y</w>
spo lu
stan ov
za mě
ležit o
z i
zem ě
v y</w>
l an
d r
c ra
o h
ap pro
we en</w>
bet ween</w>
ve d</w>
strate gi
č á
ro u</w>
p o</w>
prac ov
org an
si ble</w>
pro ce
x t</w>
di f
le t</w>
de b
ta to</w>
p á
rá m
ar s</w>
tak e</w>
in to</w>
j de</w>
bi lity</w>
il a</w>
ar ly</w>
tr y</w>
ni ct
v is
ne ž</w>
pre s
com mu
c or
ad y</w>
ho to</w>
och ran
ž ád
econ omi
a ce</w>
r ů
n ým</w>
to hoto</w>
spo n
j en</w>
grou p</w>
vy t
c ed</w>
roz vo
leg is
ma ke</w>
s á
pro vi
pr v
il i</w>
mo st</w>
bud ou</w>
my sl
s í
f re
st s</w>
in á
re spon
con cer
commis sion
m is
l on
si g
p t</w>
de ci
th in
komis a
p í
te e</w>
develop ment</w>
v al
k ou</w>
un d
ci ti
v in
do hod
pla t
n it
ty to</w>
in cre
ar ds</w>
th an
kte ří</w>
y s</w>
b a</w>
c ri
ci al</w>
by l</w>
sm lou
kdy ž</w>
pod po
ch tě
con su
d om
prá v</w>
š í
opat ření</w>
an y</w>
mů že</w>
b ě
a st
to ho</w>
commission er</w>
min ist
k á
in a</w>
evropsk á</w>
vi e
n out</w>
tre at
ži vot
fir st</w>
člen ských</w>
e le
vše ch
p li
l í
cou r
pro je
soci al</w>
v nit
h ere</w>
hu man</w>
al s</w>
č en
que sti
th ing</w>
ho w</w>
politi cal</w>
le s</w>
en vi
th an</w>
p le</w>
envi ron
ř i</w>
mě li</w>
citi zen
n ing</w>
ou n
ment al</w>
ji ž</w>
the m</w>
re g
ran i
a ch</w>
po si
qu i
r en
h al
n y
k t
be li
in st</w>
aga inst</w>
p s</w>
in ve
rá d</w>
ví ce</w>
prob lé
ed u
př ed</w>
ja s
ac ce
sv é</w>
tom to</w>
li m
jed n
ra p
vo te</w>
mi li
economi c</w>
e l</w>
za h
thin k</w>
citizen s</w>
be ing</w>
li sa
se e</w>
ř it</w>
ge t</w>
ac í</w>
to m</w>
m ov
sk o</w>
w ere</w>
ž í</w>
ž ad
g over
evropsk ého</w>
sá h
af ri
r ing</w>
ny ní</w>
vý rob
stát ů</w>
no stí</w>
g ene
zem ě</w>
ef fe
me a
parla ment</w>
sk y
ch áz
b al
fu l
ch to</w>
d re
al y</w>
re spe
prá ci</w>
wel l</w>
par tn
pří pad
re m</w>
tom u</w>
st ri
re la
sa mo
demo kra
in clu
ste j
sou čas
wh ere</w>
sk ého</w>
kla d</w>
dru h
deb ate</w>
v a</w>
l u</w>
la r</w>
ře j
infor ma
v ing</w>
k em</w>
tě chto</w>
treat y</w>
sk á</w>
smě r
coun try</w>
prá ce</w>
demo cra
ju st</w>
d ra
v ů
pr ů
po č
š en
tech no
com pe
lo w</w>
ka ž
m en</w>
situ ation</w>
to to</w>
ac i</w>
ve řej
sk a</w>
p is
200 7</w>
země děl
zem í</w>
fi ci
ope ration</w>
min u
ce ss
c k</w>
rám ci</w>
práv a</w>
po mo
go od</w>
0 0</w>
und er
t oda
sh i
beli eve</w>
č ení</w>
toda y</w>
in ci
te ly</w>
p ac
ně jší</w>
vel k
sa y</w>
ing s</w>
on s</w>
commit tee</w>
jmé na</w>
ko li
issu e</w>
ye ars</w>
li s
con tin
návr h</w>
c ů</w>
z ře
po sky
politi ky</w>
l s</w>
m ě</w>
ra dy</w>
m a</w>
ck ých</w>
g ro
ná m</w>
gover n
t w
st ro
m il
hal f</w>
ne m</w>
l ov
se m
k s</w>
tiv ní</w>
g es</w>
is h</w>
ze jména</w>
pod le</w>
te m</w>
lo sti</w>
za ce</w>
ř ad
kaž d
e ven</w>
skup iny</w>
ali ty</w>
w rit
vy u
kte rou</w>
je ho</w>
nu tí</w>
mad e</w>
st e</w>
spo tře
righ t</w>
cle ar</w>
jí cích</w>
a men
c ted</w>
h ar
em p
a bychom</w>
th rou
s věd
ne d</w>
sch op
vý z
dne s</w>
stá le</w>
cur ity</w>
a do
ú čin
d ou
ří zení</w>
vie w</w>
bud ou
společ en
su res</w>
st ate</w>
je ště</w>
u jící</w>
důležit é</w>
or s</w>
r s</w>
všech ny</w>
ener gi
by ly</w>
fu ture</w>
ev er
t í
s ov
ov er</w>
hod no
vý zna
ně ní</w>
š ích</w>
solu tion</w>
d an
publi c</w>
ní mi</w>
s si
re su
ná z
v ím</w>
zpráv a</w>
u e</w>
l ar
di es</w>
ti c</w>
hlas ování</w>
š tě
z prav
fac t</w>
wor ld</w>
ach i
tw o</w>
te ch</w>
odpo věd
x i
ti a
zprav oda
tu ral</w>
g ent
ň ov
re ady</w>
s na
se t</w>
mez iná
tu to</w>
do es</w>
cer ta
p i
meziná rod
ob chod
mu ch</w>
k dy</w>
jedno t
con si
ch y
h em</w>
mí st
chan ge</w>
zna men
por te
p ě
b on</w>
ye ar</w>
p e</w>
pr inci
rap porte
i a</w>
co operation</w>
mea sures</w>
cou ld</w>
a se</w>
ve l</w>
inte re
inter national</w>
propos al</w>
j ů</w>
y ing</w>
tiv es</w>
than k</w>
ží v
ma jí</w>
v la
j o
pí sem
h le
en d</w>
ž eme</w>
vy š
člen ské</w>
p an</w>
v es</w>
směr ni
di sku
t a</w>
lo w
tr hu</w>
sa id</w>
ro ris
agre ement</w>
comm on</w>
par t</w>
pos sible</w>
w ant</w>
se curity</w>
fu l</w>
poin t</w>
z vlá
prote ction</w>
sou vis
má me</w>
l ing</w>
k á</w>
i g
do sáh
ag en
z í
ka z
zře jm
im ple
em is
mí t</w>
re c
ur č
sa me</w>
re du
m ed
při j
tý ka
s práv
č í
resu l
naš e</w>
zá s
vyt vo
potře b
mem b
z de</w>
al o</w>
partn er
mad am</w>
prob le
o m</w>
pří klad</w>
al ready</w>
te n</w>
th re
k r
n al</w>
k now</w>
be half</w>
ha d</w>
ro ku</w>
bu de
ne ed
mů žeme</w>
pre sen
questi on</w>
amen d
stu p</w>
le vel</w>
ent ly</w>
p lá
ser vi
pod ni
or ity</w>
sk ý</w>
in di
sk u</w>
dů raz
b on
evrop ě</w>
op e</w>
di alo
zd ra
č i</w>
m m
ú rov
commu nity</w>
k va
p at
d ly</w>
vážen ý</w>
zd ro
mě la</w>
le ss</w>
hla v
sv ob
od y</w>
b ot
dal ší</w>
prostřed í</w>
to o</w>
vý bor
d ovo
or u</w>
the n</w>
společen ství</w>
na vr
he l
gent le
organ i
in e</w>
strate gy</w>
vše ch</w>
před lo
or der</w>
ch il
ag e</w>
jmé nem</w>
ro ce</w>
spo jen
š it</w>
im pro
om e
h ou
leg al</w>
ac tion</w>
kon e
st ar
cí lem</w>
it e</w>
gentle men</w>
throu gh</w>
roz prav
la dies</w>
f le
pou ze</w>
ta tion</w>
co l
st ill</w>
ne z
spotře bi
ou gh</w>
zá j
d od
te xt</w>
20 1
writ ing</w>
c lo
č ních</w>
vz ta
potře bu
zamě st
w om
ně ž</w>
pod mí
poz or
dif fer
ř ád
d áv
n an
dis cu
u ž</w>
vla st
uni i</w>
re fer
evropsk ý</w>
j ev
er i
pá nové</w>
syst em</w>
bude me</w>
ado p
with in</w>
ra d
kon tro
n ém</w>
bot h</w>
po l
ener ge
u r</w>
ex am
v á</w>
200 8</w>
au th
lis bon</w>
co ž</w>
před pis
cour se</w>
ste ch</w>
dá my</w>
sin ce</w>
so lid
inte gra
v ě</w>
un der</w>
lisa bon
do prav
ře šení</w>
vy j
ori ties</w>
u ji</w>
t ov
in ten
evrop y</w>
t né</w>
la w</w>
compe ti
rapporte ur</w>
st áv
h ov
wh y</w>
nict ví</w>
písem ně</w>
e k</w>
c ing</w>
2 0</w>
z vý
po žad
z důraz
in du
c s</w>
h lá
poz mě
techno logi
cu lar</w>
trans par
sou r
do sa
de s</w>
en sure</w>
rov něž</w>
ná s</w>
speci fi
he al
způ sob
ne cess
b ar
ou r
at ing</w>
wom en</w>
y our</w>
p l</w>
případ ě</w>
z lep
pla ce</w>
zřejm ě</w>
způ so
dire ctive</w>
li t</w>
are a</w>
urč it
lon g</w>
k ou
ne u
c lim
č ně</w>
ra te</w>
ma y</w>
n or
mysl ím</w>
be z</w>
wh e
te dy</w>
vá dě
ro ve
clim ate</w>
eu r</w>
t ní</w>
práv ní</w>
org á
na příklad</w>
ko li</w>
zpráv ě</w>
rove ň</w>
re as
o wn</w>
se ct
e t</w>
zá ležito
op portu
or d
memb ers</w>
vět ší</w>
imple men
č ast
pra vi
záv a
před stav
poz i
r u</w>
in de
shi p</w>
politi ck
m é
per i
vz děl
parti cular</w>
ne do
předsed o</w>
fu r
budou c
tra de</w>
k li
an i</w>
we r</w>
tře ba</w>
t ně</w>
se con
k rá
tak en</w>
ra da</w>
finan cial</w>
t ly</w>
sk ou</w>
m ber</w>
ti fi
oh led
u ved
t vr
cur r
ře k
stan d
výbor u</w>
h is</w>
o s
u es</w>
dom ní
pan a</w>
za jist
tak ov
sa fe
m al
la st</w>
c al
stru k
as pe
u mož
m ers</w>
exam ple</w>
por u
ma j
dá le</w>
sub je
le a
h e</w>
regu la
ž it</w>
is h
c ar
ro le</w>
k o</w>
me r</w>
samo zřejmě</w>
skuteč ně</w>
pře svěd
ag ri
su c
pro c
re ali
s ní
rozhod nutí</w>
pro st
for e</w>
soci ální</w>
agri cul
tri bu
dů vod
ci es</w>
da y</w>
ar ity</w>
dob r
zás ad
mno ho</w>
1 9
be fore</w>
s k</w>
med i
i de
ob je
v at</w>
pří ležito
c ally</w>
proce ss</w>
fun da
va ž
od vět
with out</w>
v é
legis la
h ope</w>
are as</w>
po sed</w>
ti cké</w>
ně koli
s h</w>
rů z
mat u</w>
ko leg
ca se</w>
před ev
re qui
parti cul
zpráv u</w>
úrov ni</w>
předev ším</w>
prob lem</w>
p ly</w>
glob ali
necess ary</w>
particul arly</w>
legis lation</w>
k lá
h a</w>
fo l
col le
podpor u</w>
in e
posi tion</w>
u z
ge r</w>
trans port</w>
ce st
ú spě
ko sov
s es</w>
c tions</w>
heal th</w>
me ans</w>
lid ských</w>
energi e</w>
jedn ání</w>
ti m
r o</w>
pos lan
il o</w>
som e
ná stro
i tel
pod ě
li on</w>
g en
l ení</w>
ví t
sil í</w>
fo re
n s</w>
sel f</w>
ou s
bet ter</w>
situ ace</w>
e ss
k do</w>
vý sled
za ci</w>
b an
moh ou</w>
infor m
áv ání</w>
ne po
roz poč
záv is
lid í</w>
f r</w>
no st
en ts</w>
ná rod
k de</w>
issu es</w>
i d
st ou
b í
pu t</w>
hou se</w>
d lou
af ter</w>
m ů</w>
k áz
informa tion</w>
pří stup</w>
o be
u plat
de c
chtě l</w>
c ím</w>
re solution</w>
za sed
s le
s u</w>
gu e</w>
mi gra
con di
servi ces</w>
ob y
inve st
proble ms</w>
pos led
návr hu</w>
ch ar
je jí</w>
kter ých</w>
t ru
lo y
ru les</w>
b la
č í</w>
wa ys</w>
e t
sour ces</w>
k ri
je m</w>
gro w
evropsk ou</w>
s sion</w>
govern ment</w>
fra me
á ch</w>
nes ení</w>
u jeme</w>
komis i</w>
em i</w>
si bility</w>
lo o
k no
ful ly</w>
presid ency</w>
pozmě ňov
pod ob
m lu
zpráv y</w>
kva li
vyj ád
te le</w>
li be
ord in
us nesení</w>
per s
stej ně</w>
po h
evropsk ých</w>
pen d
u l
o te
gre at</w>
funda mental</w>
qu ality</w>
respe ct</w>
př ist
souvis losti</w>
pro mo
is ed</w>
w s</w>
dre n</w>
chil dren</w>
mož né</w>
mě l</w>
naš ich</w>
návr hy</w>
de l</w>
u dr
te k</w>
ex tre
deci sion</w>
a tions</w>
nu mber</w>
con tribu
směrni ce</w>
frame work</w>
th ir
f on
regu lation</w>
záv ě
f li
zased ání</w>
bi li
ž en</w>
ne xt</w>
li st
dou f
fa v
ser i
vnit ro
z ni
pa ra
druh é</w>
š e</w>
při po
kra č
h ovo
f t</w>
stran y</w>
om o
kon kr
á me</w>
a si
ň uje</w>
vnitro stát
e sta
obe c
konkr é
otáz ky</w>
pres ent</w>
ma in
te x
ch a
kon ku
al len
fur ther</w>
b as
at a</w>
op ini
fre ed
ne go
do kon
stru c
re presen
po pu
h ů</w>
i le</w>
in d</w>
v an
esta bli
whe ther</w>
regi on</w>
pro hlá
m od
ke y</w>
e kon
hi gh
vy so
n ými</w>
evrop a</w>
in vol
ov al</w>
con tro
su mm
com ple
ce p
ini tia
o st</w>
zd a</w>
l ém</w>
ekon omi
dů sled
a ted</w>
znamen á</w>
1 0</w>
sect or</w>
pří m
předsed nictví</w>
aga in</w>
o c
ma in</w>
dif fi
of fi
need s</w>
de fin
speci ally</w>
situ aci</w>
ac coun
t ou
f e</w>
l and</w>
diffi cul
základ ě</w>
ru ssi
po stup
b en
si ve</w>
ope ra
odvět ví</w>
ni l</w>
gi ve</w>
pro gre
tr h</w>
e specially</w>
w ard</w>
vy z
sou hlas
mě ly</w>
ever y
bu r
prac ti
por ts</w>
hel p</w>
z mí
st ry</w>
sk ým</w>
o sob
appro ach</w>
ž á
společ nosti</w>
on g</w>
nict vím</w>
hi gh</w>
h ist
si mp
j ste</w>
i ch
lin e</w>
ap pli
ef for
produ cts</w>
differ ent</w>
ch allen
safe ty</w>
ní mu</w>
at ten
wel come</w>
ter s</w>
s c
ha p
zaměst nan
j á</w>
strategi e</w>
ou t
po krač
con clu
mat ter</w>
na ší</w>
institu tions</w>
e l
zá kon
g o</w>
soci ál
mezinárod ní</w>
potřebu jeme</w>
c a</w>
ry ch
ini ci
vět š
na d
produ ction</w>
ku ji</w>
gi ven</w>
se ar
o l
zna č
th ough</w>
it u</w>
incre ase</w>
t al
agre e</w>
vý vo
u m</w>
kli matu</w>
er n</w>
wor k
u sed</w>
ob nov
mé ně</w>
certa in</w>
b ac
f ar
týka jící</w>
pe r</w>
i lity</w>
environ ment</w>
ba sed</w>
věd om
minu tes</w>
tý ká</w>
me ly</w>
har mon
ob sa
adop ted</w>
spolu práce</w>
gu ar
ro k</w>
komisa ři</w>
edu cation</w>
ci vi
o sti</w>
indu stry</w>
i ly</w>
uni ted</w>
a sed</w>
t é</w>
go ing</w>
cen tra
zá roveň</w>
wh ile</w>
bud get</w>
smlou vy</w>
p is</w>
stan ce</w>
práv ě</w>
význa m
mili on
lep ší</w>
vnit ř
ter roris
finan ční</w>
d í</w>
contin ue</w>
proc edu
glob al</w>
fe r</w>
exist uje</w>
oby va
f ran
zem ích</w>
spolu práci</w>
a ž</w>
a jí</w>
p as
z at
thre e</w>
domní vám</w>
ochran u</w>
an other</w>
rá da</w>
o stat
200 6</w>
effe ctive</w>
condi tions</w>
soci e
podmí n
sa tion</w>
prostřed nictvím</w>
způso be
gre a
fle xi
fa r</w>
com pan
se t
prob lém</w>
i es</w>
enti al</w>
žív ání</w>
sk ými</w>
s l</w>
vš ich
všich ni</w>
zem i</w>
ve ly</w>
stá t</w>
ch ž</w>
ú da
vé st</w>
stá tech</w>
sta ti
opini on</w>
č er
w ards</w>
ni c</w>
k y
i m</w>
h rani
re sear
výz ku
ně j
sti ce</w>
po važ
navr h
za po
spotřebi tel
propos als</w>
po kro
mě lo</w>
m rs</w>
za ved
š k
prv ní</w>
libe ra
l ů</w>
inclu ding</w>
dohod y</w>
solid arity</w>
b r
vě ci</w>
rozvo j</w>
l ze</w>
dovo l
způsobe m</w>
reg ard</w>
ous ly</w>
ří ci</w>
st itu
w ish</w>
ú lo
tech ni
bas is</w>
v ou</w>
po vin
inst ru
un d</w>
dosáh nout</w>
vy h
s ing</w>
ště ní</w>
m to</w>
inici a
k é</w>
z ná
na řízení</w>
če k
po ten
co g
ter ms</w>
ef fici
st ron
cou ra
dě kuji</w>
wh o
ote v
import ance</w>
rov at</w>
ovan é</w>
re cog
progre ss</w>
posky t
pomo ci</w>
gene ral</w>
chy b
incre as
de n</w>
zí sk
nej en</w>
g ing</w>
la b
ci e</w>
w ar
k t</w>
nez by
do ku
č it</w>
občan ů</w>
inter nal</w>
d it</w>
vá ž
pu r
fre e</w>
t ar
d one</w>
te l</w>
m ého</w>
pl an
man ag
fol low
bezpeč nosti</w>
od s</w>
pan u</w>
in tro
ži tel
dob ě</w>
k tiv
freed om</w>
am eri
refer en
mil lion</w>
la te</w>
konku ren
stati sti
společ né</w>
v če
for ward</w>
ov ali</w>
en ing</w>
ta in
t ů</w>
problé my</w>
intro du
ce la</w>
loy ment</w>
tu ry</w>
fav our</w>
gra tu
j ení</w>
d la</w>
svob od
resear ch</w>
am bi
poli cies</w>
si de</w>
hu man
řek l</w>
sel ves</w>
mon it
t ary</w>
portu g
ma king</w>
ad di
cle arly</w>
g ed</w>
auth orities</w>
atten tion</w>
ta ble</w>
b ro
sta in
b er
sv ou</w>
m ám</w>
democra cy</w>
as k</w>
s ho
fin ally</w>
amend ment</w>
prav ed
dovol te</w>
colle ag
ig n</w>
guar an
tak ing</w>
ra ble</w>
pro vádě
politi ku</w>
nov ých</w>
o th
Č í
pos í
om y</w>
za bý
to ge
opportu nity</w>
za bezpeč
toge ther</w>
bě hem</w>
thir d</w>
ta b
d ers</w>
so l
con stitu
b ru
finan c
0 00</w>
př is
mi se</w>
su r
m ob
vo ted</w>
t ě</w>
v u</w>
n ů</w>
a ir
tra di
slu ž
resul t</w>
jedno du
wor king</w>
me m</w>
vzděl ávání</w>
ch u</w>
to wards</w>
st ren
me chan
st and</w>
democra tic</w>
s lo
re ly</w>
fi c
subje ct</w>
environ mental</w>
an al
z cela</w>
slu š
ck ého</w>
stren g
refor m</w>
ra l
fe w</w>
n ému</w>
ra tifi
ar u
hle dem</w>
em s</w>
če t</w>
zvlá št
ví c</w>
ne k</w>
c ti
5 0</w>
who le</w>
tu re
ov ala</w>
ye t</w>
m ž</w>
socie ty</w>
práv o</w>
secon d</w>
r a</w>
syst ému</w>
sv ých</w>
consu mer</w>
v ari
k ty</w>
h or
ever y</w>
vče tně</w>
á r
požad a
ne i
mechan is
ti al</w>
be come</w>
syst ém</w>
cí le</w>
consi de
z nov
ová ním</w>
ochran y</w>
lid é</w>
jed in
skuteč nosti</w>
s r
pl ně</w>
ob dob
l í</w>
ku l
a le
commu ni
ú silí</w>
d en
su stain
ně které</w>
fun ds</w>
ň ování</w>
zah r
ti t</w>
ne ch
di d</w>
pod í
is ation</w>
z alo
su f
gra p
cri min
z ku
ní ků</w>
vá s</w>
politi ka</w>
i ra
ene ss</w>
certa in
en ces</w>
du ring</w>
zá pis</w>
roz ší
otáz ka</w>
migra tion</w>
in ov
douf ám</w>
achi eve</w>
vi z</w>
při prav
d ata</w>
p it
ne bo
bu il
ě ní</w>
ple s</w>
za ji
náz oru</w>
sta teč
russi a</w>
jí cí
c eme</w>
progra m
prohlá šení</w>
pe d</w>
grea ter</w>
ch ina</w>
záva z
tu ally</w>
princi ple</w>
jo in
předsed a</w>
o ček
i z
fer ence</w>
bezpeč nost</w>
práv ních</w>
st re
h ra
agricul tural</w>
vyt vá
stanov i
re ally</w>
b u</w>
ss ing</w>
re sources</w>
n al
curr ent</w>
ck ý</w>
sk ém</w>
s ing
respon sibility</w>
pří stup
establi sh
zajist it</w>
u děl
provi de</w>
ni fic
v ž
udr žitel
moh li</w>
econ omy</w>
vz hledem</w>
jednot liv
com b
zpravoda j
ov ých</w>
acce ss</w>
s it
maj or</w>
komisa ř
c ro
u čin
ná sled
ess ential</w>
jm out</w>
g ran
dr ž
cház e
pl y
lo gy</w>
li fe</w>
kro mě</w>
emis sions</w>
dod r
indi vi
de ch</w>
by li</w>
region al</w>
n ání</w>
amend ments</w>
z í</w>
ni ž
politi cké</w>
otáz ku</w>
na dále</w>
grow th</w>
skuteč nost</w>
accoun t</w>
sch vá
implemen tation</w>
f ish
vě ř
program me</w>
mu l
š ko
sa z
jí t</w>
sig nific
ac cor
za ch
pro posed</w>
pří li
n on
fa ir
za č
for ce</w>
com ing</w>
terroris m</w>
indivi du
c ení</w>
žen y</w>
hle di
en coura
ad minist
ve li
obdob í</w>
pří sluš
pro č</w>
consu mers</w>
su g
se qu
prv é</w>
znov u</w>
ven tion</w>
te roris
rou s</w>
pri ority</w>
obla stech</w>
nebo ť</w>
le te
inicia tiv
fi ed</w>
c all</w>
zdra ví</w>
u kra
specifi c</w>
for m
fin d</w>
sou la
r ene
bu sin
st u</w>
pomo c</w>
g in
š e
nal é
k ům</w>
summ it</w>
po čet</w>
otáz ce</w>
kosov o</w>
e ach</w>
ch u
ne jsou</w>
h and</w>
ter m</w>
some thing</w>
p pe</w>
b or</w>
appro pri
stou p
re al</w>
offi ce</w>
nego tia
dob ře</w>
vážen á</w>
do wn</w>
základ ní</w>
pac t</w>
dialo gue</w>
sou sed
jas ně</w>
vi o
sing le</w>
is t</w>
d á</w>
al low</w>
intere sts</w>
zdro jů</w>
ex pe
e qu
d ů</w>
pr is
ka m
b il
po se</w>
lar ge</w>
kno w
ce i
al ways</w>
mo hu</w>
š tí</w>
ad dre
na d</w>
kla dy</w>
con gratu
změ ny</w>
ad ing</w>
sta te
roz u
proce su</w>
on ce</w>
a id</w>
ti c
př á
suc ce
stran ě</w>
st ly</w>
orgá ny</w>
c tives</w>
ben ef
ví me</w>
for m</w>
b rá
am ong</w>
velk é</w>
ru le</w>
loo k</w>
c la
vž dy</w>
l é</w>
in nov
achi e
mož nost</w>
h an
f y</w>
s ha
ká ch</w>
důvod u</w>
pers on
reg ar
kter ým</w>
human it
ct ví</w>
ch e
hist ori
sti ci
sh all</w>
nu t
ac t</w>
život ní</w>
zah rani
s sed</w>
jí cím</w>
ful l</w>
difficul t</w>
ci on
be st</w>
pe stici
několi k</w>
lea st</w>
roz dí
rec ent</w>
li t
g er
b ri
bac k</w>
ri zi
reas on</w>
ni la</w>
ck ou</w>
fro n
b od
mno ha</w>
an é</w>
č lá
předpis ů</w>
as se
ě hov
seri ous</w>
rela tions</w>
pracov ní</w>
ne dáv
e p</w>
d ate</w>
ál ních</w>
vlá d
svět ě</w>
soula du</w>
sní žení</w>
po tra
lisabon ské</w>
hledi ska</w>
vyš ší</w>
ová ny</w>
pri or
ne závis
kt ů</w>
k lí
že l</w>
p t
ov i</w>
příli š</w>
im pact</w>
č ního</w>
com men
s praved
emp loyment</w>
ch ci</w>
č e</w>
rozprav a</w>
ov á</w>
fo cu
e ments</w>
for tu
ste p</w>
effor ts</w>
ac ti
region s</w>
život ního</w>
ch ceme</w>
nei gh
in u</w>
neigh b
mysl u</w>
moh la</w>
je jí
dokon ce</w>
rene w
odpo vě
it self</w>
dí ky</w>
z ů
v al</w>
t le</w>
ra ther</w>
id enti
wor ds</w>
při je
h uje</w>
de al</w>
oček áv
ex peri
progra mu</w>
pod stat
mož ná</w>
inde pend
stá tu</w>
le st
k ovat</w>
in f
sm all</w>
sh or
z kou
sup por
sou čá
c ting</w>
slu že
resul ts</w>
přist ěhov
m er
ji m</w>
význa m</w>
t or</w>
lin es</w>
k i
č em
základ ních</w>
grou ps</w>
děl ení</w>
bi o
s </w></w>
ně kterých</w>
know led
transpar ent
tion ed</w>
představ uje</w>
de leg
ú čast
z y</w>
vlast ní</w>
portug al
h er
em ber</w>
tel né</w>
marke ts</w>
ha ving</w>
fortu na
200 5</w>
záležito sti</w>
pro s
kone c</w>
každ ý</w>
au tom
ap pe
m é</w>
vy žad
va jí</w>
negotia tions</w>
dodr ž
ř il</w>
u kon
t le
pří pa
pro mis
concer ned</w>
a va
ta ck
rů st</w>
n l</w>
len ce</w>
energe tick
th ings</w>
mě sí
tu al</w>
st ed</w>
posi tive</w>
nu tné</w>
budouc nosti</w>
as si
my š
hospodář ské</w>
concer ning</w>
ve k</w>
t la
naš i</w>
m lé
cour t</w>
t ent</w>
contro l</w>
sta bility</w>
při jmout</w>
jed nou</w>
fun g
služe b</w>
rozvo j
klí č
concer ns</w>
a však</w>
vari ous</w>
sit ting</w>
prů my
competi tion</w>
th s</w>
t ors</w>
sti c</w>
d ří
emp ha
inde ed</w>
sou drž
slov en
e y</w>
pří prav
předpis y</w>
požada v
impro ve</w>
pozměňov ací</w>
ne r</w>
kon z
ce schop
od bor
min d</w>
cel é</w>
afri ca</w>
cház í</w>
vš em</w>
re li
fore ign</w>
zlep šení</w>
milion ů</w>
inter ne
com es</w>
po wer</w>
ge ts</w>
doprav y</w>
č i
h er</w>
follow ing</w>
su d</w>
stand ards</w>
ne bezpeč
na bí
uved en
pro jev
mon ey</w>
jin ých</w>
bor der</w>
poin ts</w>
f oun
e ho</w>
organi zace</w>
c ov
st ing</w>
prav omo
odpověd nost</w>
ab ility</w>
a sk
1 2</w>
ň ovat</w>
po sto
de m
certain ly</w>
ě jší</w>
vý ro
vý m</w>
vlá dy</w>
pa lest
prostřed ky</w>
ck á</w>
součas nosti</w>
prac ovat</w>
con text</w>
an ti
zdra vot
h led
ac tually</w>
a mi</w>
th em
t or
pozor nost</w>
men tioned</w>
an s
jin é</w>
work ers</w>
u pozor
struk tu
obchod u</w>
b ody</w>
2 7</w>
v hod
konkuren ceschop
cre ate</w>
al low
za v
h en
souhlas ím</w>
in fra
do cu
podmín ky</w>
ú řad
syst é
sustain able</w>
b lo
spe ak
součas né</w>
re cei
e ld</w>
ch op
otev řen
lisa tion</w>
200 9</w>
č as</w>
ú če
k ed</w>
a st</w>
19 9
of ten</w>
ná ro
fair s</w>
3 0</w>
ší ho</w>
i la
af fairs</w>
do poru
že le
tim es</w>
ne bude</w>
p se</w>
hospodář ství</w>
chtě la</w>
agre ements</w>
vě nov
dosa žení</w>
pla n</w>
con sequ
zeměděl ství</w>
z aru
ak tiv
sou d
consi der</w>
con tra
op ra
vyz ý
tiv eness</w>
non -
cal led</w>
al though</w>
vytvo ření</w>
sv ů
popu lation</w>
m la
k tu</w>
de mon
de f
svů j</w>
sm y
jed en</w>
dů vě
ava ila
ag o</w>
af fe
cí lů</w>
z ovat</w>
to o
t ku</w>
c ris
vyu ží
val ues</w>
v é</w>
e ch</w>
do pl
ře šit</w>
si t</w>
e fe
a bych</w>
čast o</w>
dal ším</w>
e se</w>
dal ších</w>
qu ite</w>
ová na</w>
m ed</w>
fo od</w>
vi d
smlou va</w>
pre ss</w>
mu s</w>
mi mo
le n</w>
ju stice</w>
compan ies</w>
žit í</w>
n alo
le tech</w>
en g
ab solu
ži vo
a im
tí mto</w>
oth ers</w>
minist er</w>
chan ges</w>
ob vi
naš eho</w>
mě r
financ ování</w>
vů li</w>
represen ta
lab our</w>
fortuna tely</w>
skup ina</w>
fi ght</w>
zah á
z u</w>
sub si
partner ství</w>
ca ses</w>
re ach
princi ples</w>
fun d</w>
evrop u</w>
ra di
míst o</w>
u to</w>
techno logy</w>
pro spě
bo hu
ta in</w>
podě kov
ope n</w>
mus ím</w>
dne š
bohu žel</w>
vý bor</w>
tě ž
ob ě
demokra tick
intere st</w>
contin u
challen ges</w>
ad er
žele zni
vá me</w>
pě t</w>
far mers</w>
ari an</w>
agen da</w>
reg ards</w>
la te
k v
ex ter
co sts</w>
centra l</w>
under stand</w>
rá n
ob li
initia tive</w>
g as</w>
ci li
b ring</w>
po stav
appropri ate</w>
vít ám</w>
ist an</w>
hlav ní</w>
ex cel
z i</w>
rozvo je</w>
ri sti
fe l
de p
vy svět
s is</w>
pracov ních</w>
ál ně</w>
z ích</w>
ver s
tom uto</w>
star t</w>
per ha
perha ps</w>
i an</w>
h roz
procedu re</w>
1 5</w>
š ť
zalo žen
přístup u</w>
fi cation</w>
y oun
n at</w>
mno ž
knowled ge</w>
demokra cie</w>
u stanov
questi ons</w>
občan y</w>
úspě š
vů či</w>
sta bili
moh l</w>
speci al</w>
jak é</w>
bu l
vý chod
ka mi</w>
c ent
ně co</w>
char ter</w>
po st
po d</w>
mo del</w>
bezpeč nost
pro mise</w>
pre zi
pravi dla</w>
pra cu
ne ss</w>
k es</w>
exist ují</w>
c ům</w>
ad van
vý hod
tre st
rozpoč tu</w>
recog ni
přije tí</w>
obnov itel
dří ve</w>
2 5</w>
region u</w>
re le
před po
ne můžeme</w>
ca tions</w>
š lo</w>
zvlášt ní</w>
země mi</w>
so b</w>
ne ga
jed ním</w>
sle du
pac k
t ory</w>
integra tion</w>
ac ích</w>
w an
teroris mu</w>
sl ou
ná klad
myš len
le ti
ál ního</w>
s ci
mí t
bla ho
acti vi
zvlá ště</w>
vi sion</w>
p ing</w>
need ed</w>
m it
join t</w>
š i
té ž</w>
suc cess
ris k</w>
k ce</w>
fi eld</w>
u p
regar ding</w>
mil k</w>
manag ement</w>
fi k
ti s
th us</w>
ni ch</w>
li ght</w>
kul tur
j ob
informa ce</w>
develop ing</w>
b ran
b ly</w>
z y
pro ces</w>
do st
u skuteč
strategi i</w>
pře s
c it
jed ná</w>
in ing</w>
gene ra
dobr é</w>
availa ble</w>
a w
vz ni
ro und</w>
re commen
proje ct</w>
colleag ues</w>
ti l</w>
ni ties</w>
i ce</w>
globali sation</w>
koli v</w>
re que
na konec</w>
an y
se cu
kla dem</w>
čin nosti</w>
potra v
kv ó
ex ten
vnitrostát ní</w>
e i
ve ment</w>
tex tu</w>
s pl
l ent</w>
jas né</w>
s por
pa k</w>
nes mí
mov e</w>
finan čních</w>
ct ly</w>
ag ency</w>
svob ody</w>
se ve
g in</w>
co ordin
civi l</w>
veli ce</w>
l y
demon stra
ú ko
občan é</w>
kaz uje</w>
b rit
z ní</w>
s cho
pro saz
podpo rovat</w>
lo st</w>
úlo hu</w>
administ ra
pozi ci</w>
simp ly</w>
prá ve
deci sions</w>
na prost
h on
ci i</w>
ca ted</w>
anal y
rad ě</w>
pod a
opportu nities</w>
ob a
ex pres
d ne</w>
sou hla
solu tions</w>
smě rem</w>
re ak
prostřed ků</w>
li v</w>
ac tions</w>
š ování</w>
youn g</w>
s pa
př ev
op ě
mu m</w>
ú č
z vyš
referen du
ob rov
maj ority</w>
in ě</w>
do stateč
them selves</w>
záj mu</w>
z ne
vo ting</w>
un fortunately</w>
pe ace</w>
invol ved</w>
b ra
zvý šení</w>
pa st</w>
t ři</w>
návr hů</w>
na tions</w>
mno hem</w>
emis í</w>
transpar ency</w>
posled ních</w>
množ ství</w>
j em
congratu late</w>
ma ti
excel lent</w>
a de
s v</w>
růz ných</w>
pokrač ovat</w>
po žád
partner ship</w>
ně me
ná š</w>
en a</w>
do ing</w>
com promise</w>
čen a</w>
redu ce</w>
pr ve</w>
po lo
os n</w>
e ss</w>
du e</w>
h om
extre mely</w>
společ ně</w>
stron g</w>
ohled u</w>
ni koli</w>
m om
job s</w>
individu al</w>
h á</w>
agricul ture</w>
respon sible</w>
re publi
parti ci
innov ation</w>
curr ently</w>
s an
pack age</w>
ni chž</w>
increas ing</w>
re stri
přesvěd č
k ám</w>
a ir</w>
p il
region ální</w>
posled ní</w>
le s
go ods</w>
de ta
commit ment</w>
žád né</w>
zamě řen
věř ím</w>
ss es</w>
signific ant</w>
při ja
pla y</w>
par ties</w>
ovan ých</w>
mo ci</w>
achie ved</w>
ry bo
progra mm
obje ctives</w>
cen y</w>
b lí
aw are</w>
ven kov
tr a</w>
l ých</w>
e c</w>
čem ž</w>
v it
com pli
af gh
člen skými</w>
spo ko
od stran
mi ght</w>
ou ght</w>
lid ská</w>
is ing</w>
nalé ha
zdůraz nit</w>
ter rit
soci ali
s la
d at</w>
sta vi
potře ba</w>
ch od</w>
vnitř ní</w>
moh ly</w>
jed náv
je ž</w>
h y
disku se</w>
tru e</w>
le ar
cris is</w>
bal í
pri v
pre c
con fli
zdro je</w>
u na
nepo ko
le ad</w>
d i</w>
s or
obyva tel
ne může</w>
ar gu
čen o</w>
stáv á</w>
p y</w>
nu clear</w>
me e
l ní</w>
ist i
concer n</w>
řád ně</w>
áv á</w>
záj em
pri ces</w>
nov ý</w>
legisla tive</w>
hap pen
dou b
co he
activi ties</w>
pů vod
fe el</w>
dlou hod
vo le
ter na
te mp
sp ite</w>
energe tické</w>
ži l</w>
řad ě</w>
vytvo řit</w>
ter i
podě kovat</w>
lo cal</w>
sr b
mod er
f ri
u vědom
t al</w>
spojen ých</w>
několi ka</w>
u zav
součá stí</w>
se a</w>
mon ths</w>
vš e</w>
o sob</w>
če k</w>
v zájem
s ně
proje cts</w>
j ader
do st</w>
střed ní</w>
promo te</w>
mul ti
dě tí</w>
dě ti</w>
de li
u ži
sk em</w>
sh are</w>
ro w</w>
opra v
ment ary</w>
m im
en ough</w>
200 4</w>
poh y
pe v
mu se
ho ž</w>
exist ing</w>
ele ctions</w>
e g
dlouhod ob
b an</w>
tur n</w>
invest ment</w>
d va</w>
ce lo
ř ili</w>
ú stav
podpor uji</w>
ple ased</w>
oh ro
ne t
důsled ku</w>
po chop
ov aly</w>
m at</w>
i rá
aspe cts</w>
ří me</w>
při čemž</w>
pa red</w>
lar ge
hlas ovat</w>
c emi</w>
ap pla
při jí
mim o</w>
jedn at</w>
evropsk ým</w>
evropsk ém</w>
d v
t on
prů myslu</w>
programm es</w>
pro ved
de k</w>
b ali</w>
z bo
spotřebi tele</w>
sou kro
par t
ná klady</w>
vý raz
vy kon
t rá
se x
pac ity</w>
prezi d
l ý</w>
cohe sion</w>
pre v
nezby tné</w>
k ind</w>
hodno cení</w>
g u</w>
dra w</w>
addi tion</w>
sug ge
succe ss</w>
ru ral</w>
pri me</w>
ov ou</w>
c y
b raz
spe ak</w>
secon dly</w>
contribu tion</w>
ck ým</w>
bo j</w>
t ting</w>
se en</w>
al terna
la ck</w>
d vě</w>
zku šen
tiv ity</w>
than ks</w>
re lation</w>
pod rob
dě t</w>
ba si
výsled ky</w>
ta x</w>
peri od</w>
ni c
kro ky</w>
effici ency</w>
e li
způso b</w>
za čí
vě c</w>
uděl at</w>
pře st
every one</w>
ú va
th er
instru ments</w>
fa ir</w>
by ste</w>
to le
pří spě
is m</w>
exter nal</w>
zat í
v rá
mi gran
me c</w>
di sk
c ru
č ním</w>
služ by</w>
prote ct</w>
ing ly</w>
i li
w ers</w>
tak že</w>
rá mec</w>
po ver
konkré tní</w>
k vůli</w>
develo p</w>
ř ilo</w>
ň ují</w>
úda jů</w>
zá stup
re main
pa y
ohled ně</w>
incre ased</w>
fun ding</w>
fa mi
respon se</w>
h rá
h r
ž ila</w>
syst ems</w>
slov in
příležito st</w>
portu gu
portugu ese</w>
oh le
busin ess</w>
vio lence</w>
pra k
po n
ob il
me th
ho l
bor ders</w>
zeměděl ské</w>
z nepoko
vše obec
výrob ků</w>
rů stu</w>
le gi
b á
assi stance</w>
nov á</w>
libera li
guaran tee</w>
dá t</w>
dis crimin
ture ck
re fle
při mě
podob ně</w>
p lo
obla stí</w>
mis sion</w>
im migration</w>
dec la
poslan ci</w>
focu s</w>
ni li</w>
me an</w>
govern ments</w>
se e
renew able</w>
ko ordin
j men
sv ého</w>
sně mov
sex u
seve ral</w>
pre vi
podpo řit</w>
náz or</w>
lit tle</w>
legisla tiv
fir stly</w>
discu ssion</w>
a im</w>
poten tial</w>
mee ting</w>
kon fli
fi c</w>
agre ed</w>
žen é</w>
že t</w>
z ru
pří s
posky tn
mě st
zaved ení</w>
dá m</w>
1 3</w>
š i</w>
ál ním</w>
zásad ní</w>
ter min
ral ly</w>
priv ate</w>
pre ven
pover ty</w>
ka ce</w>
ide a</w>
dů vo
ro man
om s</w>
con fi
su s</w>
stan e</w>
vě cí</w>
pro vo
po tle
nástro je</w>
ná sledu
ci r
ce m</w>
progra m</w>
problé mů</w>
po tvr
ně ji</w>
ck y</w>
tick y</w>
ser ve</w>
ser bi
min im
mat ters</w>
dob y</w>
ch rá
ji chž</w>
ř i
us ing</w>
tic le</w>
redu ction</w>
provi sions</w>
de l
ar ticle</w>
1 4
ž dě
prior it
k tivní</w>
em er
ap ply</w>
advan ta
vo lu
practi ce</w>
po sti
of f</w>
hlas oval</w>
šen ím</w>
potle sk</w>
podni ky</w>
mno h
inclu de</w>
ho d</w>
disk ri
ustanov ení</w>
umož ní</w>
tur key</w>
ta x
sv ém</w>
suf fici
re public</w>
re main</w>
příležito sti</w>
organ is
ní ky</w>
fin al</w>
confi d
clo se
acce p
201 0</w>
rozpoč tov
partn ers</w>
ome z
o kam
no thing</w>
krá t</w>
ko ho
in ou</w>
zpravoda j</w>
za čá
val ue</w>
pro per
ka z</w>
j an
ad u</w>
z er
sy m
st í
servi ce</w>
organi za
komisař ko</w>
dec ember</w>
cro ss
clo sed</w>
Ř e
v ra
tě ch</w>
politi ckých</w>
ov ého</w>
kov ých</w>
kone č
u n</w>
sub stan
ro ad</w>
ome zení</w>
ni ka
man u
empha si
c an
b ře
ac ro
201 3</w>
tra ining</w>
k an
diskri min
z bran
su per
per spe
obje ctive</w>
mu n
indu stri
grap hi
život a</w>
the less</w>
sou tě
set k
requi re
appla use</w>
přij at
ová n</w>
men š
do sud</w>
al koho
te ro
s niž
referendu m</w>
ine se</w>
vlá da</w>
tr v
reas ons</w>
nic méně</w>
me t
ma kes</w>
lé pe</w>
jed né</w>
am oun
ab ov
žen o</w>
spotřebitel ů</w>
re ach</w>
přesvědč en</w>
prospě ch</w>
bo ji</w>
y mp
uz náv
re view</w>
podpor y</w>
j it</w>
c at
b in
z lo
veřej né</w>
s sions</w>
m ing</w>
ch á
r ů</w>
ol ymp
ní ž</w>
kro k</w>
en ed</w>
communi cation</w>
za člen
tře tí</w>
národ ní</w>
nej prve</w>
kone čně</w>
en é</w>
b ou</w>
ř ila</w>
zd á</w>
zaji štění</w>
za jí
spojen é</w>
re ports</w>
poz ná
kdy by</w>
e ver</w>
budouc nost</w>
abov e</w>
té mě
témě ř</w>
s vě
pokro ku</w>
pas sen
ni kdy</w>
jednotliv ých</w>
initia tives</w>
cí l</w>
co st</w>
ans wer</w>
vzta hy</w>
tel ů</w>
s sa
před stavi
i led</w>
environ ment
vz d
ex press</w>
dohod a</w>
větš ina</w>
tu je</w>
si l</w>
pro fe
op ak
obla st</w>
my s
inve sti
en su
šk od
struc ture</w>
s y</w>
pů dy</w>
přistěhov ale
olymp i
do stup
d vou</w>
competi tiveness</w>
bi op
afri can</w>
závě r</w>
ta m</w>
problé mu</w>
ki stá
e ar
bo dem</w>
zbo ží</w>
u po
sm an</w>
rybo lov
ná silí</w>
experi ence</w>
ú to
u dá
re ag
mla d
l á</w>
jící ho</w>
ge o
clo se</w>
benef it</w>
vá dí</w>
te le
podmí nek</w>
or ů</w>
lon ger</w>
con ference</w>
acce pt</w>
1 1</w>
žív at</w>
tar gets</w>
poten ci
moh lo</w>
v it</w>
určit é</w>
u káz
provádě ní</w>
or ing</w>
obchod ní</w>
gra fi
defin i
ví je
rozší ření</w>
re je
ne ver</w>
k ové</w>
be l
ab ly</w>
zahrani ční</w>
vy nika
stand ar
s how</w>
k ře
con stru
a vi
ú roveň</w>
pou ží
na víc</w>
min i
d ri
un til</w>
stan ding</w>
shor t</w>
s vým</w>
rozprav y</w>
di stri
cul tural</w>
challen ge</w>
t an
sup ply</w>
přimě řen
prob í
pou žívání</w>
ní ci</w>
mo de
instru ment</w>
cross -
ce stu
al de</w>
poděkov al</w>
liv ing</w>
krá t
ja zy
h lí
basi c</w>
w to</w>
w ing</w>
pe n</w>
ov ý</w>
m es</w>
liv é</w>
kom uni
de spite</w>
d le</w>
sig ned</w>
re gre
dob u</w>
consequ ences</w>
streng th
sl y
ru mun
ro st
pro por
potrav in</w>
naprost o</w>
li st</w>
je jichž</w>
en y</w>
záj my</w>
st er
re ality</w>
politi ce</w>
mí st</w>
bal ance</w>
a round</w>
hodno ty</w>
ci se</w>
accor ding</w>
společ nost</w>
proble mati
pa y</w>
ostat ní</w>
na mely</w>
le tí</w>
guaran te
ž né</w>
z účast
komisa ř</w>
re fu
i tem</w>
fa cili
cor re
t ou</w>
p u</w>
odpově ď</w>
ne vy
de al
ad s</w>
áv at</w>
subsi di
stav u</w>
sk s</w>
od i
n uje</w>
m ní</w>
ka ta
důležit á</w>
š ť</w>
z o
výzku mu</w>
strategi c</w>
potřeb né</w>
plá n</w>
he ar
v liv</w>
tom or
tomor row</w>
t ovat</w>
stat us</w>
pur su
odpo ví
ex clu
effici ent</w>
e st</w>
ac tive</w>
sk ému</w>
rele v
pů sob
dan ge
á ni
stanovi sko</w>
s mo
ri ed</w>
inform ací</w>
fa ce</w>
effe ct</w>
dě ji</w>
asse ss
ser va
re sol
pře prav
pol and</w>
li ve</w>
al co
zás ady</w>
t vo
přípa dech</w>
pri orities</w>
ne má</w>
distri bu
dialo gu</w>
bli ž
člá n
é ri
vý mě
qu ali
o zna
me ssa
institu ce</w>
do šlo</w>
d or
cti vely</w>
con ne
ce ment</w>
bezpečnost ní</w>
par ty</w>
o ld</w>
něj ších</w>
iniciativ y</w>
f al
di men
develo ped</w>
recommen da
nov á
l ance</w>
il legal</w>
bo j
bar ro
ved e</w>
t ové</w>
re ch</w>
nej důležit
kata stro
fami ly</w>
chil d</w>
1 8</w>
vý mi</w>
vo jen
sen se</w>
scho o
pa d</w>
občan ům</w>
mili tary</w>
men tion</w>
extre mis
equ al</w>
en able</w>
dire ct</w>
ú zemí</w>
ssi ve</w>
společ ností</w>
sa tis
opě t</w>
mez i
fel low</w>
as soci
acro ss</w>
úřad ující</w>
techni cal</w>
parlia mentary</w>
m r
jo b</w>
encoura ge</w>
e ko
důležit ý</w>
dire ction</w>
vel kou</w>
prev ent</w>
prav dě
ohle dem</w>
dra ft</w>
ti ous</w>
připo mí
glob ální</w>
dem and</w>
ca pit
ca pacity</w>
š pat
w ed
správ né</w>
průmy sl</w>
len é</w>
jist ě</w>
ade qu
svět a</w>
sp í
sm r
reli gi
re pe
ni ce</w>
ne lze</w>
kom promis
dneš ní</w>
alco ho
velk ý</w>
sna ží</w>
l ou</w>
dis pozici</w>
al most</w>
2 1</w>
ár ní</w>
us a</w>
pr im
mp tion</w>
mob ility</w>
legi tim
c are</w>
at temp
tou to</w>
r ání</w>
po tě
po chyb
ne me</w>
koleg ové</w>
every thing</w>
e ls</w>
dis ast
ck s</w>
z jednodu
tak ové</w>
pat ří</w>
ne měli</w>
ke ep</w>
hi m</w>
fa il
cre ation</w>
bud u</w>
appli cation</w>
čá st</w>
politi k</w>
pokro k</w>
mí ru</w>
mo ř
jin ými</w>
cel kov
bal an
rych le</w>
of fer</w>
od mít
late ral</w>
j im
zá jem</w>
soudrž nosti</w>
at h</w>
zabezpeč ení</w>
we ek</w>
rozu m
pře ká
mi d
ca m
c ity</w>
zpravoda ji</w>
vyžad uje</w>
so on</w>
produ c
mov ement</w>
krá lov
ja ko
ga tions</w>
e ly</w>
ado pt</w>
ň ující</w>
uved l</w>
souvis e
směrni ci</w>
oba vy</w>
doporu čení</w>
de termin
ž ili</w>
zlo čin
z uje</w>
w ise</w>
podpor uje</w>
nov ého</w>
me et</w>
k istan</w>
he ld</w>
euro po
cha ra
1 4</w>
výro by</w>
stu di
re st</w>
přím o</w>
n en
ask ed</w>
a vo
Č er
sh od
reach ed</w>
pri ce</w>
požadav ky</w>
p len
em i
ca p
addre ss</w>
state ment</w>
se ems</w>
poč tu</w>
li e</w>
le vel
le t
g ers</w>
consu l
con vention</w>
a č
svět ové</w>
prv ním</w>
previ ous</w>
pres sure</w>
pozi tivní</w>
o po
jak é
harmon i
writ ten</w>
u přím
stát ům</w>
so il</w>
pla tí</w>
ne bylo</w>
mo je</w>
kter ém</w>
hom e</w>
foun d</w>
disku si</w>
dange rous</w>
zatí m
u ne
u jících</w>
s dělení</w>
regula tions</w>
rec ently</w>
presen ted</w>
pre hen
podni k
ho od</w>
4 0</w>
správ ně</w>
spo lu</w>
s vo
ra t</w>
provi ded</w>
ev id
cru cial</w>
á l</w>
z nalo
w ine</w>
vyso k
vyjád řit</w>
t ori
success ful</w>
recog n
our selves</w>
o ko
kontro ly</w>
jed nu</w>
i re
vzd ory</w>
parlamen tem</w>
na vzdory</w>
monit oring</w>
důvod ů</w>
d ro
competi tive</w>
as su
ě l
slo žit
práve ch</w>
produ ce</w>
par ts</w>
f i</w>
f ers</w>
do spě
c tion
ac ím</w>
ě j
zatím co</w>
relev ant</w>
lid i</w>
jed na</w>
interne t</w>
expe ct</w>
ex ce
e as
blaho přá
z trá
uplat ňování</w>
rad ou</w>
ovan á</w>
la tions</w>
jak ým</w>
globali zace</w>
con tain
čin nost</w>
č ím</w>
sta ge</w>
sa ying</w>
ob tí
nego ti
je hož</w>
effor t</w>
zná m
sh ro
serbi a</w>
ov e
er ing</w>
energe ti
e ast</w>
c en</w>
a po
vnitrostát ních</w>
stre ss</w>
spraved l
se ver
ná bo
mož nosti</w>
mom ent</w>
konkré t
in ste
g ali
con vin
ře čeno</w>
úva hu</w>
zlep šit</w>
vyu žívání</w>
throu gh
pozná m
obyva tel</w>
level s</w>
h un
gro und</w>
efe ktiv
autom obil
a ť</w>
č len</w>
zá pad
posto j</w>
ou cí</w>
organis ations</w>
ně né</w>
na tural</w>
lo t</w>
komis í</w>
im medi
fon du</w>
fi gu
cu st
c ate</w>
vývo j</w>
te g
se kt
lan gu
chtě jí</w>
ál u</w>
z ohled
wi de</w>
u se
through out</w>
roz sa
mu set</w>
ju sti
inste ad</w>
tel é</w>
smlou vě</w>
requi red</w>
na ture</w>
in ed</w>
cir cu
ř ování</w>
úda je</w>
í ho</w>
tal k</w>
podni ků</w>
nábo žen
mimo řádně</w>
humanit arian</w>
en ter
do pad
de man
con du
be c</w>
ro li</w>
produ ct</w>
postav ení</w>
ome zen
kon at</w>
jed na
cí ho</w>
ck ing</w>
wa r</w>
vynika jící</w>
ran ce</w>
př es</w>
gen u
an nu
al lo
ře č
ú pl
st er</w>
při způsob
ov liv
li gh
le ty</w>
ka pit
he ad</w>
f ed
doku men
1 6</w>
člen ským</w>
y ed</w>
vů bec</w>
u re</w>
tra f
ti cal</w>
th y</w>
streng then</w>
otáz kou</w>
obyvatel st
obsa huje</w>
ma teri
discrimin ation</w>
da ňov
ší mi</w>
změ ně</w>
ur g
t v
suppor ted</w>
state ments</w>
out side</w>
ně mž</w>
ně kteří</w>
ira q</w>
inte g
e f</w>
c ta
alcoho l</w>
zá sa
výrob ky</w>
ta sk</w>
považ uji</w>
poda řilo</w>
mal é</w>
li ber
g ation</w>
eri es</w>
da le
at s</w>
č ty
va še</w>
u t
sou th</w>
na tion
dialo g</w>
com prehen
cle s</w>
bil lion</w>
sym bo
qui ck
monit o
ensu ring</w>
y es</w>
stu po
sta tek</w>
slov y</w>
slov a</w>
se ssion</w>
přis pě
pros per
ob chod</w>
l or
fol low</w>
e ce</w>
8 0</w>
us es</w>
refor ms</w>
r ně</w>
obvi ously</w>
nov ou</w>
manu fac
i ž</w>
gali le
di st
an n
z neu
x im
ve šk
sel s</w>
po wers</w>
ovan ý</w>
i i</w>
h ou</w>
ei ther</w>
de ba
co 2</w>
áv ají</w>
vešk er
v il
rov ání</w>
otáz ek</w>
králov ství</w>
ukra ine</w>
ten ce</w>
sect ors</w>
redu cing</w>
pře zkou
p é
fi ve</w>
čá sti</w>
s dí
require ments</w>
poskytn out</w>
po ra
la ce</w>
is ra
g ru
de ath</w>
č tvr
zvý šit</w>
tur a</w>
sci enti
s sels</w>
reque st</w>
rela ted</w>
er u
conclu sion</w>
ch ov
záležito st</w>
te st</w>
soused ství</w>
ra ge</w>
pu st
posí lení</w>
iz ra
it ing</w>
budou cí</w>
assess ment</w>
ag es</w>
žád ný</w>
za brá
ver theless</w>
v nější</w>
u en</w>
sch ů
po plat
ne vertheless</w>
ne budou</w>
mí ry</w>
f f</w>
ca re
žen ých</w>
ví te</w>
učin it</w>
tel l</w>
rozvo ji</w>
pre pared</w>
neighb ou
fra t
do ta
di ver
d ou</w>
ch es</w>
a te
a bu
využí t</w>
vit al</w>
sp en
skup in</w>
pá kistá
potřeb u</w>
po má
organ isation</w>
h lu
fish eries</w>
ch ce</w>
y </w></w>
thre at</w>
sociál ních</w>
před klá
oprav du</w>
no r</w>
wa ter</w>
výzku m</w>
sig n</w>
ro ma</w>
ire land</w>
colleag ue</w>
ad ap
accor d
absolu tely</w>
zabý vat</w>
vá z
upo n</w>
tal king</w>
subsidi arity</w>
ste ps</w>
sk y</w>
recei ved</w>
pří tom
poslan ců</w>
národ ů</w>
j me</w>
institu tional</w>
201 2</w>
společ ného</w>
rov é</w>
op ening</w>
li dem</w>
fu els</w>
ev ents</w>
constitu tion</w>
í mi</w>
z k
ur s</w>
tu res</w>
společ nou</w>
quick ly</w>
pomo cí</w>
plá nov
pan ěl
ma tick
liv es</w>
j un
independ ent</w>
galile o</w>
f our</w>
doub t</w>
wor ks</w>
vi ce
sk on
rela ting</w>
pře sh
it a</w>
eko logi
dodrž ování</w>
deci ded</w>
da jí</w>
consu mption</w>
an o</w>
1 7</w>
ver ts</w>
u d</w>
rov nová
respe kt
přistěhovale ctví</w>
přesh rani
ni ly</w>
na p
m ání</w>
institu cion
fri en
ele ct
do z
de s
cre ating</w>
con ce
addi tional</w>
vo zi
vo j
rapporte urs</w>
pos sibility</w>
plá nu</w>
person al</w>
kontro lu</w>
i te
h rad
avi ation</w>
í ze</w>
vyh nu
v o</w>
té ma</w>
ra z</w>
po su
pl ý
pen íze</w>
nej větší</w>
kri ti
kom ple
ex per
w al
sm lu
sh ed</w>
procedu res</w>
ob jev
nezby t
le ft</w>
grow ing</w>
g g
cul ture</w>
confli ct</w>
car ried</w>
ambi tious</w>
člá nek</w>
vi cti
sociál ního</w>
přest o</w>
důležit ou</w>
adop tion</w>
ú prav
z by
tě mto</w>
tou ris
sle dek</w>
qu o
mob ili
buil ding</w>
ž ní</w>
ve hi
spí še</w>
spo ň</w>
so li
simp li
rybolov u</w>
li č
independ ence</w>
achi ev
acce ssion</w>
vá l
vo len
sm í</w>
rou ght</w>
pravomo ci</w>
po dep
an d
uni í</w>
ra il
ov alo</w>
k rit
dá me</w>
di pl
contribu te</w>
remain s</w>
para grap
ová no</w>
něme ck
naš ím</w>
mí sto
l ari
krit éri
každ ém</w>
hlav ních</w>
ca u
bla ck</w>
b ách</w>
ž ky</w>
vzděl ání</w>
vice -
st y</w>
ne smí</w>
ne leg
implemen ting</w>
ex er
eu ro</w>
bili ties</w>
zahr nu
vý da
v ní</w>
to tal</w>
přesvěd čen
neighb our
ky ně</w>
jak ý</w>
ex plo
effe cts</w>
cross- border</w>
confid ence</w>
uni ver
technologi e</w>
stan ces</w>
smy sl
poli ce</w>
messa ge</w>
jed ná
ho ld</w>
er ship</w>
cri me</w>
commit ted</w>
živo t</w>
se n</w>
přist ou
problé mem</w>
kon textu</w>
institu cí</w>
impro ving</w>
fer en
bo d</w>
be gin
ac e
a min
technologi í</w>
struktu rá
st at</w>
pro ti
ochran ě</w>
nej vyšší</w>
kter ými</w>
dipl om
da ma
ch inese</w>
be gin</w>
statisti cs</w>
růz né</w>
ra il</w>
prav da</w>
pl ans</w>
orgá nů</w>
op ak</w>
je j</w>
důležit ým</w>
dohod u</w>
tin i</w>
ro ky</w>
mar k</w>
inf lu
docu ment</w>
ch emi
č ist
po k
pa tion</w>
odpověd nosti</w>
nej lepší</w>
ck ými</w>
be h
an im
adequ ate</w>
vzta hu</w>
too k</w>
práv ního</w>
podpor a</w>
po tí
ma xim
kno wn</w>
integra ce</w>
hrani ce</w>
fir m</w>
establi sh</w>
ždě ní</w>
si bilities</w>
o logi
mini mum</w>
ko re
g la
de si
stu d
roz mě
př eru
konkré tně</w>
da ys</w>
balan ced</w>
anal ý
zá klad</w>
ukra jin
suffici ent</w>
solid ar
s wed
proje kt</w>
li š
expres sed</w>
consi st
civi li
beh ind</w>
vé d
representa tives</w>
nabí d
m .</w>
le h
i ght</w>
finan cing</w>
comb at</w>
at ta
zí tra</w>
zá kaz
sto jí</w>
refor my</w>
přes ně</w>
produc ers</w>
potře by</w>
po tom</w>
on es</w>
nedáv no</w>
n g
mi to</w>
jm ů</w>
inclu ded</w>
hist ory</w>
effe ctively</w>
e p
agen tury</w>
ac tivity</w>
a tely</w>
1 00</w>
za stav
tr ying</w>
ti sí
sk i</w>
po chy
no te</w>
lete cké</w>
e re
ar ing</w>
al u
zaměstnan osti</w>
tr val
politick ou</w>
pod ně
pla ced</w>
nástro j</w>
migran ts</w>
konz ul
it á
ira n</w>
graphi c</w>
for ces</w>
annu al</w>
a byste</w>
ř ady</w>
za vádě
wh ose</w>
vice- president</w>
ta s</w>
pro f
pa ti
ope rate</w>
minist er
mi c</w>
integra ted</w>
fun k
ex tent</w>
do pad</w>
d oda
d it
ci t</w>
20 20</w>
vole b
vers ity</w>
sto p</w>
smlou vu</w>
rov nání</w>
ri se</w>
pro per</w>
mu ž
an e
č né</w>
za vést</w>
vy k
v ý</w>
tě mito</w>
ti tu
příspě v
příležito stí</w>
prů bě
pra x
o de
for mu
ex amin
anti -
6 0</w>
železni ční</w>
Č len
tar get</w>
struc tural</w>
obnovitel ných</w>
implemen ted</w>
en i</w>
aim s</w>
. m.</w>
řad u</w>
pol lu
po stup</w>
nesmí me</w>
mů j</w>
libera lisation</w>
imple ment</w>
dá l</w>
busin ess
z nění</w>
te m
sh e</w>
practi cal</w>
nej dříve</w>
mo re
le ading</w>
inve stice</w>
gre en
fed e
e ast
dosáh li</w>
benef its</w>
1 9</w>
zdůraz nil</w>
vš emi</w>
vá žení</w>
ti n</w>
svobod u</w>
schop ni</w>
př ine
prezid ent
m c
exist ence</w>
establish ed</w>
e qui
di g
ari ly</w>
we st
vol by</w>
u dě
technologi es</w>
t ky</w>
stej né</w>
st alo</w>
sní žit</w>
roz en
recogni tion</w>
ochran a</w>
mo tion</w>
fon dů</w>
e quality</w>
e </w></w>
dra f
circu m
ú vě
věnov at</w>
určit ě</w>
te x</w>
st ala</w>
sen sus</w>
př iná
pre par
o ce
m </w></w>
lu je</w>
h at
fish ing</w>
dy na
demokra cii</w>
bo je</w>
w il
ro stou
ra tes</w>
quo tas</w>
č ný</w>
výz vy</w>
tak es</w>
re ading</w>
promo ting</w>
pr u
po sou
op position</w>
náklad ů</w>
mě ní</w>
logi sti
gu ide
e it</w>
discu ss</w>
dimen sion</w>
cre dit</w>
c le</w>
b ě</w>
200 3</w>
výsled kem</w>
spo čí
refor mní</w>
refer ence</w>
připo men
pe s</w>
ng l</w>
neighbour hood</w>
nedo stat
ger many</w>
dire ctly</w>
účin nosti</w>
týka jících</w>
ti sh</w>
stu pe
pravi del</w>
nov ým</w>
hlav ním</w>
comb ating</w>
ze k</w>
w in
vy řešit</w>
tab led</w>
ro m
pří št
lisabon ská</w>
jedno ho</w>
hun g
he ard</w>
gi ving</w>
fron tex</w>
east ern</w>
cest ov
begin ning</w>
a way</w>
ší mu</w>
é st</w>
ál o</w>
te ď</w>
ro kra
obli gations</w>
ne existuje</w>
humanit ární</w>
docu ments</w>
de la
ci ó
by rokra
zem ím</w>
z jist
u kazuje</w>
ru sko</w>
regi me</w>
před mě
pravdě podobně</w>
po té</w>
l od
kvali fik
ku r
jan u
d é
con cre
řen ím</w>
získ at</w>
zne či
týka jí</w>
ti be
stanovi ska</w>
společ ný</w>
ra du</w>
provi des</w>
poč í
po blahopřá
pa kistan</w>
pa id</w>
ou rable</w>
aspe ct</w>
14 2</w>
Í rá
za u
w ron
ral l</w>
proje ktu</w>
l ého</w>
každ é</w>
janu ary</w>
jak ou</w>
cre ated</w>
appli ed</w>
změ nu</w>
representa tive</w>
pestici des</w>
oc cu
m ně
it ě</w>
h at</w>
e st
demokra tické</w>
deci de</w>
de pend
vy hlá
veřej ných</w>
veřej ného</w>
suppor ting</w>
sen si
secu re</w>
roz víje
produ ced</w>
ove rall</w>
komple x
hospodář ský</w>
fran ce</w>
europe ans</w>
cel ém</w>
capit al</w>
cal ls</w>
účin nost</w>
začí t</w>
territ ori
te h
smr ti</w>
ra ised</w>
pracov níků</w>
poh led
ori gin
nástro jů</w>
increas ingly</w>
im u</w>
hu ge</w>
gi ves</w>
e th
e asi
demo grafi
concre te</w>
comple tely</w>
c ars</w>
b it
vy lou
to pi
th ern</w>
rám ce</w>
nor m
li l</w>
in tel
do t
discu ssions</w>
con stan
vytvá ření</w>
vyj ad
ter ia</w>
se zna
př it
ozna čení</w>
ostat ních</w>
guide lines</w>
ambi ció
ří zen
za potřeb
tře t
summ itu</w>
su d
set ting</w>
pří zni
pří no
podpo ře</w>
paragrap h</w>
p lu
more over</w>
mer co
kře s
introdu ction</w>
ele ction</w>
business es</w>
amoun t</w>
al ong</w>
a tic</w>
zá ru
z jev
y ch
victi ms</w>
sí ly</w>
společ ných</w>
potřebu je</w>
okam žit
mí ře</w>
merco su
li n</w>
kon ference</w>
ju di
dě je</w>
dostateč ně</w>
cri teria</w>
bru ssels</w>
bi g</w>
záva ž
zapotřeb í</w>
vzta hů</w>
vzni k
sho ws</w>
roz počet</w>
roman ia</w>
energi í</w>
e ing</w>
comprehen sive</w>
cam pa
ad d</w>
úspě ch</w>
stoup ení</w>
st vím</w>
se bou</w>
pře ji</w>
po žá
obchod ování</w>
la ws</w>
la ted</w>
l ovat</w>
f lo
enti re</w>
b rought</w>
administra tive</w>
zaměstnan ost</w>
zabezpeč it</w>
specifi cally</w>
roz sáh
o li
il s</w>
důvo d</w>
ca me</w>
ř ské</w>
čer v
west ern</w>
vy rá
tý den</w>
sug ar</w>
soukro m
sig ná
rozhod ně</w>
requi res</w>
profe s
postup y</w>
pohled u</w>
po or</w>
ni kdo</w>
mu tual</w>
mlé ka</w>
l ních</w>
jin ak</w>
high er</w>
flexi bility</w>
de pen
bud ge
an tly</w>
allow ed</w>
achiev ing</w>
ac y</w>
vnitř ního</w>
uži teč
tra ding</w>
pre ci
posky tuje</w>
pe ra
ne byla</w>
na me</w>
loo king</w>
i e</w>
discu ssing</w>
d ě</w>
convin ced</w>
appro ved</w>
ann oun
výrob u</w>
vy plý
ve m</w>
s ent</w>
rov an
recogni se</w>
provi ding</w>
pen al
míst ní</w>
lear ning</w>
it aly</w>
en o</w>
důsled ky</w>
d vě
buil d</w>
appro val</w>
an iž</w>
alkoho lu</w>
affe cted</w>
žen a</w>
zbran í</w>
vy vol
u si
stra n</w>
nej více</w>
míst a</w>
institu te</w>
du ty</w>
dosa ženo</w>
ch ví
ca r</w>
barro so</w>
změ n</w>
vy jednáv
vie ws</w>
touris m</w>
rela tion
přistou p
provi sion</w>
ov ým</w>
naš em</w>
mercosu r</w>
kvó t</w>
g ly</w>
dvě ma</w>
roz vin
poin ted</w>
pestici dů</w>
ma ď
dom á
c in
závaz ky</w>
vhod né</w>
tý če</w>
se p
se be</w>
sc ope</w>
po vz
on d</w>
něj ším</w>
nega tive</w>
kri ze</w>
infra struk
ex pla
ex cep
cu t</w>
coordin ation</w>
ch ed</w>
aim ed</w>
spe ech</w>
smysl u</w>
re mind</w>
pří rod
přistěhov al
postup u</w>
kon tin
ex ist</w>
do m</w>
b re
ši ro
wa ste</w>
systé my</w>
samo t
righ tly</w>
přípa d</w>
pa per</w>
minu losti</w>
memb ership</w>
high ly</w>
facili ta
chrá nit</w>
bin ding</w>
ak tu
záležito stí</w>
zapo mí
wan ted</w>
vyu žití</w>
th ous
t </w></w>
sta ted</w>
speak ing</w>
si x</w>
r á</w>
poli sh</w>
o práv
mezinárod ního</w>
medi um</w>
l ání</w>
kter ého</w>
kon struk
komisa ře</w>
koleg y</w>
is ely</w>
for ms</w>
demo graphic</w>
de se
compan y</w>
ú mlu
z veřej
pří kladem</w>
před cho
organiza cí</w>
ně kdy</w>
náz ory</w>
navrh uje</w>
j our
en ím</w>
dí tě
be y
ř uje</w>
zem ní</w>
všech no</w>
vě de
výsled ků</w>
vytvá ře
sp ir
ri sks</w>
re ž
re present</w>
při bliž
posí lit</w>
ne vyhnu
kro kem</w>
ka za
in stance</w>
f áz
e s
dá r
discu ssed</w>
difficul ties</w>
ch am
č t
váž ně</w>
vyjád řil</w>
u vádí</w>
te li</w>
st ní</w>
proper ly</w>
promo tion</w>
ni lo</w>
na opak</w>
inter pre
ga za</w>
g s</w>
g en</w>
communi ties</w>
ale spoň</w>
úspě ch
ti cally</w>
teg ori
společ ná</w>
průmy slov
mea sure</w>
ma tely</w>
kosov a</w>
irá ku</w>
harmon isation</w>
ger man</w>
d ov
coun ter
conside red</w>
cház et</w>
bri tish</w>
b our
ur ge</w>
pro spe
passen gers</w>
me an
infra structure</w>
fo rem</w>
fac ing</w>
en for
commit ments</w>
ce le
bě ž
bey ond</w>
člán ku</w>
změ na</w>
ve ments</w>
syst em
rozvoj ové</w>
re infor
m it</w>
circum stances</w>
b ene
ali s
začá tku</w>
prost oru</w>
pris es</w>
po řád
ne přija
med ia</w>
mal ých</w>
je li
eli min
conclu sions</w>
bý val
budge tary</w>
air ports</w>
1 .
te dly</w>
sou střed
slou ží</w>
s on</w>
re vi
přis pí
nedo stateč
h ání</w>
fa kt
děl at</w>
de gre
ch ad</w>
Čí na</w>
z ce</w>
vyzý vám</w>
teh dy</w>
se cre
sc ale</w>
od sou
ně na</w>
ne mají</w>
ko ž</w>
jeli kož</w>
hod ně</w>
f ying</w>
ex change</w>
e arly</w>
d p</w>
c to
bu re
ř á
z ně
vý jim
sta v</w>
st r
s ar
ratifi cation</w>
maď ar
ma xi
kva lity</w>
kon feren
h á
fung ování</w>
ele k
su m
sloven ian</w>
pro since</w>
pro p
politick ý</w>
o znač
naš im</w>
k il
europo l</w>
e co
dohod ě</w>
bal k
čt ení</w>
transpar ent</w>
stu dy</w>
strength ening</w>
st em</w>
schoo l</w>
ovan ou</w>
neu stále</w>
lea ve</w>
inten zi
gre en</w>
g ener
em ise</w>
cháze jí</w>
Ře ck
zají ma
wron g</w>
una c
to li
re member</w>
pří čin
ple ase</w>
perspe ctive</w>
man date</w>
f il
def ence</w>
dan ě</w>
u k</w>
treat ment</w>
st a</w>
spole h
sniž ování</w>
skuteč né</w>
představ ují</w>
předpo klá
obec ně</w>
na z
mar ch</w>
list op
li ke
gre ece</w>
go es</w>
a ra
to ber</w>
s ad
region y</w>
proje ktů</w>
osob ní</w>
op en
oc tober</w>
liv ě</w>
li fe
jednodu še</w>
frat tini</w>
fa mili
at lan
ask ing</w>
ř ad</w>
ú plně</w>
va jící</w>
tiv ních</w>
tero risti
produ kce</w>
po št
organi z
och rán
o il</w>
nepo chyb
con tent</w>
ch risti
cel ý</w>
bul g
čí n
změ nit</w>
vy sí
tr hy</w>
ter ran
sto že</w>
rod in
pře stože</w>
pou káz
part ner</w>
oth er
me ch</w>
la un
go als</w>
energi i</w>
decla ration</w>
deba tes</w>
cov e
close ly</w>
ž íme</w>
zna čně</w>
zdravot ní</w>
z hor
té matu</w>
to ys</w>
sup pli
stát ní</w>
russi an</w>
povin ností</w>
mo ře</w>
mit ted</w>
kaz ují</w>
h ard</w>
dítě te</w>
d ání</w>
bal ká
č ku</w>
ye ster
yester day</w>
w ish
vů d
vyso ké</w>
vy sl
velk á</w>
t ari
stáv ají</w>
st ře
sov ere
some times</w>
pen ě
oc ca
ně ny</w>
ne mohou</w>
konkurenceschop nost</w>
is la
g ence</w>
do hod</w>
con ta
co her
1 0
ří j
ří ct</w>
zřejm é</w>
třet ích</w>
terran e
t á
st al</w>
sekt oru</w>
redu ced</w>
reag ovat</w>
projev u</w>
oko l
nut no</w>
nedo statek</w>
je st
industri al</w>
in come</w>
f ru
at tack
analy sis</w>
al one</w>
200 0</w>
š ila</w>
š el</w>
v ní
terrane an</w>
se l</w>
sa ys</w>
po sil
nov ember</w>
ne s</w>
medi terranean</w>
k aci</w>
it able</w>
emp lo
druh ou</w>
con dem
comple x</w>
c lari
accord ance</w>
ří ká</w>
ú řed
z en</w>
we st</w>
use ful</w>
tla k</w>
sto j
s í</w>
rozprav ě</w>
regula tory</w>
od hod
li la</w>
li es</w>
každ ého</w>
is es</w>
hu jí</w>
cust oms</w>
bo ard</w>
z ed</w>
whe re
unac cep
takov á</w>
st y
shro má
s a</w>
respon d</w>
proje kty</w>
prec ed
pe ace
klad u</w>
introdu ce</w>
hap pen</w>
ge or
fer ing</w>
de ser
crimin al</w>
con sensus</w>
cha ir
bul har
účin né</w>
úč a
zmí nil</w>
z ké</w>
represen ts</w>
re cor
ra tions</w>
přij ala</w>
progra mů</w>
prec isely</w>
na tion</w>
k on</w>
he ar</w>
genu ine</w>
dáv á</w>
cel ou</w>
ze pt
začlen ění</w>
u sil
transparent nost</w>
rych le
re turn</w>
postup ů</w>
ne byl</w>
m álo</w>
m ly</w>
k at</w>
inov a
fur ther
ev alu
establish ment</w>
economi es</w>
deleg ation</w>
chu d
boj ovat</w>
2 3</w>
č em</w>
velk ým</w>
territ ory</w>
si des</w>
pří jem
partici pation</w>
other wise</w>
od liš
man ner</w>
konzul ta
jak á</w>
hlav ně</w>
famili es</w>
du š
doprav u</w>
ří dit</w>
tack le</w>
stron gly</w>
sto letí</w>
schop nost</w>
ry bá
ru p
ro di
requi re</w>
předlo žila</w>
pu l
poru šování</w>
parlia ments</w>
pan em</w>
o t</w>
o ral</w>
nej vět
k ing
i mi</w>
ction ing</w>
cest u</w>
car ry</w>
z mi
ur ych
tur k
tifi cation</w>
stand ard</w>
sho wn</w>
pošt ov
pohy bu</w>
partner y</w>
mlu vit</w>
mar ks</w>
m o</w>
k en</w>
hap py</w>
for mer</w>
com ments</w>
ch i
ap preci
řek la</w>
závě rem</w>
ze len
we e
vyš et
vi r
urg ent</w>
unaccep table</w>
umož ňuje</w>
součas ně</w>
ov ací</w>
dě l</w>
disku tovat</w>
dale ko</w>
compli ance</w>
asi a</w>
žád ná</w>
če t
če lit</w>
v stoup
ur čen
u spoko
sněmov ně</w>
prost or</w>
pers ons</w>
lim it</w>
lid ské</w>
li ons</w>
li mi
establish ing</w>
emphasi se</w>
deal ing</w>
bud ování</w>
avo id</w>
aspe kty</w>
air port</w>
žen ím</w>
znač né</w>
rozhod ování</w>
pur pose</w>
potřebu jí</w>
nejdůležit ější</w>
mnoh é</w>
minu lý</w>
fran cou
dů klad
dá n
do chází</w>
d er
conside ration</w>
conne ction</w>
braz í
ac qu
ž to</w>
ze ch</w>
vý sledek</w>
tr hů</w>
ti v</w>
terroris t</w>
seri ously</w>
rozdí ly</w>
ri st
ra ise</w>
quot a</w>
při rozen
politi ci
nepochyb ně</w>
manag ed</w>
lá me</w>
hlas ovali</w>
cri tic
conclu de</w>
ci vil
a war
čas u</w>
zaměstnan ců</w>
vědom í</w>
tu jeme</w>
trv ale</w>
spir it</w>
soud ní</w>
s ám</w>
přibliž ně</w>
prosaz ování</w>
parlamen tní</w>
palest ini
o svěd
mezinárod ních</w>
hovo řit</w>
further more</w>
f ren
ex plan
douf áme</w>
compe tence</w>
cestu jících</w>
zamě řit</w>
zaji šť
vlád ní</w>
takov ý</w>
sp i
sk len
s port</w>
rozprav u</w>
produ k
o stí</w>
ně ných</w>
hospodář ského</w>
gen der</w>
g ar
š uje</w>
š ir
Š paněl
zvý šen
u h
tur ing</w>
smy sl</w>
pro pose</w>
poli t
po lov
pl nění</w>
palest in
niž ší</w>
měr ně</w>
manufac ture
le ží</w>
jící mi</w>
en large
dě li</w>
dob ro
d on
braz il</w>
any thing</w>
a head</w>
progra my</w>
om bud
ná mi</w>
net work</w>
naš imi</w>
n er
mechanis ms</w>
limi ted</w>
li li</w>
in s</w>
hospodář ských</w>
h ovat</w>
enter prises</w>
ear li
constitu tional</w>
ban k</w>
ar ms</w>
zkušen osti</w>
z odpověd
venkov a</w>
under standing</w>
rov nosti</w>
recommenda tions</w>
podep s
pers on</w>
ov a
otáz kách</w>
o fici
lo wer</w>
li vo
jako žto</w>
ide as</w>
dů stoj
dě len
biop ali
be coming</w>
balí ček</w>
záva zek</w>
we apo
vlá d</w>
us nad
tvo ří</w>
ti vely</w>
si mi
simi lar</w>
sa mi</w>
obvi ous</w>
následu jící</w>
mov ing</w>
minist ers</w>
listop adu</w>
jin ého</w>
jednot ného</w>
doku ment</w>
cel ého</w>
an ds</w>
ad ers</w>
zá mě
zru šení</w>
u vádě
toli k</w>
regre t</w>
reas on
př em
pos es</w>
ovan ého</w>
min orities</w>
intere sting</w>
influ ence</w>
hospodář skou</w>
fren ch</w>
fi cations</w>
fa kt</w>
en dor
con sid
com ment</w>
be ar</w>
Č e
z im
x en
tě m</w>
tex ti
systé mů</w>
svěd ky</w>
spa in</w>
směr u</w>
roz por
region ů</w>
pres sion</w>
plat nost</w>
organ ised</w>
on g
ob zvláště</w>
naléha vě</w>
meth od</w>
m as</w>
institucion ální</w>
hrani c</w>
ev ent</w>
en ab
dobro vol
da ň
d </w></w>
comple te</w>
bure au
agen tura</w>
accep ted</w>
19 8
š en</w>
ř a
ý š
vo tes</w>
tain ed</w>
stáv ající</w>
sour ce</w>
roz ši
relation ship</w>
re ci
proto ko
priorit ou</w>
politick á</w>
od e</w>
main ly</w>
m ous</w>
logi cal</w>
jun e</w>
ex pen
evropsk ému</w>
ele ments</w>
dlou ho</w>
develop ments</w>
car bon</w>
bureau cra
bru sel
ad ded</w>
žív á</w>
wan ts</w>
vývo je</w>
sob ě</w>
sklen í
scienti fic</w>
pro m
ov ém</w>
out come</w>
na jít</w>
la t
hovo říme</w>
high ligh
differ ences</w>
cre di
bour g</w>
ak tivní</w>
člen ský</w>
vyso ce</w>
v dě
to ti
toti ž</w>
situ ations</w>
recei ve</w>
po čá
obyvatelst va</w>
mod i
lon d
křes ť
ko le
hod not</w>
high light</w>
expres sion</w>
ele kt
cal ling</w>
bo hat
ar ran
zat ím</w>
zaru č
vi a</w>
thous ands</w>
ri es</w>
portug al</w>
podstat ě</w>
ná moř
navr hov
main tain</w>
lov ě
lisabon u</w>
le aders</w>
k ru
je te</w>
con centra
cház ení</w>
úče lem</w>
vyu žívat</w>
vy pracov
tru st</w>
sto ck</w>
stanov í</w>
satis fac
religi ous</w>
připo mně
pře chod
pris on
požád at</w>
post al</w>
ní k</w>
ne byly</w>
maxi mum</w>
le to
ju d
cove red</w>
conside rable</w>
conce pt</w>
bod ies</w>
advanta ge</w>
ac ího</w>
wor d</w>
vý bo
vysvět lení</w>
tě ší</w>
tain ing</w>
pre ad</w>
poskyt ování</w>
pos lance</w>
ně no</w>
n ar
k re
do po
deman ds</w>
í </w></w>
z on
výraz ně</w>
vý ji
výji me
ty pe</w>
transparent nosti</w>
thin king</w>
sou n
sa fe</w>
předsed y</w>
nor my</w>
měsí ců</w>
institu tion</w>
green house</w>
bod u</w>
addre ssed</w>
5 00</w>
. .
zá ří</w>
znamen at</w>
vý kon
vá ch</w>
velk ých</w>
te mber</w>
sep tember</w>
rozdí l</w>
refer red</w>
ra li
prob ably</w>
pro jednáv
ot u</w>
offi cial</w>
občan ské</w>
o zná
m ou
la ter</w>
ke e
isra el</w>
inclu sion</w>
a tes</w>
w ed</w>
vyrá bě
tře tí
th ought</w>
stat u
sta čí</w>
ry ing</w>
přit om</w>
practi ces</w>
pozi ce</w>
podpor ujeme</w>
ply nů</w>
p un
osob ně</w>
ní kům</w>
kvali tu</w>
introdu ced</w>
impro ved</w>
fun ctioning</w>
f all</w>
ex pend
da tion</w>
continu ing</w>
ac cu
zásad ě</w>
za prvé</w>
tu rally</w>
tu jí</w>
tab ly</w>
svě t</w>
sur ve
st rán
s li
písem ná</w>
ne mohu</w>
mno ho
li i</w>
langu age</w>
itu re</w>
enti rely</w>
bur den</w>
7 0</w>
ú myslu</w>
zvyš ování</w>
zach ování</w>
výzku m
vy prac
tak to</w>
sensi tive</w>
penal ty</w>
ma g
le r</w>
in si
impro vement</w>
gene ration</w>
fu el</w>
finan ce</w>
dů kaz
dra wn</w>
dire ctives</w>
comm er
bře z
ane bo</w>
volu n
ve rage</w>
udržitel ného</w>
stu pu
spo j
sna d
sk il
schvá lení</w>
průbě hu</w>
prosper ity</w>
mys li</w>
meth ods</w>
ma tic</w>
j ar
hovo ří</w>
fail ure</w>
enlarge ment</w>
em u</w>
contra ry</w>
20 0</w>
ň uji</w>
titu de</w>
ta dy</w>
su spen
s vými</w>
pro po
politick ého</w>
pla tit</w>
pis u</w>
or a</w>
kvali tní</w>
kte m</w>
in cen
frien dly</w>
francou z
fe red</w>
en ých</w>
cri tical</w>
bi lateral</w>
ba mi</w>
ži jí</w>
řád u</w>
Čí ně</w>
ý ch
zahr nuje</w>
zabý vá</w>
vole b</w>
ukon čení</w>
tra g
tel ný</w>
tel ná</w>
sti cké</w>
ri ers</w>
míst ě</w>
me rely</w>
m b
it ali
ig no
happen ed</w>
geor gi
g a</w>
ci ties</w>
ca used</w>
b at
ari a</w>
č lově
zvlá šť</w>
vehi cles</w>
tv or
thir dly</w>
sta bil
sk vě
setk ání</w>
se v
recogn ised</w>
re ži
připomen out</w>
ombud sman</w>
ob ser
n aru
kultur ní</w>
kom prom
j ní</w>
inter vention</w>
fe ar</w>
exist ovat</w>
dob rou</w>
d at
corre ct</w>
bio fuels</w>
.. .</w>
zaru čit</w>
vy rov
vo ice</w>
určit ých</w>
upozor nit</w>
stupe m</w>
st ac
rap id</w>
pří j
přis pět</w>
povin nosti</w>
pl né</w>
národ ních</w>
lete ctví</w>
konkurenceschop nosti</w>
k en
hrá t</w>
fon d</w>
figu res</w>
expend iture</w>
ag ed</w>
žád nou</w>
čá st
z u
tur u</w>
sloven ia</w>
skuteč ností</w>
rá di</w>
ru n</w>
pří ští</w>
po prvé</w>
p .m.</w>
od rá
nesmí rně</w>
me t</w>
komprom is</w>
jader né</w>
en or
dů raz</w>
dod áv
ameri ca</w>
ac ts</w>
201 5</w>
vytvá ří</w>
u prav
svobod a</w>
sta ff</w>
slov o</w>
sh r
rozsa hu</w>
re ál
ori gin</w>
of fici
ob ě</w>
ni ckých</w>
k ni
ekonomi cké</w>
democra ts</w>
d ings</w>
brusel u</w>
bel gi
ba d</w>
úča sti</w>
zá jmů</w>
zd r
we ak
uz nání</w>
ukon čena</w>
tran si
přij ali</w>
pros ím</w>
po může</w>
osob y</w>
odpověd i</w>
nad cháze
minim ální</w>
ma tické</w>
lid mi</w>
legisla tivní</w>
k al
jas ný</w>
invol vement</w>
energetick ou</w>
earli er</w>
diskrimin ace</w>
che ck</w>
ač koli</w>
úč ast</w>
tru ly</w>
skup inu</w>
re forem</w>
rail way</w>
poz ději</w>
povin nost</w>
od pad
na turally</w>
go al</w>
fron t</w>
freed oms</w>
ex ac
do ká
def en
deb at
dama ge</w>
d ar
chtě li</w>
cest ě</w>
ca uses</w>
b it</w>
auth or
agen tu
administ ration</w>
ů vod
í te</w>
í t</w>
větš inou</w>
stá nu</w>
si zed</w>
shi p
roz hov
podí l</w>
pla y
od ůvod
nost em</w>
ma li
lin ked</w>
jedn om
do káz
do h
dlou h
appe al</w>
ře ší</w>
z pět</w>
vy vážen
v liv
soutě že</w>
re ad</w>
prop ag
parlamen t
odstran ění</w>
ka jí</w>
empha sis</w>
d ní</w>
com pla
c tual</w>
attack s</w>
any one</w>
výhod y</w>
tra gi
sociali st</w>
přiná ší</w>
politici ans</w>
po vol
ová ni</w>
ob stac
nej ist
lid u</w>
h eu
for ced</w>
en jo
dan é</w>
da ted</w>
con ver
chan ged</w>
bro ad</w>
biop ly
b om
appli es</w>
ži v
člen ů</w>
wh om</w>
tr p
ter mí
spotřebitel é</w>
sna žit</w>
serva tion</w>
roz dělení</w>
respon sibilities</w>
pl ying</w>
ob ran
ne měla</w>
mo c
mno zí</w>
mlé ko</w>
konferen ci</w>
ge ment</w>
f ú
constru ctive</w>
close r</w>
abu se</w>
vě jší</w>
vý ši</w>
vi dět</w>
uz be
t z
sen d</w>
původ u</w>
prote cting</w>
pravi del
ní </w></w>
jej ím</w>
it al
est on
d lu
ci d
cham ber</w>
alterna tive</w>
' '</w>
ú řady</w>
zdůraz ňuje</w>
z po
vid íme</w>
sil ni
s jedno
pou žití</w>
poli ce
opat řen
ne pře
nap ř</w>
na místo</w>
moder ni
k ar
ing ing</w>
har m
b s</w>
ad ul
š il</w>
čá ste
čer a</w>
če lí</w>
č ky</w>
zákon od
zákonod ár
zpravodaj ka</w>
w on
vešker é</w>
venkov ských</w>
uplat ňovat</w>
the re
star ting</w>
sha red</w>
rostou cí</w>
reak ce</w>
přísluš né</w>
prezid ent</w>
ní ka</w>
ma y
la ting</w>
katastro f
k or
ing </w></w>
inform ed</w>
h ori
dobr ý</w>
do jde</w>
di vi
a verage</w>
a tive</w>
á na</w>
ved oucí</w>
u vést</w>
tre a
territori al</w>
tal ks</w>
se ek</w>
schvá len
re fer</w>
předlo žení</w>
pt áv
pro sin
po ptáv
plen ary</w>
pl ant</w>
mid dle</w>
inclu des</w>
el se</w>
ba v
vy vin
udá losti</w>
u spo
tureck o</w>
případ ů</w>
o re
ni cké</w>
mili ard</w>
led na</w>
konz u
ir y</w>
dě t
distribu tion</w>
Č adu</w>
te red</w>
stáv a
spolu pracovat</w>
sklení kových</w>
re solutions</w>
připomí n
pl od
pat ri
ob vyk
o xi
ne zákon
mon ten
f our
emplo ye
ele ment</w>
de a
ck ém</w>
an istan</w>
2 4</w>
ži ly</w>
ál nímu</w>
základ ním</w>
zahá jení</w>
význam né</w>
ví na</w>
svo ji</w>
substan tial</w>
spočí vá</w>
sled ovat</w>
rizi ko</w>
přeshrani ční</w>
pu tting</w>
neighbou rs</w>
monten eg
ku d</w>
kan di
inov ace</w>
ig n
hod né</w>
for get</w>
ex port</w>
evrop ští</w>
en ta
do sti</w>
ch ování</w>
c tiveness</w>
c ode</w>
bio gas</w>
auth or</w>
afgh anistan</w>
2 .
že k</w>
řad a</w>
čí mž</w>
é </w></w>
způsob y</w>
zby teč
uplat ň
udá lo
te ful</w>
stupo vat</w>
správ ným</w>
spravedl nosti</w>
speak er</w>
podob ě</w>
poda ří</w>
my self</w>
mo c</w>
mlad ých</w>
mi sta
jed no</w>
in spe
im migrants</w>
elect ri
eg y
e ts</w>
cen tury</w>
bulg aria</w>
ba se</w>
attemp t</w>
9 0</w>
č tě
úrov ně</w>
vzděl áv
ver heu
spoko jen
sor t</w>
smlu v</w>
sexu al</w>
ru sku</w>
ru skem</w>
rozvoj ových</w>
refu ge
pé če</w>
ne za
kon cep
inter ven
h ad
ge ments</w>
fi gh
f é
efe ktivní</w>
deleg ace</w>
contin ent</w>
balí čku</w>
ad ver
a y
řen a</w>
Člen ské</w>
za řízení</w>
z van
všech na</w>
une mp
u su
system a
re sid
příprav y</w>
přesvěd čena</w>
po de
of f
odbor né</w>
obtí ž
ná růst</w>
kon ce</w>
hodno tu</w>
g am
contain s</w>
ca p</w>
c zech</w>
balk ans</w>
` `</w>
wh il
whil st</w>
vy mez
va z
v ali</w>
ur ban</w>
střed o
so lan
rež imu</w>
předlo žil</w>
prezident a</w>
pre vention</w>
pozměňov acích</w>
po u</w>
per man
peně z</w>
pay ments</w>
ně m</w>
mož ností</w>
l íme</w>
ig nor
ha jí</w>
h ru
dobr á</w>
do w</w>
budouc nu</w>
ě h
člen ského</w>
zů stává</w>
va ši</w>
v ých</w>
upřím ně</w>
sí tě</w>
spa ce</w>
sch ul
rizi ka</w>
restri ctions</w>
prav du</w>
plá ny</w>
obnovitel né</w>
o v</w>
ni mi</w>
mili ar
mil lions</w>
kvó ty</w>
doku d</w>
dod á
cu k
contin ues</w>
constru ction</w>
condu ct</w>
con cili
com pen
auth ority</w>
as sem
2 2</w>
zpravodaj ům</w>
východ ní</w>
v čera</w>
v ala</w>
t ob
pře zku
profes sion
pozměňov acím</w>
po ně
pla te
ochrán ce</w>
ment ů</w>
mechanis m</w>
lisabon skou</w>
leg ally</w>
ji štění</w>
jednotliv é</w>
hospodář ském</w>
gra teful</w>
fung uje</w>
fa iled</w>
contro ls</w>
concili ation</w>
chví li</w>
be d</w>
awar eness</w>
vra ž
vlast ně</w>
veřej nosti</w>
traf fic</w>
stran a</w>
požada vek</w>
poz o
po volen
ge tting</w>
důvo dem</w>
des cri
de ad
cel á</w>
cap able</w>
bur ma</w>
bud gets</w>
br ání</w>
afri cké</w>
ži je</w>
zach ovat</w>
u jícím</w>
souhlas íme</w>
signá l</w>
shi ps</w>
se em</w>
práve m</w>
pro káz
po hla
ne budeme</w>
mon th</w>
mar i
ji žní</w>
itali an</w>
d al</w>
afgh áni
že te</w>
zeměděl ských</w>
stabili tu</w>
sig nal</w>
povz bu
plan ning</w>
peop les</w>
op a
obchod ních</w>
manufacture rs</w>
k ers</w>
jo in</w>
inf r
immedi ately</w>
go t</w>
eth nic</w>
encoura ging</w>
disast ers</w>
con fir
br zy</w>
ěj ších</w>
zá kaz</w>
vý bě
vz ít</w>
vrá tit</w>
určit ou</w>
tole rance</w>
to ld</w>
tem pora
souhla sit</w>
smo king</w>
sch eme</w>
při vít
proto co
pro de
portugal ské</w>
politi kou</w>
pochop itel
p hen
phen om
ou b
mod ern</w>
m ou</w>
hra ček</w>
gra du
exer cise</w>
enfor cement</w>
emp loy
ari es</w>
ad vo
ac cid
ab oli
zajist í</w>
za váz
t led</w>
see king</w>
safe gu
ru ska</w>
ran ge</w>
příspě vek</w>
poděkov ala</w>
nedáv né</w>
leti ště</w>
inten d</w>
f ó
evid ence</w>
employe es</w>
dodá vek</w>
dob a</w>
di cta
con soli
ambició zní</w>
člen ové</w>
č itel
zmí r
uni vers
und oub
te es</w>
simp le</w>
rozpor u</w>
ro čně</w>
quali fications</w>
před u</w>
posky tov
podni ka
pod vod
pe ti
návr hem</w>
no stech</w>
milion y</w>
met od
lim its</w>
kli matick
důležit ost</w>
d ala</w>
au tor
acqu is</w>
ř ů</w>
člen ka</w>
č ných</w>
zása d</w>
zaměst nání</w>
weapo ns</w>
tr zích</w>
tab á
stan ou</w>
sch val
ob ou</w>
na to</w>
mezinárod ním</w>
men ší</w>
me ps</w>
lo ss</w>
kon ci</w>
jednodu ch
expla in</w>
ex pan
easi er</w>
důvě ru</w>
čin ností</w>
zákon y</w>
za sa
z ó
význa mu</w>
ver sion</w>
ti ally</w>
sta ble</w>
sol ve</w>
rov nost</w>
reje cted</w>
po va
nej lep
lan ds</w>
j te</w>
iniciativ u</w>
immedi ate</w>
govern mental</w>
fi kace</w>
cen u</w>
br inging</w>
7 5</w>
2 6</w>
Š véd
čty ři</w>
č in</w>
za druhé</w>
výrob ci</w>
sugge sti
soutě ž</w>
rozvíje t</w>
rozhod ující</w>
pohla ví</w>
pev ně</w>
part ne
olympi j
nost mi</w>
liberali zace</w>
la bo
kter ému</w>
ko de
inte ro
hori zon
happen ing</w>
govern ance</w>
flexi ble</w>
důvě ry
důležit ých</w>
du chu</w>
dis ab
chan ce</w>
cen a</w>
č ními</w>
úspě chu</w>
y or
wee ks</w>
v ad
uspo řád
undoub tedly</w>
turk ish</w>
sch eng
scheng en</w>
s lab
proper ty</w>
pou žívat</w>
pollu tion</w>
op posed</w>
olympi c</w>
ná sil
monteneg ro</w>
min ority</w>
le ch</w>
l t</w>
kee ping</w>
k op
inov ací</w>
hlu bo
grea test</w>
gene rally</w>
elek tro
doporu č
chu doby</w>
cho ice</w>
at tra
an ých</w>
š et</w>
Ř í
zů stat</w>
z t</w>
w at
vozi del</w>
tý d
tz v</w>
t kem</w>
rám cov
rozhod nout</w>
případ y</w>
potenci ál</w>
passen ger</w>
of fers</w>
nebezpeč í</w>
mí r</w>
křesť an
in cor
environment ální</w>
dv ou
dr in
dom e
ř ovat</w>
w n
vlá du</w>
un anim
trea ties</w>
ter ro
struc tures</w>
ro vá
okam ži
nu tím</w>
nega tivní</w>
informa ční</w>
im possible</w>
h und
gru zi
gla d</w>
fon dy</w>
fac tors</w>
equ ally</w>
commit tees</w>
cent re</w>
ak ce</w>
200 2</w>
zástup ci</w>
zeměděl ci</w>
vyjednáv ání</w>
v před</w>
tro chu</w>
tel ně</w>
t ří</w>
reason able</w>
přij ata</w>
pře kva
pákistá nu</w>
pre mi
opera tions</w>
he a
gh ts</w>
exac tly</w>
ele cted</w>
dv ora</w>
domní váme</w>
confli cts</w>
associ ation</w>
an g
ak ční</w>
š et
ví ch</w>
u važ
sti mu
roz man
rozman it
recommenda tion</w>
příprav ě</w>
přij at</w>
předsed ovi</w>
prim arily</w>
prax i</w>
poru šení</w>
o st
mí rov
muž ů</w>
ir ish</w>
inten ded</w>
impro vements</w>
hon ourable</w>
hear t</w>
fac tor</w>
exam ples</w>
dome stic</w>
disku tov
consul tation</w>
consist ent</w>
bě lor
bac k
af for
žá dám</w>
řen é</w>
ř ím</w>
zapo jení</w>
zabrá nit</w>
v stup
tre stu</w>
trans fer</w>
tax ation</w>
t ally</w>
s pr
ro mad
regre t
předlo žit</w>
pravomo cí</w>
prak tick
po nech
p ate</w>
os la
na znač
m ne</w>
li sts</w>
jednot ný</w>
hlas ovala</w>
follow ed</w>
equi p
en han
effe ctiveness</w>
dopl ň
dom in
deta iled</w>
con ven
ak t</w>
a i
žád á</w>
čí s
zpravodaj ce</w>
zjednodu šení</w>
wish es</w>
vů r</w>
vy dáv
val u
u kaza
swed en</w>
sa ma</w>
s mí
qu ar
produ ctive</w>
odpoví da
ně j</w>
mů žete</w>
le ss
la ma
l d
indi a</w>
flexi curity</w>
d vůr</w>
assem bly</w>
appe ar</w>
ad e</w>
200 1</w>
člen y</w>
ústav ní</w>
za znamen
z ví
význam ný</w>
vít áme</w>
traf fi
t ří
subje kty</w>
sna d</w>
sci ence</w>
rod iny</w>
propor tion
od ved
od stav
obrov ské</w>
infrastruk tury</w>
ide ologi
georgi a</w>
fin e</w>
enor mous</w>
en s</w>
e y
e cu
dig nity</w>
bi g
be lar
bar riers</w>
at mo
říj na</w>
čen ím</w>
vis a</w>
un ity</w>
u l</w>
ti va
tel ům</w>
spravedl nost</w>
se be
schop nosti</w>
rozmě r</w>
prob ěh
plan ned</w>
opera tional</w>
op s</w>
net works</w>
ne o
ne máme</w>
ne l</w>
navr hu
má te</w>
l ům</w>
její ch</w>
intero pera
integra ci</w>
hlas ováním</w>
eas y</w>
chan ging</w>
cest ou</w>
celo svět
can di
bro ad
bi r
a z
ře šen
če ho</w>
Čí ny</w>
zapomí nat</w>
vlast ních</w>
ta ge</w>
situ ací</w>
se ven</w>
republi ky</w>
reali se</w>
podob né</w>
po měrně</w>
opráv ně
on going</w>
nes práv
lá ch</w>
like ly</w>
le ta
king dom</w>
ju ly</w>
jedna cího</w>
in su
i j
gam es</w>
en gen
dru žení</w>
dost at</w>
d ali</w>
c over</w>
3 1</w>
ště stí</w>
vě dět</w>
uved la</w>
un ds</w>
tr en
ti mately</w>
tak zvan
sup ports</w>
střed omo
souvise jící</w>
so le
signific antly</w>
ro kem</w>
resol ve</w>
před tím</w>
provádě t</w>
prote cted</w>
podpor ují</w>
po ško
po rad
plate b</w>
pla ces</w>
pl nit</w>
person ally</w>
ovan í</w>
ne mělo</w>
mu r
interne tu</w>
hodno tit</w>
figh ting</w>
evrop an
er y</w>
dopo sud</w>
def end</w>
de stro
de cre
ca tional</w>
ca ble</w>
accep table</w>
žen ý</w>
š íme</w>
vý no
vyzý vá</w>
vlast nictví</w>
va ší</w>
v ul
under min
u </w></w>
soun d</w>
pre ssing</w>
per fe
organi zaci</w>
na le
monit or</w>
migra ce</w>
lear n</w>
ka tegori
jedin ým</w>
integ rovan
im pli
hodno t
globali zaci</w>
f la
du ší</w>
dopad u</w>
disku tujeme</w>
demokra tů</w>
constan tly</w>
com ply</w>
c ové</w>
c ování</w>
š em</w>
úko lem</w>
ú zemní</w>
zaji ště
z odpovědnost</w>
vz dá
vis ory</w>
v ers</w>
stanov it</w>
sovere ign
shromá ždění</w>
reali zaci</w>
pust it</w>
posou zení</w>
posi tions</w>
perspe ktiv
ohro ž
impor ts</w>
i ed</w>
fir mly</w>
f f
coher ent</w>
cla im
chyb í</w>
christi an</w>
chair man</w>
afri ky</w>
za mít
váž né</w>
takov ých</w>
souhla s</w>
růz nými</w>
proved ení</w>
prepar ing</w>
politi cs</w>
ply nu
origin al</w>
offici als</w>
ně kdo</w>
nepřija telné</w>
n omo
li cen
la jí</w>
kon stat
ir sku</w>
inve stic</w>
fac ed</w>
expe cted</w>
dů chod
bělor u
a </w></w>
ze v</w>
vě t</w>
subsi dies</w>
stron ger</w>
st aly</w>
samo tné</w>
přij al</w>
proce ed
prior it</w>
náv ště
kon tak
hel ping</w>
dne ch</w>
dese ti
degre e</w>
dan ger</w>
citi zen</w>
blaho přeji</w>
agen cies</w>
afri ce</w>
1 6
zneu žívání</w>
zahr nov
za slouží</w>
y a</w>
work ed</w>
výz vu</w>
uži va
tradi tional</w>
too ls</w>
sub mitted</w>
sp here</w>
sovereign ty</w>
se ats</w>
region ech</w>
při z
předsed kyně</w>
př en
pracu jí</w>
pra v</w>
palestini an</w>
pa mě
ov z
or e</w>
opera ting</w>
l led</w>
l l</w>
komplex ní</w>
klad ů</w>
inten tion</w>
inci d
in ation</w>
identi ty</w>
gh ted</w>
differ ence</w>
daňov ých</w>
cí li</w>
com pared</w>
člen ství</w>
účin ně</w>
úko l</w>
zástup ce</w>
zjev ně</w>
z bro
vi ce</w>
ve z
univers al</w>
umož nit</w>
th o
skuteč nou</w>
rozpoč tové</w>
resol ved</w>
qu e</w>
protoco l</w>
podpo rou</w>
peace ful</w>
ovz duší</w>
nalé zt</w>
mov ed</w>
kon solid
guarante es</w>
fu r</w>
experi en
exclu sion</w>
důvěry hod
dopl ňující</w>
de e
commer cial</w>
at titude</w>
zá kladem</w>
z ování</w>
wor th</w>
volun tary</w>
stát ě</w>
stej ný</w>
sp ad
re struktu
re struc
přirozen ě</w>
př ání</w>
poskyt ovat</w>
podpo rov
par ents</w>
p ha
no rem</w>
muse jí</w>
mari time</w>
li d</w>
kou ření</w>
hovo řil</w>
extremis m</w>
ent ů</w>
e .</w>
bo w
asi de</w>
zá sob
zahá jen
výrob ce</w>
vy nalo
vis ed</w>
vid ím</w>
upozor nil</w>
těž ké</w>
tr end</w>
se pa
schů z
s fé
rup tion</w>
op ened</w>
nu me
nor th</w>
kosov u</w>
ko lem</w>
dostup né</w>
di versity</w>
defin ed</w>
de mi
allow ing</w>
ří t</w>
áv ám</w>
zavádě ní</w>
význam nou</w>
vr cho
tru th</w>
ti la</w>
tempora ry</w>
sí d
skuteč ný</w>
sc ru
reži m</w>
pře su
poblahopřá t</w>
ordin ary</w>
omez it</w>
nástro jem</w>
nezávis losti</w>
nej de</w>
na u
mu ni
lo ň
judi cial</w>
jev o</w>
intere sted</w>
i .
i. e.</w>
harmoni zace</w>
fe bru
febru ary</w>
draf t
disast er</w>
ce r</w>
va ti
too l</w>
tob ac
tobac co</w>
teroris mus</w>
takov é
surve il
surveil lance</w>
součá st</w>
slo v</w>
si bly</w>
sch engen
ru m</w>
rozdí l
pl nou</w>
obstac les</w>
nezávis lost</w>
kri zi</w>
k ování</w>
ish ed</w>
i c</w>
for mě</w>
exten d</w>
emer g
du mp
do čas
deal t</w>
cto ral</w>
chara c
an ge
ali sed</w>
afgháni stánu</w>
č ili</w>
závis í</w>
zd vi
z vo
vzta zích</w>
vyjád ření</w>
vul ne
ved ou</w>
tibe t</w>
t j</w>
t iny</w>
suspen ded</w>
střed ních</w>
strukturá lních</w>
spojen ými</w>
speak ers</w>
solidar itu</w>
ri sts</w>
reali stic</w>
pru ž
pris on</w>
poslan cům</w>
pol sko</w>
nan e
la id</w>
konkrét ních</w>
kompromis u</w>
klíč ové</w>
infor m</w>
hy po
ga ž
fre qu
evropsk ými</w>
en try</w>
dyna mi
cri mes</w>
au ton
an gaž
Írá nu</w>
závě ry</w>
z vá
z tra
vi l</w>
to tally</w>
se le
přistoup ení</w>
překá žky</w>
práv ním</w>
perman ent</w>
pamě ti</w>
ovan ým</w>
odstran it</w>
násled ně</w>
ne ws</w>
místo předseda</w>
mož no</w>
menš in</w>
jedno značně</w>
he ads</w>
h ů
genera ce</w>
f ish</w>
f is
ex ecu
ed ed</w>
duš ev
brit áni
žá dost</w>
změ nám</w>
za cházení</w>
vo d</w>
to p</w>
tiv ně</w>
studi e</w>
souhlas í</w>
s ú
s mu
restruktu rali
předmě tem</w>
pr ch
očekáv áme</w>
oc cur
obě tí</w>
obli gation</w>
ně n</w>
ná ležit
na jevo</w>
m ům</w>
koordin ace</w>
koleg ům</w>
k od
introdu cing</w>
ge st</w>
ga ve</w>
facilita te</w>
f are</w>
continu ed</w>
chara kter
ží t</w>
š li</w>
zneči štění</w>
z práv</w>
výz vám</w>
uveden é</w>
tn ým</w>
tex ts</w>
tele vi
s bur
re por
přistěhoval ců</w>
pro vést</w>
ozná men
ob jas
náro č
konku r
konfli ktu</w>
komisař ka</w>
is lá
infr in
i c
g an</w>
emerg ency</w>
el ds</w>
ekonomi ky</w>
dar fur</w>
contribu tions</w>
colle ctive</w>
cestov ní</w>
cest a</w>
ce </w></w>
br ings</w>
č ů</w>
výda jů</w>
vy slov
v ance</w>
u mí
tvr dí</w>
te lem</w>
svo je</w>
soudrž nost</w>
si vely</w>
rychle ji</w>
regula ce</w>
refuge es</w>
re ite
pě ti</w>
propos ing</w>
pres ence</w>
pla yed</w>
pat h</w>
opini ons</w>
opak ovat</w>
ob ha
mon et
mimo řád
maxim ální</w>
lat ter</w>
ko sti</w>
kam pan
k to
jaké koli</w>
inve st</w>
intel le
ini tial</w>
hled u</w>
gg le</w>
fung ovat</w>
for ma
draft sman</w>
dit ors</w>
di l</w>
defini tion</w>
daň ové</w>
co -
certain ty</w>
bod ů</w>
b ab
atta ck</w>
associ ated</w>
afri ka</w>
ac tual</w>
čen ých</w>
způsob u</w>
uzav ření</w>
u prch
sti ma
spr ing</w>
sna hy</w>
ra c
qu anti
požád al</w>
podpo řili</w>
po rate</w>
po cit</w>
pay ment</w>
o logy</w>
násled ky</w>
nor thern</w>
ni zo
n ům</w>
met ody</w>
mar king</w>
jedin ý</w>
institu tu</w>
h ence</w>
guarante ed</w>
ga in</w>
důvod y</w>
druh ý</w>
dru h</w>
co operate</w>
ch ing</w>
cel kové</w>
au stri
č ila</w>
vylou čení</w>
vy stav
vol ného</w>
uplat nění</w>
tiv ním</w>
s par
ra si
ra kou
pos lou
op i
och ot
myšlen ka</w>
mlu v
leti št
la s</w>
konstruk tivní</w>
inten tions</w>
fáz i</w>
en ter</w>
emis emi</w>
e c
druh á</w>
dokumen tu</w>
di e</w>
dela y</w>
com par
al ar
affe ct</w>
af ter
žen á</w>
Ž á
ř ily</w>
zákaz u</w>
topi c</w>
star ted</w>
správ y</w>
si ce</w>
restruc turing</w>
reje ct</w>
ra ce</w>
přesvěd čení</w>
probí há</w>
potřeb ná</w>
poně kud</w>
p al
okol ností</w>
obrov ský</w>
ob dr
neighbou ring</w>
ly </w></w>
ká me</w>
jící mu</w>
in ts</w>
im posed</w>
hu t
han d
et ings</w>
environment ally</w>
ed i
dár fú
care fully</w>
argu ment</w>
allo cated</w>
č tí</w>
č ase</w>
zmí nit</w>
wh ate
whate ver</w>
výz vou</w>
vol ný</w>
uvědom it</w>
ur gent
sled ování</w>
sha dow</w>
rost lin</w>
repe at</w>
provo z
pro ud</w>
poslan ec</w>
politi cally</w>
po kou
opě tov
nume rous</w>
nebezpeč ných</w>
monet ary</w>
m oun
m ist
libe ral</w>
leti šť</w>
la p
její ž</w>
invest ments</w>
han ds</w>
g are
ev ro
energetick ých</w>
energeti ky</w>
en á</w>
doprav ní</w>
disku sí</w>
deta il</w>
char ges</w>
cest y</w>
b í</w>
asse ss</w>
amen ding</w>
a in</w>
zásad u</w>
zaměřen é</w>
vzájem né</w>
vyso kou</w>
vol bách</w>
tě z
sub sequ
strategi es</w>
sto od</w>
statisti cal</w>
souvis í</w>
san ctions</w>
potí rání</w>
ostat ními</w>
op tion</w>
ob rá
ně jaké</w>
ne w
ne t</w>
lé ta</w>
liberali zaci</w>
lan d
kontin en
j ně</w>
inten sive</w>
h lou
gu i
for um</w>
exist s</w>
electri city</w>
condi tion</w>
cel kem</w>
za ví
v ání</w>
un less</w>
udr ž
ta sks</w>
stran u</w>
st ě
ra ted</w>
pursu e</w>
pur poses</w>
publi shed</w>
prosin ci</w>
pravi d
pol sku</w>
nei ther</w>
negoti ating</w>
navrhov a
man i
liv ých</w>
jin ým</w>
it ation</w>
inform ovat</w>
ef ly</w>
doku mentů</w>
dist in
da tes</w>
be ha
at d</w>
aktiv ně</w>
1 ,
řen y</w>
ře šením</w>
Ú mlu
wel fare</w>
wa it</w>
ul timately</w>
tho rou
ten ces</w>
symbo li
su rely</w>
stra s
st mi</w>
spe ed</w>
skup in
sezna m</w>
sa v
recor d</w>
práv y</w>
prost ě</w>
politick ým</w>
nov iná
nizo zem
mechanis my</w>
man dá
list iny</w>
lin k</w>
lea der</w>
kritéri a</w>
kom bin
jmé ně</w>
hol ders</w>
deli ver</w>
centra li
campa ign</w>
brá t</w>
0 0
člen ském</w>
zdůraz nila</w>
y sl
vě ku</w>
vá mi</w>
vod y</w>
ved ení</w>
ur s
traffi cking</w>
th urs
stras bourg</w>
sta ve
st ů</w>
socie ties</w>
sm es</w>
slo žení</w>
rozsa h</w>
refle ct</w>
př in
pokrač ování</w>
podpo ří</w>
podmín kách</w>
pil í
phenom en
p hy
ne stačí</w>
ne sen
ne jméně</w>
nad měr
míst ních</w>
ma tem</w>
m í</w>
lo v</w>
lin ed</w>
koli k</w>
koleg ů</w>
koleg y
klá dá</w>
jí ch</w>
h ům</w>
h ob
fun gu
fra ud</w>
emis sion</w>
dovo lit</w>
c op
c .</w>
b lu
arran gements</w>
alis m</w>
ad ju
úče ly</w>
zkušen ostí</w>
za řa
wor se</w>
vědom i</w>
vyžad ují</w>
vliv u</w>
v i</w>
thurs day</w>
techni cké</w>
sum mer</w>
stri ct</w>
st op
sly še
ra ising</w>
pě st
poru š
partici pate</w>
očekáv at</w>
ne měly</w>
nabí zí</w>
n ské</w>
me etings</w>
man age</w>
la w
kandi dá
institu t</w>
hla su
ga zy</w>
cor e</w>
bude te</w>
ar ti
ar mé
ar men
ab and
ř en</w>
čin í</w>
zlep š
všeobec né</w>
výsled ku</w>
u kazují</w>
tla ku</w>
tion </w></w>
thre at
takov ou</w>
sle ch
seri es</w>
s mu</w>
reak ci</w>
reach ing</w>
r ní</w>
profession al</w>
postup ně</w>
podpo řil</w>
pas s</w>
pad á</w>
od su
mé di
mor ning</w>
monito rování</w>
miliar dy</w>
l ying</w>
jin ý</w>
její ho</w>
increas es</w>
im port</w>
h ned</w>
gre ek</w>
doda teč
credi bility</w>
ca tes</w>
c co</w>
b ám</w>
a h
účin ná</w>
ú st
zpravoda je</w>
wel com
welcom ed</w>
vulne rable</w>
voleb ní</w>
unemp loyment</w>
udržitel né</w>
tur ning</w>
there by</w>
tax es</w>
ta tions</w>
srb sko</w>
se para
sch em
roman ian</w>
re marks</w>
produ ktů</w>
phenomen on</w>
ní me</w>
nebezpeč né</w>
na sto
mu nity</w>
mo ra
list ina</w>
late st</w>
kore a</w>
komuni ka
itá lii</w>
invol ving</w>
intelle ctual</w>
innov ative</w>
gro unds</w>
g an
emer ging</w>
důvě ry</w>
důležit ější</w>
desi re</w>
cele k</w>
závis losti</w>
zá kon</w>
vě z
výrob a</w>
východ ě</w>
vál ky</w>
vytváře t</w>
uznáv ání</w>
uz nat</w>
usil ovat</w>
tu dí
tudí ž</w>
t á</w>
solan a</w>
sociál ním</w>
směrni c</w>
ris ing</w>
re si
re ply</w>
produ cing</w>
popu lace</w>
politick y</w>
opera tors</w>
námoř ní</w>
měsí cích</w>
lá tek</w>
life long</w>
koleg a</w>
k lu
j ším</w>
individu als</w>
hospodář ská</w>
exper ts</w>
ev en
doprav ě</w>
dis pu
deci sive</w>
cra ft</w>
ch </w></w>
au tor</w>
/ 2007</w>
vzdá len
vi sit</w>
u jist
tre ated</w>
tr hem</w>
sv á</w>
sustain ability</w>
ru n
re -
phy si
ov šem</w>
mys let</w>
large st</w>
langu ages</w>
hrani cích</w>
fir my</w>
fi res</w>
fac ts</w>
dru hu</w>
dodrž ovat</w>
doda va
diplom a
cor bet
com para
ci gare
bud ovat</w>
bo s
amoun ts</w>
adop ting</w>
2 8</w>
život nímu</w>
š ti</w>
úspěš ně</w>
úprav y</w>
zeměděl ců</w>
vyjad ř
vol ném</w>
v ene
una ble</w>
technologi cal</w>
suf fering</w>
sta ví</w>
sta bi
skup inou</w>
sig ning</w>
samo stat
ra jí</w>
přine jmen
přinejmen ším</w>
přiměřen é</w>
promis es</w>
pri vati
požadav ků</w>
použí t</w>
podí le
pochopitel ně</w>
po vede</w>
op ti
mr .</w>
kul tury</w>
kom pe
jen ž</w>
jen om</w>
indi cat
hung ary</w>
high est</w>
harm ful</w>
dů m</w>
cho dem</w>
bri ef</w>
beha vi
as i</w>
ai ds</w>
4 5</w>
3 5</w>
zdro jem</w>
zahrani čních</w>
z řízení</w>
vá š</w>
vy pracovat</w>
tra sbur
strategi í</w>
spo jení</w>
spl nit</w>
sou du</w>
schul z</w>
rovnová hu</w>
rov á</w>
religi on</w>
re st
ra zen
přesvědčen i</w>
pro pu
pra cí</w>
požad uje</w>
ob tain</w>
nej sem</w>
ne měl</w>
mo t
izra el
contra cts</w>
cle an</w>
civil ní</w>
campa ig
aktiv ity</w>
advanta ges</w>
ž ď
úlo hy</w>
zpráv ou</w>
zastav it</w>
větš inu</w>
výrob ě</w>
vý še</w>
vy zdvi
vy víje
ti li</w>
swed ish</w>
st ří
sou thern</w>
smě ř
schoo ls</w>
rov i</w>
represen ted</w>
regu lar</w>
re volu
připrav eni</w>
před nost
pro vin
prepar e</w>
plu s</w>
obsa h</w>
mo l
kvali t
kte ch</w>
kr ý
jour na
jednot li
intenzi v
g one</w>
fi f
eu res</w>
e li</w>
do stí</w>
clo sure</w>
ci í</w>
ch a</w>
belar us</w>
autom a
á ním</w>
větš iny</w>
vá ním</w>
vy má
verheu gen</w>
třetí mi</w>
stru čně</w>
služ bách</w>
ro nic</w>
respe ctive</w>
r ch
příšt ího</w>
pé či</w>
pro hi
premi é
pozmě ňující</w>
pochy by</w>
po řad</w>
ovan ost</w>
on a</w>
milion u</w>
mb ers</w>
lod ě
lo se</w>
large ly</w>
la ter
koordin aci</w>
jedná ních</w>
jednom ysl
invol ve</w>
intel li
gen o
fi re</w>
en ý</w>
demokratick ých</w>
contain ed</w>
compen sation</w>
cent rá
beli ev
ar ri
ap par
ší ření</w>
šir ší</w>
š véd
Š trasbur
vy člen
u jícího</w>
t ř
sy ner
stí ž
stu dies</w>
stej nou</w>
statisti ky</w>
sp ent</w>
sp end</w>
si la</w>
schem es</w>
s rov
s pan
rozhod li</w>
rec over
prů měr
prosaz ovat</w>
pochy b</w>
plánov ání</w>
op hob
okamžit ě</w>
na vš
m ých</w>
harmon iz
h nutí</w>
go e
fa il</w>
em o
ei ght</w>
dospě lých</w>
determin ation</w>
dal šího</w>
consid ering</w>
cat ch</w>
appreci ate</w>
an ces</w>
zí ho</w>
za ko
za cí</w>
z ují</w>
z bý
vz po
uprch lí
substan ces</w>
su ver
spo ke</w>
se ts</w>
ru ch</w>
rovnová hy</w>
ro va
regu l
ratifi ed</w>
pů l</w>
přísluš ných</w>
přeprav y</w>
od had
ne znamená</w>
muse li</w>
mo ři</w>
mnoho krát</w>
minister ský</w>
lu jí</w>
legitim ate</w>
incen tives</w>
geo graphi
fi elds</w>
ey e</w>
e s</w></w>
doprav a</w>
dist or
deli ghted</w>
cháze jící</w>
c ating</w>
by d
be l</w>
achie vement</w>
1 5
š né</w>
zahrani čí</w>
za zně
wi der</w>
výbo rem</w>
vi g
us ers</w>
urgent ly</w>
ty pes</w>
tri ed</w>
to též</w>
standar dy</w>
spo ken</w>
pracu je</w>
považ ovat</w>
pochop it</w>
of ob
o ku
náro dy</w>
no ted</w>
mnoh ých</w>
li že</w>
k vět
jin á</w>
jest liže</w>
i ma
finan čního</w>
f em
evalu ation</w>
druh ým</w>
dis c
char ge</w>
c ent</w>
accid ents</w>
2 9</w>
0 5</w>
čtě jší</w>
čer p
č er</w>
wil ling</w>
wa iting</w>
vý chov
univer z
u vít
takové to</w>
tack ling</w>
ta mi</w>
success fully</w>
sp á
součas ná</w>
sna žíme</w>
rozhod la</w>
respe cted</w>
ra ti
přine s
propor tion</w>
pro ved</w>
pro ve</w>
posto je</w>
po rovnání</w>
pla ying</w>
nu mbers</w>
myšlen ku</w>
liv ý</w>
kor up
is o
heal thy</w>
harmoni zaci</w>
ha bit
h nout</w>
fran cie</w>
fel t</w>
ex por
dě láme</w>
dan í</w>
cho ose</w>
cel ní</w>
cel ku</w>
bal tic</w>
allow s</w>
air craft</w>
šen a</w>
Řeck u</w>
člově k</w>
západ ní</w>
zá tě
zvá žit</w>
změ nou</w>
vy slech
vnit ř</w>
v nějších</w>
tě mi</w>
tran spo
spotřebitel ům</w>
spojen ého</w>
sm al
sepa rate</w>
sar ko
s ů</w>
s al</w>
rop y</w>
re qu
přev á
př inese</w>
pre pa
pou h
pohy b</w>
on i</w>
obtí žné</w>
obec né</w>
nu cen
n om
mo ral</w>
l ým</w>
l ové</w>
l </w></w>
j ist</w>
highligh ted</w>
for th
fi l</w>
ex tra
er a</w>
dobr ým</w>
do jem</w>
de signed</w>
che a
bioply nu</w>
ameri can</w>
aktu ální</w>
zept at</w>
vyjád řila</w>
vy jas
ve čer</w>
u plynu
tar ge
sur pr
stanov ení</w>
ru kou</w>
ru chu</w>
pracov ního</w>
pa liv
p sy
od en
norm al</w>
lis m</w>
li í</w>
kr u</w>
každ oden
hla s</w>
happen s</w>
exist ující</w>
de sá
congratu lations</w>
con vi
ck ed</w>
cestu jící</w>
behavi our</w>
b hut
avo i
ap plying</w>
ak cep
acti vely</w>
ab les</w>
3 00</w>
ž ím</w>
čin y</w>
úspěš né</w>
x ed</w>
vě zení</w>
vývo ji</w>
vojen ské</w>
vod u</w>
veřej nost</w>
valu able</w>
tax pay
svob od</w>
sil nější</w>
sa k
refor ma</w>
reci proc
re min
re kla
pů j
přím é</w>
pro vá
preven ting</w>
odhod lání</w>
náklad ní</w>
nen a
mezi vládní</w>
men ta
logisti cs</w>
konkur ence</w>
inicia tiv</w>
hon est</w>
hol ding</w>
exce ssive</w>
enti tled</w>
e stima
děl á</w>
dot k
do jít</w>
depen ds</w>
corre ctly</w>
cor ruption</w>
con tradi
charac ter
buil t</w>
ac p</w>
áv áme</w>
á ny</w>
závaz ků</w>
záva žné</w>
z an
y ard</w>
wor ld
world wide</w>
vzta h</w>
vyšet řování</w>
vyplý vá</w>
vir ran
virran ko
u vnitř</w>
tureck a</w>
tiv ního</w>
ti sing</w>
t ského</w>
suppli es</w>
soud ního</w>
sněmov ny</w>
skil ls</w>
sil né</w>
ri ch
renew ables</w>
reali sti
re move</w>
ratifi kace</w>
předsed u</w>
předlo žené</w>
pracov níky</w>
poskytn e</w>
po rozu
pi pe
pa pí
otev ření</w>
of fered</w>
od mí
návr zích</w>
ne jsme</w>
n ý
mus li
mo tiv
medi cin
m ém</w>
ku předu</w>
kontro l
ka v
k ý</w>
jak ý
iniciativ a</w>
in t</w>
ili ties</w>
fun ction</w>
examin e</w>
evro pou</w>
ed y</w>
dí l
d vo
critic ism</w>
ck ému</w>
bene fici
be comes</w>
announ ced</w>
adul t</w>
částe čně</w>
závě re
zákon a</w>
z rani
z ji
ví z
vysvět lit</w>
vy ví
vstup u</w>
un fair</w>
transparent ní</w>
sugge st</w>
střed ním</w>
stabil ní</w>
simpli fication</w>
satis fied</w>
ro mů</w>
respekt ovat</w>
region álních</w>
re zer
re vision</w>
re s
ra bly</w>
připomně l</w>
prote st</w>
produ kty</w>
pravomo c</w>
po p
per for
pa liv</w>
odrá ží</w>
occa sions</w>
následu jících</w>
mon opo
ma te
le ads</w>
gi ble</w>
et c.</w>
do stáv
deta ils</w>
de ca
consequ ently</w>
com pati
biopali v</w>
as pi
ans wers</w>
an ts</w>
al li
š la</w>
čen é</w>
úmlu vy</w>
založen é</w>
udržitel ný</w>
u de</w>
tu n</w>
t on</w>
sí lu</w>
succe ed</w>
sou d</w>
sig na
si li</w>
schop na</w>
safegu ard</w>
pá r</w>
práv u</w>
prv ky</w>
proceed ings</w>
povol ení</w>
ov ě</w>
obvyk le</w>
no on</w>
ne přízni
minu lého</w>
ku je</w>
konz er
kom pli
klíč ových</w>
it al</w>
ga p</w>
g n
ev ening</w>
equip ment</w>
deca des</w>
dan ou</w>
conta ct</w>
cau ca
b oun
b ing</w>
appropri ations</w>
appro ach
4 00</w>
ří d
úpl né</w>
zen a</w>
vyhlá šení</w>
vyh nout</w>
vy stoupení</w>
vlast ním</w>
uveden ých</w>
trp í</w>
tra vel</w>
t vá
strength ened</w>
sto ck
provo zu</w>
pok ry
po zd
play ers</w>
ová ní
myšlen ky</w>
mon o
mem e</w>
každ á</w>
její mž</w>
jednot né</w>
im pose</w>
hor ší</w>
hled ání</w>
gro w</w>
dárfú ru</w>
demonstra te</w>
de st
cu kru</w>
cent res</w>
bezpečnost ních</w>
adju st
3 .
č il</w>
zá pisu</w>
zne výhod
zapo jit</w>
výz va</w>
vyh lí
v ar
u vol
ti se</w>
te ach
suffici ently</w>
stran ami</w>
spojen ém</w>
so ft</w>
skup ině</w>
si v
respe k
rela tes</w>
produk ci</w>
problé mům</w>
portugal ského</w>
polit ování
oček ávání</w>
ovan ém</w>
ou rs</w>
osob ních</w>
ol der</w>
no tably</w>
nezbyt ná</w>
neleg ální</w>
mode lu</w>
man dát</w>
m ý
livo st</w>
la ci</w>
justi fied</w>
jednot ky</w>
j uje</w>
industri es</w>
e ase</w>
dokon al
decla rations</w>
da iry</w>
cauca sus</w>
c em
břez na</w>
b ní</w>
au ditors</w>
as y
ac knowledge</w>
ško l
ř ství</w>
účin nější</w>
ú spor
zač ala</w>
z pochyb
z odpově
vše ho</w>
vene zu
ty pi
tur ned</w>
tre st</w>
sti g
součas ný</w>
smlou vou</w>
s ence</w>
s al
rov ých</w>
rov no
re ds</w>
princi p
počá tku</w>
poznám ky</w>
považ uje</w>
pos ing</w>
pla cing</w>
pha se</w>
partner ů</w>
otáz kám</w>
odvět vích</w>
ně ním</w>
lama s
kon sen
kdy bychom</w>
ji ž
ja pon
j iny</w>
histori c</w>
ess enti
enjo y</w>
endor se</w>
dosáh neme</w>
dlouhodob é</w>
depend ent</w>
dal o</w>
d ová
d ky</w>
ci a</w>
chu době</w>
as es</w>
an á</w>
an ci</w>
ali sation</w>
addre ssing</w>
ab sence</w>
ěj ším</w>
čtvr tek</w>
za stáv
z kla
w ol
ví ce
sta ke
si vní</w>
shro ma
see ing</w>
s ac
rozší řit</w>
reli able</w>
ratifi kaci</w>
připrav it</w>
přijí mání</w>
proce sses</w>
prim ary</w>
poštov ních</w>
potřeb ě</w>
police jní</w>
po vědomí</w>
ov ými</w>
od va
ob ra
o s</w>
o cen
něj šího</w>
nech ceme</w>
ne pro
ne od
n t</w>
n '
leg ální</w>
kultur ního</w>
koneč ném</w>
invest ovat</w>
hung arian</w>
hund reds</w>
forth coming</w>
fin ding</w>
fer red</w>
en vis
en cies</w>
důkaz em</w>
dě lit</w>
du b
diver si
dal šími</w>
cer tifi
bu y</w>
atlan tic</w>
ari é
air lines</w>
ad vance</w>
ac ting</w>
ab sur
zen y</w>
za stoupení</w>
vě říme</w>
vážen é</w>
vá ny</w>
ved le</w>
ty pu</w>
transi tion</w>
tr é
to y</w>
ti to</w>
thre ats</w>
than king</w>
takov ého</w>
stan ds</w>
sta č
si ties</w>
shroma žď
sh ar
rych lé</w>
přij aly</w>
průmyslov ých</w>
pros ad
prison ers</w>
prax e</w>
po w
perfor man
ote ví
orgá n</w>
odpovída jící</w>
ni jak</w>
na cion
moder ní</w>
mo tor</w>
medicin es</w>
me xi
lé d
led ne</w>
kli matické</w>
jí me</w>
jist é</w>
j ich</w>
inten ds</w>
hod lá</w>
evropan ů</w>
evrop ané</w>
europo lu</w>
eng age</w>
diskrimin aci</w>
de sign</w>
de fici
dal a
cy cle</w>
chá pu</w>
bri efly</w>
au di
administra tivní</w>
accoun ts</w>
3 0
žád ném</w>
zvý ší</w>
zví ř
znalo stí</w>
zač al</w>
význam ným</w>
výrob ců</w>
vy lep
vehi cle</w>
tvr d
tr pě
ti bet
terro rists</w>
st rá
st ali</w>
spraved livé</w>
span ish</w>
sla v
sc é
sa w</w>
s ové</w>
resu med</w>
ra id</w>
příj mu</w>
pozor nosti</w>
pozo rova
postav it</w>
pl ní</w>
physi cal</w>
pas sed</w>
očekáv á</w>
otevřen é</w>
ní zk
ní z
náz orů</w>
na va
n ést</w>
menš iny</w>
marke ting</w>
ma p</w>
li k
kontro le</w>
jest li</w>
it ého</w>
ira q
incor pora
im peri
geographi cal</w>
g ov
fav ourable</w>
energeti ku</w>
elekt ř
el der
elder ly</w>
dra wing</w>
deser tification</w>
commission ers</w>
com pul
cal cu
ban on</w>
aspe ktů</w>
a red</w>
šť ast
čá stí</w>
zvyš uje</w>
we al
w age</w>
vy řešení</w>
vnitř ním</w>
vi di
ved ou
univer sities</w>
té matem</w>
tro ops</w>
ton nes</w>
sup ple
sud an</w>
souvise jících</w>
slyše li</w>
sk ot
s rovnání</w>
s ory</w>
republi ce</w>
recover y</w>
re pre
původ ní</w>
přezkou mat</w>
překá ž
prepa ration</w>
over come</w>
op t</w>
obyva tele</w>
na mi</w>
na klá
mc cre
mccre ev
ma ssive</w>
m l
lé ka
l hů
k in
is on</w>
inter governmental</w>
ho pe
h ance</w>
for my</w>
explan ations</w>
encoura ged</w>
en hance</w>
ed ing</w>
děl ování</w>
do lar
defin e</w>
consoli dated</w>
conclu ded</w>
con fu
ce t</w>
automobil ů</w>
at ory</w>
assu me</w>
asi e</w>
appe ars</w>
an a
afri kou</w>
af raid</w>
ústav y</w>
ál ními</w>
z ar
w in</w>
vozi dla</w>
uskuteč nit</w>
urg ency</w>
tr vat</w>
tisí ce</w>
th ly</w>
t ter
spolu pracov
spe e
some one</w>
sa my</w>
run ning</w>
ri d</w>
regula ci</w>
rec all</w>
re ad
r ý
příspěv ky</w>
pru d
po st</w>
p h
ovan ě</w>
ov acích</w>
otáz kami</w>
ong st</w>
o to</w>
nor a</w>
nedo ká
moder n
man del
lu x
lond on</w>
len ých</w>
l ling</w>
ky oto</w>
kri tick
jedin ě</w>
j ších</w>
j ó
ine ly</w>
hovo řili</w>
h ování</w>
genu inely</w>
fran k
fish er
ex tré
ex ports</w>
essenti ally</w>
en p</w>
dou ble</w>
disab led</w>
contra ct</w>
con serva
com pon
co sta</w>
attemp ts</w>
am ongst</w>
ali z
affe cts</w>
ň ujeme</w>
Čí nou</w>
xen ofob
wil l
vrcho l
va st</w>
va mi</w>
tře tím</w>
tro j
tradi tion</w>
strukturá lní</w>
sr d
spee ches</w>
si ze</w>
sh ing</w>
se hr
ri ch</w>
resul ting</w>
radi k
přizpůsob ení</w>
přijat ých</w>
předlo žili</w>
propos es</w>
proce ed</w>
pro of</w>
poin t
po tla
person nel</w>
ovan ými</w>
opera ce</w>
ohro žení</w>
od lo
obsa hu</w>
nut nost</w>
nes praved
na h
medi cal</w>
mar ine</w>
lá m</w>
lu ji</w>
la l</w>
kro ků</w>
kom pen
kampan ě</w>
ka li
ju jí</w>
itá lie</w>
institu cemi</w>
identi fy</w>
hou sing</w>
dyna mic</w>
dovo z
dom ov
bureaucra tic</w>
bez pochyby</w>
bene fi
b g</w>
al </w></w>
še st</w>
způsob uje</w>
zo lu
za káz
xen ophob
vyzý váme</w>
vio lations</w>
val y</w>
uh lič
ti a</w>
tel nou</w>
takov ý
st á</w>
soustřed it</w>
slou žit</w>
sa zení</w>
ro ste</w>
reque sted</w>
re zolu
před e
pře h
produ ktiv
problemati ce</w>
prak ti
po stupovat</w>
performan ce</w>
od stra
ná h
navš tí
na i
n' t</w>
mí ra</w>
minist rů</w>
mechanis mus</w>
materi al</w>
leto s</w>
kri z
gover ning</w>
geno ci
fisher men</w>
ex pli
en ty</w>
dvou stran
dru hy</w>
defini tely</w>
brazí lie</w>
bo o
bi odi
appli cable</w>
živo ty</w>
žen ám</w>
že li</w>
ž ilo</w>
Štrasbur ku</w>
ě ny</w>
zeměděl cům</w>
w ent</w>
určit ý</w>
tě les
suf fer</w>
sta tion</w>
společ ném</w>
spl nění</w>
spen ding</w>
slovin sko</w>
ser ves</w>
s z
rozvin u
reinfor ce</w>
představ it</w>
pře trv
prů zku
preven ci</w>
posil ování</w>
pokrač uje</w>
podnik ání</w>
po bí
po by
peč livě</w>
od kaz
o zbro
o </w></w>
na pl
n one</w>
mysl íme</w>
mysl í</w>
list en</w>
jas ná</w>
goe pe
ful fil</w>
eu for</w>
doub ts</w>
col labo
be aring</w>
balká nu</w>
assi st</w>
asi i</w>
appro ve</w>
adap t</w>
a part</w>
199 0</w>
č ná</w>
znepoko jení</w>
založen a</w>
w ro
výda je</w>
vý lu
vod ní</w>
under stood</w>
u jete</w>
sur vi
strategi cké</w>
specifi cké</w>
součas ného</w>
s pread</w>
rumun sko</w>
rizi k</w>
rail ways</w>
práv ně</w>
pos sibly</w>
pochyb nosti</w>
parlamen tů</w>
pa mat
oxi du</w>
ong side</w>
ob vin
nu ta</w>
no ti
nej lépe</w>
nedostat ku</w>
naš emu</w>
mo tions</w>
ma inten
mainten ance</w>
lis h</w>
jud g
jo s
isti c</w>
il ing</w>
histori cal</w>
h dp</w>
fo ot
euro s</w>
confir med</w>
bir th</w>
bi om
at or</w>
al ongside</w>
život ě</w>
čer nomo
č nou</w>
ú nora</w>
záležito stech</w>
zem ního</w>
zau j
zalo žení</w>
wi des
wides pread</w>
vů le</w>
vý hrad
under tak
undertak ings</w>
tel ské</w>
sí tí</w>
sub stance</w>
stanov ené</w>
ship yard</w>
see ks</w>
saz by</w>
respekt ování</w>
r i</w>
pů r
přírod ních</w>
přesvěd čit</w>
práv ům</w>
presid ents</w>
pra g
posky tují</w>
pos sibilities</w>
ovan osti</w>
ob ávám</w>
o znám
o ty</w>
neu tra
ne se</w>
naz ý
mlad é</w>
kto rem</w>
ken ya</w>
hlí žet</w>
genera tions</w>
fore most</w>
enab ling</w>
concentra te</w>
cestov ního</w>
brit ain</w>
bor n</w>
aspe kt</w>
ac qui
ře m</w>
ú zce</w>
zajíma vé</w>
x u</w>
udr žet</w>
tr ž
takov ým</w>
super vision</w>
stou pen
star é</w>
srb ska</w>
s sible</w>
questi on
přij me</w>
překá žek</w>
předcho zího</w>
potě šen</w>
po sel
per cen
oznámen í</w>
op u
odpad u</w>
německ o</w>
ný br
nýbr ž</w>
nábožen ství</w>
ni koliv</w>
negoti ation</w>
mla dí</w>
mis i</w>
main taining</w>
lond ý
lo sses</w>
liber ties</w>
leto š
la stly</w>
la d
l ím</w>
kaž do
k jó
jedin ou</w>
infor mov
in v
in ev
i ted</w>
i dly</w>
ent ní</w>
e le</w>
dlou hou</w>
coura ge</w>
cla im</w>
c ture</w>
c at</w>
brá nit</w>
ban ks</w>
b reak
au gu
analý zu</w>
alli ance</w>
ali st</w>
acce ssible</w>
ac compan
2 1
ě ji</w>
č ování</w>
úlo ha</w>
ú k
záj mem</w>
zbran ě</w>
won der</w>
vš im
vyh razen
va š
událo stí</w>
tero rist
ta jí</w>
ta j
stáva jících</w>
sta y</w>
scru tiny</w>
sc ot
rozši řování</w>
rozu mi
rele ase</w>
před ví
provi ders</w>
pro dlou
pou žívá</w>
poskytov a
podí let</w>
ply nu</w>
ostat ním</w>
op tim
nov ém</w>
ne myslím</w>
navrh la</w>
mus lim
mom ent
mandá tu</w>
li ší</w>
isla mic</w>
il lu
hra je</w>
form al</w>
fe at
expen sive</w>
en ci</w>
em bar
dota ce</w>
di v
determin ed</w>
demonstra ted</w>
d less</w>
condu cted</w>
ce re
campaig ns</w>
big gest</w>
as sure</w>
argu ments</w>
argu men
appro xi
šen é</w>
Španěl sko</w>
úk or</w>
vy hov
vlád ě</w>
ved la</w>
v an</w>
under line</w>
uhlič itého</w>
tori um</w>
th ers</w>
tel nosti</w>
t ka</w>
svět ového</w>
sv ému</w>
sv rch
star ší</w>
stabi lisation</w>
slov ak
ser ved</w>
rozum né</w>
rozhod l</w>
reali zace</w>
re action</w>
rac ism</w>
předmě t</w>
pře ce</w>
prů hled
protoko lu</w>
problemati ku</w>
posti žením</w>
ozbro jen
op pose</w>
okamži ku</w>
non e
none theless</w>
ne mám</w>
ne ch</w>
modi fik
mista ke</w>
join ed</w>
identi fied</w>
he ad
explo itation</w>
elekt rá
dost ali</w>
demokra ti
compul sory</w>
comple ted</w>
che cks</w>
biom as
zásad a</w>
základ u</w>
založen ý</w>
y u
vy pořád
ved lo</w>
užiteč né</w>
un necessary</w>
u lo
ti vi
ta jem
t at</w>
suggesti ons</w>
sugge sted</w>
stá r
stake holders</w>
soukro mého</w>
smal ler</w>
se stav
roz ví
referendu ms</w>
re pr
rap idly</w>
r is</w>
případ u</w>
proje v</w>
pre para
pou žív
podpo řila</w>
po o
plá nů</w>
ofici ální</w>
návr hům</w>
nech at</w>
ne souhlasím</w>
minu te</w>
lá tky</w>
lis ing</w>
konzer va
ko ho</w>
klíč ovým</w>
ka pac
jmen ov
inter cultural</w>
guarante eing</w>
g dp</w>
flo or</w>
expe cta
expecta tions</w>
ent h</w>
druh ů</w>
drin king</w>
deb ating</w>
cre ates</w>
compli cated</w>
commu n
colle ction</w>
c als</w>
b ere</w>
b ak
žá dosti</w>
š paněl
ár ním</w>
zločin u</w>
zahá j
za ční</w>
war ning</w>
war ming</w>
vě nuje</w>
v ac
u přednost
ther lands</w>
taxpay ers</w>
stre ssed</w>
soukro mé</w>
sociál ně</w>
složit é</w>
se min
příšt ích</w>
prospe cts</w>
po znamen
po j
parlamen ty</w>
occa sion</w>
o pozice</w>
německ u</w>
nov ými</w>
nevyhnu telné</w>
ne therlands</w>
mě ří
mě st</w>
lar ger</w>
kontinen tu</w>
kon cem</w>
jak ými</w>
indicat ors</w>
in habit
im pression</w>
gene ticky</w>
fran cii</w>
finan čním</w>
finan cí</w>
fer re
f in</w>
experien ced</w>
elect ronic</w>
egy pt</w>
dis ap
depend ence</w>
da vi
confid ent</w>
bav ení</w>
adver tising</w>
199 9</w>
ří dí</w>
čem u</w>
záru ky</w>
zeměděl ce</w>
zajist ili</w>
vý slov
vý hod</w>
vá le
va rování</w>
under taken</w>
tele vision</w>
stře l
sto cks</w>
spotře by</w>
spor tu</w>
sou bor</w>
sl áv
signific ance</w>
sh ody</w>
sever ní</w>
require ment</w>
rela tively</w>
regula ční</w>
refle cted</w>
reali zovat</w>
připomín ky</w>
pre cise</w>
potře b</w>
potra vin
pomá hat</w>
po ky
ol ent</w>
ná ch</w>
ni mž</w>
ni ght</w>
největ ším</w>
ne hod
ne g
na ději</w>
na děje</w>
mí stech</w>
mi ž</w>
legislativ y</w>
laun ched</w>
l ini
kontro la</w>
kapit álu</w>
ka pacity</w>
jako ž</w>
invol ves</w>
in spi
fore st</w>
ff s</w>
extremis mu</w>
extre me</w>
exten sion</w>
dump ing</w>
du ties</w>
dead line</w>
de set</w>
d ál
d able</w>
ct ors</w>
ch vá
š ily</w>
ří k
če st
zlep šování</w>
zjist it</w>
ze b</w>
zaměst náv
y ou
wor rying</w>
we red</w>
wal dne
vý zev</w>
vzájem ně</w>
využí vají</w>
voj á
vi olent</w>
velk ého</w>
v stup</w>
u mě
u míst
to xi
te prve</w>
stát ních</w>
správ ný</w>
silni ční</w>
sexu ální</w>
set tle
reite rate</w>
referen da</w>
reali z
ra ting</w>
přizpůsob it</w>
požad ovat</w>
pozmě ň
po vě
odůvod nění</w>
od mě
obje m</w>
ob zvlášť</w>
o bez
ná hrad
ni m</w>
nej en
na hrad
na bu
multi lateral</w>
min es</w>
le jší</w>
l le
kře sel</w>
kul tu
kno ws</w>
k les
iná ch</w>
insi st</w>
i </w></w>
gran ted</w>
frien ds</w>
four th</w>
form ou</w>
dru gs</w>
doprav ních</w>
do statek</w>
de pri
da ily</w>
d ous</w>
cho sen</w>
ch o</w>
care ful</w>
c li
bar mě</w>
audi ov
ad a</w>
ac knowled
a ka
1 7
0 ,
č uje</w>
úko ly</w>
á n</w>
za stupu
y us
vzta huje</w>
vymá hání</w>
uznáv á</w>
uz ná
targe ted</w>
ta ci</w>
sú dá
st ov
some what</w>
si lách</w>
satisfac tion</w>
sarko zy</w>
sar yus
s ó
s ly</w>
rybo lov</w>
ry b</w>
regula ted</w>
quot e</w>
promis ed</w>
pro zkou
prak ticky</w>
per pe
o ts</w>
my sle
koneč né</w>
k at
jedno stran
jedno m</w>
is mu</w>
hou rs</w>
gu es</w>
glob álního</w>
fre ight</w>
flexi bili
fir ms</w>
facili ties</w>
expan sion</w>
er ro
edu cational</w>
dě di
dobr ých</w>
difficul ty</w>
compe te</w>
bureaucra cy</w>
budou cích</w>
benefici aries</w>
ambició z
alterna tiv
1 8
še jí</w>
řízen ím</w>
ří kám</w>
where as</w>
vz e
vyz vat</w>
ukáz at</w>
ukrajin a</w>
tu red</w>
tu ji</w>
tor ture</w>
ten tion</w>
sup posed</w>
stá tem</w>
struk tury</w>
sna hu</w>
slovin ské</w>
respe cts</w>
připrav ena</w>
předpo kladu</w>
pur ch
práv ními</w>
prof its</w>
prav dou</w>
považ ujeme</w>
popu lar</w>
plat by</w>
partne rem</w>
para do
orgá nům</w>
opak ovaně</w>
navrh nout</w>
na v
mis sing</w>
m in</w>
m ac
le ch
la bel
l are</w>
kolegy ně</w>
jist otu</w>
jedin á</w>
islá m
investi gation</w>
invest ors</w>
i rani
i ces</w>
hor a</w>
histori i</w>
he ading</w>
finan ced</w>
figu re</w>
fede ral</w>
easi ly</w>
de stru
cor porate</w>
compla ints</w>
co decision</w>
cház íme</w>
ch at
ce te</w>
austri a</w>
am p
allo cation</w>
a ční</w>
3 3</w>
0 .
žá dáme</w>
špat né</w>
šen o</w>
řád né</w>
řeč níka</w>
ál ů</w>
zneči šť
zer tifi
zaměstnan ci</w>
za m
výro ční</w>
vo lič
uspoko ji
určit á</w>
tře ch</w>
trag é
thorou gh</w>
teri o
technologi cký</w>
technologi ckého</w>
star ších</w>
sov i</w>
slovak ia</w>
sen sible</w>
s low</w>
s cen
rá no</w>
rod in</w>
ra n</w>
působ nosti</w>
příno s</w>
před čas
prote ction
prev ence</w>
použí vají</w>
ply nov
os lab
op tions</w>
obec ného</w>
ná sob
ne ar</w>
nabíd nout</w>
ma je
li a</w>
lete ckých</w>
len g
laun ch</w>
kultur u</w>
konkuren ci</w>
kom un
i p
geo grafi
funk ci</w>
fair ly</w>
f a</w>
ex tra</w>
eas es</w>
důklad ně</w>
domá cí</w>
do lo
dis pos
dis eases</w>
dis ease</w>
determin e</w>
de zertifi
de terio
constitu te</w>
constan t</w>
conne cted</w>
bezpeč né</w>
b lin
an ý</w>
absolu te</w>
žit ím</w>
Ře k
čer ven
č a
úlo ze</w>
í rán
Írá n</w>
zim bab
zem bow
začá tkem</w>
zač ali</w>
zaměst nava
zaměst n
win es</w>
vo st</w>
vi děli</w>
v at
u zaví
u vě
tý k
tion ally</w>
tel ných</w>
suver en
subje ktů</w>
spo lé
spar e</w>
součas ných</w>
sor ry</w>
sil ný</w>
scienti sts</w>
satisfac tory</w>
san k
s rozumi
ro me</w>
refor mu</w>
re conciliation</w>
pře kon
pracu jících</w>
pozměňov acího</w>
pow er
potě šením</w>
posel ství</w>
politi ci</w>
podni kům</w>
pipe line</w>
pi ly</w>
par tly</w>
pa ci
ote pl
opatřen ích</w>
odpověd né</w>
ochran ou</w>
oce ňuji</w>
ná růstu</w>
ne existují</w>
nabu cco</w>
n ou
měsí ce</w>
mo ji</w>
jar zembow
interopera bility</w>
harmon ised</w>
gre at
flexi bil
exten ded</w>
e ty</w>
dostateč né</w>
do hledu</w>
dispos al</w>
depen d</w>
deleg ations</w>
decla red</w>
co al</w>
claim s</w>
ce ch</w>
ca tegori
ban ky</w>
an ou</w>
1 50</w>
0 s</w>
šk ody</w>
ň á
ě no</w>
úspěch ů</w>
á no</w>
získ ali</w>
zá leží</w>
znač ný</w>
zi sk
zen ím</w>
yu go
vyvin out</w>
vysok ý</w>
vy stoup
vlád ních</w>
veřej ný</w>
v ého</w>
u ti
tr žní</w>
tel nost</w>
t ch</w>
střed u</w>
streng th</w>
ssi l</w>
secre tary</w>
scho pen</w>
rozsáh lé</w>
repr en
re place</w>
radi cal</w>
r é
příprav u</w>
pří klady</w>
prů mysl
pre -
pracov ním</w>
pořád ku</w>
poplat ků</w>
podnik nout</w>
pod lé
po jištění</w>
pil lar</w>
palest ine</w>
orgá nu</w>
ob jem
o k
nezávis lé</w>
ne musí</w>
měst a</w>
mí nění</w>
mu ž</w>
mu ga
migra ci</w>
mea su
li te
kontro l</w>
ju go
indi e</w>
ho sti
h ry</w>
follow s</w>
focu sed</w>
fo ssil</w>
excep tion</w>
et ni
e ti</w>
e la</w>
domní vá</w>
do or</w>
do kazuje</w>
deman ding</w>
de gra
de ep</w>
d ve
d p
coordin ated</w>
conver gence</w>
contribu ted</w>
cla use</w>
buil dings</w>
autom ob
ar re
approxi mately</w>
anim al</w>
řek li</w>
úto ky</w>
zmí nila</w>
yugo sla
weal th</w>
we ight</w>
w ns</w>
vě cech</w>
vý stav
uplat nit</w>
tu ňá
tick ých</w>
th u
spolu rozhodování</w>
sole ly</w>
rozhod ovat</w>
refer ring</w>
pro násled
pro hla
prior itu</w>
post po
po li</w>
opi um</w>
ně jaký</w>
mlu víme</w>
lo cation</w>
lin ks</w>
li l
le ader
leader ship</w>
jugo sláv
j ům</w>
j ád
i ro
histori e</w>
hear ing</w>
glob álním</w>
fru it</w>
fo sil
fli ghts</w>
fakt ory</w>
ent repren
ele ctoral</w>
dov ed
dodáv ky</w>
diver zi
dis ci
descri bed</w>
ct or</w>
counter -
coun ter</w>
compe tent</w>
cer tification</w>
car rying</w>
believ es</w>
ar med</w>
amp ;</w>
a pri
& amp;</w>
č ného</w>
Čer ná</w>
ú c
zmí n
větš ině</w>
význam ně</w>
vy bí
u spě
tu s</w>
tole ran
su itable</w>
sna ze</w>
serbi an</w>
remain ing</w>
přispí vá</w>
přezku mu</w>
pě tí</w>
prohlá sil</w>
previ ously</w>
prak tické</w>
poslou ch
politování hodné</w>
po mal
ple a
pi ece</w>
ov ě
open ness</w>
obě ma</w>
ob a</w>
ná ku
největ ších</w>
ne arly</w>
nabí ze
mor ální</w>
ma ss</w>
m isti
lar ity</w>
kritéri í</w>
kou p
konfli ktů</w>
kompe ten
k lid
izra el</w>
isra eli</w>
in adequate</w>
hrani ci</w>
foun da
founda tions</w>
f low
ekonomi ckých</w>
důraz ně</w>
druh ého</w>
disci pl
diplom atic</w>
d eri
contro ver
consid ers</w>
compati ble</w>
clari fy</w>
citizen ship</w>
chemi cals</w>
c rop
blí z
atmo sfé
ar ise</w>
ali se</w>
a .m.</w>
2 ,
žen ou</w>
š ili</w>
čen y</w>
účin ky</w>
Ú čet
wom an</w>
vě ří</w>
vyjád řili</w>
vnitrostát ními</w>
vi able</w>
uskuteč ní</w>
under taking</w>
rou tes</w>
reach es</w>
pří jmů</w>
přijí mat</w>
přesvědčen ý</w>
přem ýš
předsed nict
probí ha
princi p</w>
pr us</w>
posled ním</w>
pomá há</w>
poblahopřá l</w>
plea sure</w>
per secu
označ ování</w>
odpověd í</w>
od raz
občan ství</w>
národ ního</w>
ni miž</w>
nes l</w>
mer ke
m lá
li s</w>
li ly</w>
ká zá
jednotli vými</w>
irani an</w>
hra čky</w>
hon our</w>
ho st</w>
fi ka
emphasi sed</w>
ed on
diskutov ali</w>
demografi cké</w>
de me</w>
da ce</w>
cy prus</w>
corbet t</w>
ch rist
ch ap
byrokra cie</w>
bur den
bi later
apri l</w>
ško l</w>
úřad u</w>
účin ný</w>
áv ající</w>
ztrá ty</w>
zohled nit</w>
zneu ží
začá tek</w>
zaměstn ance</w>
vyprac ování</w>
vy rob
vlád ou</w>
té mat
tr vá</w>
tn ém</w>
tn out</w>
tin a</w>
společ ným</w>
sin c
sinc ere</w>
sha pe</w>
s cep
rov ných</w>
rov ané</w>
regret table</w>
prv ního</w>
pre va
pre di
poukáz at</w>
post -
por t
po stupem</w>
pil ot</w>
obyvatel é</w>
ně ná</w>
no body</w>
nejdůležit ějších</w>
nane štěstí</w>
mccreev y</w>
mar ked</w>
m z
m ně</w>
lon i
liv ou</w>
kt ům</w>
krát kod
kov ého</w>
klíč ovou</w>
každ ou</w>
k ter</w>
jin í</w>
inform al</w>
hope fully</w>
hlav ními</w>
hea vy</w>
h s</w>
g ent</w>
exist ujících</w>
eng ag
en tered</w>
dp h</w>
dosáh la</w>
dod at</w>
dobr ého</w>
di kt
dec lare</w>
cust om
cep tion</w>
candi date</w>
ban gla
back ground</w>
an ia</w>
accord ingly</w>
9 .
1 20</w>
úspěch em</w>
Ú če
závě ru</w>
zim ar
zimar ka
zako t
zahá jit</w>
zahrnov at</w>
z volen
y i
vš ude</w>
věd í</w>
vyvíje t</w>
vysl at</w>
uveden o</w>
ur čení</w>
u hlí
tureck u</w>
tradi ční</w>
su rov
st an</w>
restri cted</w>
republi ka</w>
refle cts</w>
re mo
ra ději</w>
přije tím</w>
přijat é</w>
při družení</w>
předsed ou</w>
před nost</w>
pře kro
pu ts</w>
prů mě
propag an
prezi den
portugal sko</w>
opatřen ími</w>
ni a</w>
nejlep ším</w>
negoti ate</w>
necess ity</w>
ne při
navrh ované</w>
na chází</w>
mo tiva
mlu ví</w>
len ě</w>
le vi
le </w></w>
k odi
jos é</w>
jist ý</w>
ir sko</w>
inhabit ants</w>
in sufficient</w>
impli cations</w>
ignor e</w>
hu jící</w>
h l</w>
great ly</w>
for mu</w>
far ming</w>
explan ation</w>
expen se</w>
exist enci</w>
ex pressing</w>
en dea
endea v
eas a</w>
desi rable</w>
dal y</w>
co m</w>
chat zimarka
ch cete</w>
bu ď</w>
bor u</w>
be came</w>
b is
21 st</w>
život ním</w>
ž i</w>
še sti</w>
š anci</w>
čin ů</w>
západ ního</w>
změ nami</w>
zimbab we</w>
zaměřen ých</w>
zamě řuje</w>
z pě
you th</w>
wa ter
vývo zu</w>
usu al</w>
uspořád ání</w>
urč it</w>
uděl ali</w>
ti me
techni ckých</w>
ta bility</w>
st é</w>
st va</w>
spor tov
solidar ita</w>
smě ry</w>
si tes</w>
sh aring</w>
s wi
rozvin ut
reciproc ity</w>
re vised</w>
pů du</w>
přispě je</w>
pě sti
presid ential</w>
prac ování</w>
požad ujeme</w>
poznám ka</w>
posí len
poslan kyně</w>
pol ska</w>
podvod ům</w>
percen tage</w>
oh roz
ná mit
ne poslední</w>
mi le</w>
mean ing</w>
materi als</w>
m nou</w>
let ter</w>
lea ving</w>
le v
kontro lovat</w>
k m</w>
journa lists</w>
join tly</w>
iraq i</w>
insu rance</w>
im prison
hru b
hroz í</w>
hra č
hel ped</w>
gruzi i</w>
fun ded</w>
entrepren eu
energetick á</w>
ed s</w>
dese ti</w>
dea ths</w>
de red</w>
de libera
conside rably</w>
chatzimarka k
celkov ého</w>
bě žné</w>
bro a
blí zk
bat tle</w>
al leg
aktiv it</w>
ak čního</w>
affe cting</w>
aboli tion</w>
aband on
ab sor
0 3
ť mi</w>
červ na</w>
áz d
závaz ku</w>
zdro ji</w>
zapo jen
z hru
zhru ba</w>
vě děli</w>
výbo rech</w>
ví těz
vzájem ného</w>
ved l</w>
vdě čný</w>
ukáz alo</w>
ujist it</w>
u li
tvr zení</w>
to ta
tim or</w>
ti mely</w>
sy n
studi i</w>
stej ná</w>
sed m</w>
sa ve</w>
rozpočtov ý</w>
ro v</w>
regula te</w>
re moved</w>
r </w></w>
quali fied</w>
případ ně</w>
přivít at</w>
přin ést</w>
přezkou mání</w>
představi telé</w>
představi tele</w>
před běž
pr ázd
pa a
paa sil
opat řením</w>
of fering</w>
od hal
obyvatelst vo</w>
obli ged</w>
nedostat ky</w>
n ine</w>
měsí c</w>
lid ové</w>
legitim acy</w>
konzulta ce</w>
konfli kt</w>
interpre tation</w>
infrin gement</w>
hroz bu</w>
hla d
form ální</w>
fi es</w>
f y
en ted</w>
dri ving</w>
dialo gues</w>
demokratick ý</w>
demokratick ou</w>
d voj
ct ory</w>
cor rec
con firm</w>
compe tences</w>
chy bě
centrá lní</w>
blo k
b ö
b arié
6 5</w>
5 5</w>
1 16</w>
čá stech</w>
če ká</w>
úto ků</w>
získ ání</w>
zá zna
zd an
z ra
z ba
vývo z</w>
vysok ého</w>
vydáv ání</w>
vie wed</w>
u pev
trag edy</w>
svobod né</w>
stud ents</w>
stru ggle</w>
sr de
soli d</w>
serva tions</w>
s ports</w>
re ver
re ven
re ve
ra dost</w>
původ ně</w>
přija to</w>
při danou</w>
předpoklá dá</w>
prv kem</w>
potvr d
politick ými</w>
pen sion</w>
otevřen ě</w>
otepl ování</w>
on u</w>
obě ťmi</w>
ob servation</w>
má ch</w>
mal ým</w>
m ým</w>
lu m</w>
logi cké</w>
livo sti</w>
kvali ta</w>
kil ome
katastro f</w>
k ého</w>
k </w></w>
it ou</w>
i re</w>
h romad
g ate</w>
focu sing</w>
far ms</w>
fa st</w>
ev a</w>
dáv at</w>
dolar ů</w>
deseti letí</w>
de tri
consul tations</w>
automobil ový</w>
armé ni
armen ia</w>
anti ci
announ cement</w>
achie vements</w>
Ž ád
čin it</w>
č ích</w>
Čer né</w>
ú mr
á t</w>
Ú stav
závis lost</w>
zámě rem</w>
z prostřed
všeobec ně</w>
výhrad ně</w>
vyžad ovat</w>
vytvo ří</w>
v is</w>
ut most</w>
uni form</w>
tr u</w>
tibe tu</w>
t ini
sub mit</w>
stra tion</w>
sr p
skupin ami</w>
secre t</w>
sch edu
san kce</w>
sa u
rob er
ro ční</w>
přist upo
pěst ování</w>
průmysl ové</w>
prosad it</w>
pri vi
pri or</w>
poštov ní</w>
porozu mění</w>
podrob ně</w>
po zna
po vo
po rov
po ko
pi e
pa ying</w>
p in
osvěd čení</w>
op í
on y</w>
od st</w>
oc it
o či
ně mu</w>
náz o
neu stá
muž i</w>
mlá de
mechanis mu</w>
loy ed</w>
loo ked</w>
konkuren ční</w>
k ta
jak mile</w>
h im
grow ers</w>
go s</w>
ga ze</w>
g y
fi re
ferre ro</w>
fav ou
f lor
eston ia</w>
enhan ced</w>
e ta
dovo zu</w>
de als</w>
d ny</w>
controver si
con ve
ca st</w>
bar cel
ar rest</w>
ar ch
ag gre
ř ských</w>
zvlá d
zpo ždění</w>
zeměděl ská</w>
zdravot ním</w>
zajist ila</w>
za intere
zaintere s
z važ
we b
výjim ky</w>
tu na</w>
tradi tions</w>
tra in</w>
sí ť</w>
stran ou</w>
star ých</w>
společen stvím</w>
sna ha</w>
sezna mu</w>
s děl
rám cové</w>
ro se</w>
reque sts</w>
ratifi kov
přím ých</w>
přija telné</w>
při blí
představ ovat</w>
předsed ů</w>
prof it</w>
pravi dly</w>
pracov i
pozd ě</w>
potenci álu</w>
po v
po bře
plan ts</w>
per si
od vol
mis sions</w>
mandel son</w>
lé mu</w>
lia r</w>
le banon</w>
komisař ce</w>
kole ktivní</w>
klá st</w>
issu ed</w>
inter institutional</w>
inova ční</w>
gradu ally</w>
frequ ently</w>
fik aci</w>
fe jme</w>
el se
ed </w></w>
economi cally</w>
e yes</w>
e ra
dru g</w>
dou fejme</w>
dicta tor
deser ves</w>
dec ent</w>
contro lled</w>
condem n</w>
břez nu</w>
augu st</w>
ad vice</w>
a pe
ů d
ě na</w>
ě n</w>
člen ům</w>
zásad ou</w>
zákon ů</w>
zabý váme</w>
výmě ny</w>
vykon ávat</w>
vyjad řuje</w>
tě stí</w>
trest né</w>
transi tional</w>
trans form
tragi c</w>
territori es</w>
t ání</w>
stre am</w>
sta ro
sad ly</w>
s va
rozpočtov ého</w>
rozhod nutím</w>
rovno cen
regar dless</w>
referen du</w>
při chází</w>
pu sh</w>
protoko l</w>
prohi bi
požád ala</w>
poukáz al</w>
potvr zuje</w>
pos ite</w>
podstat né</w>
ori enta
opa kuji</w>
oby če
o pozi
nut ná</w>
nen áv
ne změ
naš těstí</w>
měst ě</w>
mp s</w>
mar gin
lamas sou
krátkod ob
konzu m
konkrét ním</w>
kaz u</w>
jedno tek</w>
informa čních</w>
hled at</w>
har m</w>
h n</w>
go rous</w>
g ot
fun kce</w>
ful fil
evid ent</w>
equi val
ekonomi ku</w>
dědi ctví</w>
dě lají</w>
dri vers</w>
dost al</w>
dob y
de sig
crop s</w>
civili an</w>
c odi
bu je</w>
ar my</w>
ar m
Řeck o</w>
úrov ních</w>
á n
zvlášt ních</w>
znepoko jen
znalo sti</w>
zapo men
zajišť uje</w>
za sáh
za stá
xenophob ia</w>
wor thy</w>
vý h
vít á</w>
vy chází</w>
ve ch</w>
učin ili</w>
uvědom ujeme</w>
th om
ten s</w>
só cra
super visory</w>
su n
sta ke</w>
sekt or</w>
se as</w>
rámcov ého</w>
rumun ska</w>
repor ted</w>
regar ded</w>
recommen d</w>
recogn ising</w>
re fers</w>
příčin y</w>
příčin ou</w>
pákistá n</w>
prote k
protek cion
projev y</w>
pravidel ně</w>
pozor ně</w>
potvr dit</w>
plat né</w>
pestici de</w>
paliv a</w>
ost rov
odpoví dá</w>
od dělení</w>
occur red</w>
ně která</w>
nes pl
negotia ted</w>
ne sses</w>
navrhova tel</w>
nar ů
nadcháze jících</w>
me ant</w>
lux em
liber ální</w>
label ling</w>
ku rit
i o
hodno ta</w>
fin land</w>
exten ding</w>
every body</w>
else where</w>
disc ards</w>
de serve</w>
biopali va</w>
benefi cial</w>
arm ád
ameri ckých</w>
ak tivi
a ž
ži jeme</w>
še tr
ň ů</w>
část ky</w>
člen em</w>
červ nu</w>
účin nou</w>
úvě rů</w>
ze lené</w>
začí ná</w>
zastá n
vět ším</w>
vo li
učin il</w>
tran sit</w>
tran s</w>
tal ked</w>
symbo l</w>
svě tu</w>
suf fered</w>
stá n</w>
stat ing</w>
soused y</w>
so t
služ bám</w>
slovin ského</w>
s co
remo te</w>
refor mě</w>
ra w</w>
přítom nost</w>
přís nější</w>
pří jem</w>
předklá dá</w>
předcho zí</w>
privi leg
poin ting</w>
po r</w>
po gratu
plá nuje</w>
plat nosti</w>
perfe ctly</w>
or an
op ia</w>
obnov y</w>
ně jakou</w>
ní zké</w>
ní kem</w>
ne budu</w>
na prav
mí rové</w>
moment álně</w>
mlu vím</w>
liv á</w>
li qui
kri min
k ým</w>
k ých</w>
jas nou</w>
it h</w>
ir ing</w>
inten si
ini ti
import antly</w>
im munity</w>
fy zi
foun dation</w>
flexi kurit
extre mist
ex p
en ou</w>
employ ers</w>
dě tem</w>
dost ala</w>
dopad y</w>
dokumen ty</w>
doh led</w>
dlouhodob ého</w>
deba ted</w>
cour ts</w>
correc tions</w>
controversi al</w>
cla ssi
chá p
bri d
bre ak</w>
brazí lií</w>
bor ne</w>
blí zké</w>
be sides</w>
an ne
agen turu</w>
žád oucí</w>
žád at</w>
ť ování</w>
š ilo</w>
ňov ala</w>
ď me</w>
červ ence</w>
če líme</w>
zů stane</w>
zástup ců</w>
znepoko ji
vyvol ává</w>
vyso ká</w>
vstoup í</w>
va jících</w>
v l
uni que</w>
tř emi</w>
ti ly</w>
t ální</w>
succe eded</w>
su m</w>
stej ným</w>
správ ní</w>
správ nou</w>
spotřebitel ských</w>
sol di
slav nost
sil ně</w>
ra mi</w>
předpo kladem</w>
princi py</w>
pracu jeme</w>
povz bud
potrav iny</w>
poli cie</w>
pe m</w>
odstav ci</w>
ná prav
nech ci</w>
mode ls</w>
mo to
ma r</w>
m p</w>
m n</w>
lu cem
lucem bur
lid ským</w>
kur ity</w>
krát ce</w>
jaké koliv</w>
jaké ho
jak ých
j dou</w>
indi cate</w>
in vi
igno red</w>
flexi kurity</w>
fami liar</w>
en shr
ekonomi ckou</w>
e radi
důsled kem</w>
děl í</w>
dě ní</w>
dušev ního</w>
dokon čení</w>
do wn
dire cted</w>
destru ction</w>
de te
de ar</w>
charakter isti
celo světové</w>
c ans</w>
ar ising</w>
ag eing</w>
after noon</w>
19 7
ří kat</w>
čast ěji</w>
é nu</w>
zá klady</w>
zvíř at</w>
zen o</w>
zakot ven
za bí
výrob ní</w>
výjim kou</w>
vstoup it</w>
virranko ski</w>
vio lation</w>
veřej nou</w>
ve s
ukon čit</w>
tě ším</w>
tra vel
ten d
t ské</w>
st ory</w>
sovere ign</w>
s low
rozpočtov ou</w>
revi zi</w>
refor m
redu ctions</w>
re tain</w>
rasi smu</w>
působ í</w>
předlo ženy</w>
pře je</w>
pu tin</w>
prote st
pou kazuje</w>
portugal sku</w>
pod půr
po za
pil ot
peti tions</w>
pe st</w>
otev ře
och rá
obnov u</w>
neg le
mě k
mu čení</w>
me k</w>
may be</w>
mal ý</w>
main tained</w>
luxem bourg</w>
la sting</w>
la cí</w>
kode x</w>
katastro fy</w>
k eni</w>
k ac
ju jící</w>
jedin é</w>
in fe
i mag
ho </w></w>
hi v</w>
gradu al</w>
g m</w>
exten sive</w>
euro stat</w>
elimin ate</w>
eco logical</w>
dí tě</w>
dob ou</w>
de va
de tention</w>
de kla
coun t</w>
communi cations</w>
coher ence</w>
cen é</w>
ca using</w>
c za
c ope</w>
bře men
bas es</w>
b reaches</w>
as ser
amen ded</w>
al ber
5 1</w>
že jí</w>
ů </w></w>
Š pi
ře tí</w>
č ily</w>
č en</w>
zúčast něných</w>
zvlášt ního</w>
zdravot nictví</w>
zat řetí</w>
yor k</w>
will ing
willing ness</w>
where by</w>
w ages</w>
vzni ku</w>
vyu žívá</w>
vysí lání</w>
ved ly</w>
uzav řen
unanim ously</w>
u res</w>
tri ps</w>
tra ck</w>
ti sku</w>
ta ce</w>
systé mem</w>
srov na
součas nou</w>
sociál nímu</w>
skuteč ným</w>
si tion</w>
sev enth</w>
schop ny</w>
sa d</w>
ru ské</w>
rozmanit osti</w>
rov né</w>
rost ou</w>
represen tation</w>
repe ate
repeate dly</w>
re n</w>
re act</w>
r ům</w>
při jít</w>
přeprav u</w>
psy cho
police j
poku s
p ping</w>
oči vid
over -
om lu
o wn
o tive</w>
nor ma
ne byli</w>
navrhu ji</w>
nation als</w>
mi x</w>
mat tel</w>
lo stí</w>
legislativ ních</w>
la y</w>
kon čí</w>
klimatick ých</w>
ju ris
jed ine
inter na
hospodář ským</w>
h la</w>
gi r
funda ment
fre ely</w>
fa ktorem</w>
elek tri
eco fin</w>
dů kaz</w>
dri ve</w>
dom ů</w>
dlu ž
disku s
dela ys</w>
defici t</w>
dal šímu</w>
cou ple</w>
consequ ence</w>
bohat ství</w>
asi an</w>
ange lil
an a</w>
ambi tion</w>
ad visory</w>
4 4</w>
/ ec</w>
ú ro
zpravoda jem</w>
zeměděl skou</w>
zdan ění</w>
zau jmout</w>
zastav ení</w>
z odpovědnosti</w>
výlu čně</w>
vz duš
vin a
uzbe kistá
uzbe kistan</w>
uz n
uni ons</w>
un its</w>
un certainty</w>
třetí ho</w>
tom cza
tisí c</w>
tick ého</w>
t lu
sum mar
stanov ených</w>
sta vět</w>
st o</w>
soukrom ých</w>
sou hr
skil led</w>
sen ding</w>
se ction</w>
se at</w>
schop né</w>
s p</w>
rozpočtov ých</w>
rozmě ru</w>
ro om</w>
pří stupem</w>
před pis</w>
pursu ed</w>
propo jení</w>
princi pu</w>
presen tation</w>
poznám ku</w>
potí že</w>
podí vat</w>
para lle
p a</w>
os m</w>
oprávně ně</w>
op ač
od kaz</w>
ně kterým</w>
nes ou</w>
nedostateč né</w>
měst o</w>
monito rovat</w>
minim álně</w>
li thu
li ban
le rs</w>
la u
la ma</w>
kvalifik ací</w>
koncep ce</w>
kom ent
kapit o
juris di
ji ly</w>
ji l</w>
jedn alo</w>
initia ted</w>
in side</w>
imag ine</w>
hom es</w>
him self</w>
har dly</w>
gran t</w>
ge ous</w>
dé l
doz oru</w>
cto rate</w>
consist ency</w>
ch or
celkov ý</w>
británi e</w>
belgi um</w>
be low</w>
be gan</w>
at </w></w>
ans wered</w>
adjust ment</w>
ac ted</w>
a w</w>
199 4</w>
život ně</w>
škod livé</w>
úrov ní</w>
znám o</w>
zan ed
za řad
z one</w>
ví no</w>
usu ally</w>
svobod ě</w>
sur ro
stu b
stanov ili</w>
standar dů</w>
situ acích</w>
sha res</w>
roz sud
rati fy</w>
pů dě</w>
předlo žených</w>
pře krač
pro -
polo žit</w>
podě kování</w>
perpe tra
per su
ord iná
opra vy</w>
ob tained</w>
na cházejí</w>
n gos</w>
mov ements</w>
min e</w>
migran t</w>
list inu</w>
la tin</w>
kov á</w>
kontro lní</w>
kompromis ní</w>
ko ordiná
justi fication</w>
jin de</w>
ing u</w>
i or</w>
ga ined</w>
g ases</w>
flow s</w>
fe wer</w>
fal ling</w>
every where</w>
estima ted</w>
elektř iny</w>
důstoj nost</w>
dá na</w>
dneš ního</w>
dlouh é</w>
di ed</w>
da v
compar ison</w>
cit livé</w>
c on</w>
byd lení</w>
bod ě</w>
biodi versity</w>
be ls</w>
asy lum</w>
arti cles</w>
analý zy</w>
ali zace</w>
ali ance</w>
adap tation</w>
žen ým</w>
řá d</w>
čís la</w>
ú řad</w>
ä l
znamen alo</w>
zaměřen á</w>
z ujeme</w>
wi de
vytváře jí</w>
vy budovat</w>
undermin e</w>
ukra jiny</w>
ukaza tele</w>
týd ny</w>
tvor by</w>
topi cs</w>
svět ovém</w>
subsequ ently</w>
strán ky</w>
struktu r</w>
srb sku</w>
spo u
smlu v
schengen ského</w>
sa zeb</w>
růz no
refle ction</w>
re vid
ra t
ra ke
příspěv ku</w>
pří kladů</w>
přijat y</w>
pt ance</w>
proportion ate</w>
propo jen
pracov níci</w>
pr vek</w>
poskyt la</w>
podep sá
pa ň</w>
out set</w>
o kra
nástro ji</w>
náro čné</w>
nes rov
nej vyš
necess arily</w>
nan o
men ted</w>
mar tin</w>
li f
la mi</w>
kvali fika
kam paň</w>
inv ite</w>
ic cat</w>
i gh
hla vy</w>
her it
hel p
got ten</w>
fortuna te</w>
fem ale</w>
f en
elimin ation</w>
druh ém</w>
dohod ou</w>
dis par
dis advanta
dep th</w>
demokratick á</w>
defin ice</w>
d in
cu tting</w>
crimin als</w>
comm it</w>
cla ss</w>
celkov ě</w>
categori es</w>
c ot
bý vá</w>
ban kov
an ni
am s</w>
accompan ied</w>
acce ptance</w>
3 2</w>
Žá dám</w>
špat ně</w>
ří kají</w>
ě mi</w>
Če ské</w>
zkušen ost</w>
věnov ána</w>
věde cké</w>
ví z</w>
vod ních</w>
uzav řít</w>
ukáz ala</w>
uh lí</w>
udržitel nosti</w>
to wns</w>
tick ý</w>
teč ní</w>
syner gi
svět ových</w>
surpr ised</w>
statisti ckých</w>
stabili zaci</w>
sov á</w>
směrni cí</w>
smo ke</w>
sk o
sil nou</w>
sed mi</w>
schvá lil</w>
s družení</w>
rodi če</w>
rest ore</w>
repe ated</w>
rela te</w>
pů da</w>
přá tel
přispí vají</w>
předlo ží</w>
pri ze</w>
poč tem</w>
posti žených</w>
polo ž
parlament ních</w>
odpově dět</w>
obě ti</w>
nu ty</w>
nech ce</w>
ne ú
ne přiměřen
ne podařilo</w>
ne js
nation ally</w>
na pětí</w>
mě stech</w>
mz dy</w>
monopo ly</w>
la tin
kra t
itel né</w>
is mus</w>
indi cated</w>
human ity</w>
hlu b
help ful</w>
hand ling</w>
ha mas</w>
h omo
go l
fra gi
for gotten</w>
fe ed</w>
excep tional</w>
ep as</w>
elektro ni
egy p
e ro
dokáz ali</w>
dohod ách</w>
dlou há</w>
dikt á
cí tím</w>
coordin ate</w>
collabo ration</w>
ch ur
celo životního</w>
c larity</w>
c 6</w>
broa der</w>
bi a</w>
ban ned</w>
as ing</w>
a zy
že la</w>
Švéd sko</w>
Španěl sku</w>
ú stní</w>
Účet ního</w>
zúčast ně
zí tře
závaz né</w>
zá jm
zaved ením</w>
za slu
za klá
z ent
wor st</w>
we ak</w>
věz ňů</w>
výbě r</w>
vy ře
vo sti</w>
umož ňují</w>
umož nila</w>
té mat</w>
them atic</w>
th usi
ta w
t íme</w>
stanovi sku</w>
stabili ta</w>
společ nostem</w>
sou těž
sol ved</w>
settle ment</w>
samot ná</w>
s práva</w>
rozhov orů</w>
ro ads</w>
respon ses</w>
regu lari
regi st
radi ca
přírod ní</w>
pří pust
přezku m</w>
přeshrani čních</w>
produc tivity</w>
pro mp
požá ry</w>
počí ta
polov ině</w>
podí váme</w>
podí lu</w>
po mohou</w>
pi cture</w>
paralle l</w>
pa ce</w>
odliš né</w>
ob oh
ně </w></w>
nu to</w>
nov ě</w>
ne vím</w>
nav zájem</w>
n ings</w>
mu nice</w>
mod u
minist r</w>
loo ks</w>
lo s</w>
leta dla</w>
legislativ ního</w>
lamassou re</w>
kontro lou</w>
kon ver
ke ň
jim iž</w>
inter ference</w>
ij ing</w>
hodnot ách</w>
g om
flo ods</w>
fa shi
eu ra
enter ing</w>
ekologi cké</w>
e ti
dvo jí</w>
dosáh lo</w>
dobrovol né</w>
do l
divi ded</w>
di mas</w>
c ovat</w>
blin d</w>
beli ef</w>
be ijing</w>
au to
argumen ty</w>
afgh an</w>
acce le
9 5</w>
3 9</w>
3 8</w>
č an</w>
zvý šila</w>
zvlášt ním</w>
zločin y</w>
zau jí
zahrnu jí</w>
za sta
z opakovat</w>
wel comes</w>
vy sky
vers ary</w>
u bí
trans por
tradi ce</w>
to to
ti cs</w>
tabá ku</w>
ta tive</w>
sym pa
snad no</w>
služ bami</w>
sk rý
sk ep
sil ou</w>
sel hání</w>
schop ností</w>
sa ving</w>
s m</w>
s ligh
s ity</w>
rozum ím</w>
rež im
reál né</w>
resol ving</w>
recogn ises</w>
proportion ality</w>
promo ted</w>
pok le
po řadu</w>
po sta
pan uje</w>
očekáv ám</w>
out standing</w>
ot taw
organ ise</w>
opti mis
op posite</w>
occu pa
ně tí</w>
ně muž</w>
ně me</w>
ně kterými</w>
nej nov
ne zaměstnan
na váz
na slou
na pad
n </w></w>
mora torium</w>
mlu vil</w>
lu jeme</w>
lim it
li tuji</w>
la m
ku ne
kontro ver
kompli k
kode xu</w>
kla si
k h
jedná me</w>
jednomysl ně</w>
ite ms</w>
it ably</w>
is ek</w>
intenzi vní</w>
ing dor
incorpora ted</w>
hovo řím</w>
herit age</w>
gu n</w>
em ed</w>
dí ly</w>
dostup ných</w>
dep loyment</w>
demokratick ého</w>
da mi</w>
cu je</w>
credi ble</w>
continu ous</w>
constitu tes</w>
condem ned</w>
cigare t
ch y</w>
británi i</w>
boun d</w>
bar ingdor
b reach</w>
autom otive</w>
ari ans</w>
ameri cké</w>
201 4</w>
živo ta
ško ly</w>
červen ci</w>
ých </w></w>
zámě r</w>
zi sky</w>
wol ski</w>
w o
vět šího</w>
význam ná</w>
výrob cům</w>
vyrábě t</w>
vi zi</w>
vhod ná</w>
ve red</w>
uvádě ní</w>
u klá
tuňá ka</w>
tr ů</w>
tin a
teroristi cké</w>
tan gible</w>
t ků</w>
suggesti on</w>
stri ke</w>
správ u</w>
sociál ními</w>
sociali sti
sly šet</w>
rumun sku</w>
ru ku</w>
rozhov ory</w>
re ta
pře jeme</w>
pun ish
po c
plen árním</w>
open ha
openha gen</w>
o b</w>
nej bliž
nadcháze jící</w>
na jí</w>
měsí ci</w>
mob i
mo s</w>
messa ges</w>
mechanis mů</w>
lí to</w>
lon i</w>
led nu</w>
kvali fikace</w>
k le
jin ém</w>
jader nou</w>
iz o
it äl
is k</w>
incen tive</w>
in stability</w>
im pera
im pe
globali z
extremis t</w>
dě la</w>
dá ny</w>
draf ting</w>
dra matic</w>
dr žet</w>
dokumen tech</w>
dis cre
d edi
cí lům</w>
cul tures</w>
con tain</w>
commun ist</w>
chor vat
c openhagen</w>
bu da
be k</w>
ar bit
ak cí</w>
affor d</w>
ac tors</w>
7 00</w>
2 50</w>
žen ách</w>
č l</w>
úspěš ná</w>
ó n</w>
zúčast něné</w>
zjev né</w>
za drž
výro čí</w>
výmě tů</w>
více let
vzpo mí
vyz val</w>
vyz nání</w>
vypořád at</w>
vy ba
volič ů</w>
vo řad
vlast ního</w>
val en
us d</w>
ukrajin ě</w>
tu risti
ten d</w>
t ři
st al
st </w></w>
sněmov na</w>
skuteč ná</w>
sk lad
si mil
sav ings</w>
saryus z</w>
sa mo</w>
rozší řen
rozdí lů</w>
respon ding</w>
resid ence</w>
republi kou</w>
regret tably</w>
rec ru
ra pe
příležito stech</w>
příj my</w>
přiz nat</w>
předsed nictvím</w>
pu rely</w>
prospě š
problemati ka</w>
presen ting</w>
pr vořad
pozměňov ac
polo žky</w>
poku s</w>
plod in</w>
palestini ans</w>
p y
p r</w>
oxi de</w>
ovliv nit</w>
offi ces</w>
odva hu</w>
násled ovat</w>
nezby tně</w>
nej rychleji</w>
ne rov
n ers</w>
mě nit</w>
myš lení</w>
mul tina
mc gu
lin gu
like wise</w>
kon ven
kla de</w>
ke pt</w>
impor ters</w>
impor ted</w>
il u
gg ling</w>
ga z
for war
finan čními</w>
fal ls</w>
expli cit
ev i
ekonomi cký</w>
du pli
dri ven</w>
do ty
do ssi
disadvanta ged</w>
dis appe
dee ply</w>
de fe
d ary</w>
cy k
ct i</w>
counter- terrorism</w>
con solid
compara ble</w>
com pu
com position</w>
clu ster</w>
cle an
cen tra</w>
ce l</w>
c b</w>
bo ost</w>
bez prostřed
be re
b ou
anni versary</w>
ali a</w>
agentu r</w>
3 4</w>
ž ně</w>
ž ity</w>
širo ké</w>
ě </w></w>
úko lů</w>
Úmlu vy</w>
zvýšen é</w>
zru šit</w>
způsob ů</w>
zná sil
zd voj
zach ov
za mez
vyu žil</w>
vytvo řili</w>
vytvo řen
vy spě
vy bavení</w>
ve </w></w>
umož nil</w>
tran sm
tab ling</w>
ta pe</w>
sub -
stup ně</w>
stave c</w>
st rop
soldi ers</w>
smě r</w>
slu čitel
ru ce</w>
romad y</w>
renew ed</w>
rec al
ra s</w>
pá sm
práv nických</w>
presid encies</w>
pre li
preli min
point ment</w>
poh led</w>
poby tu</w>
osvěd čených</w>
ori ent
or ům</w>
olympij ských</w>
od stavec</w>
náz vem</w>
nesrov nalo
nejen om</w>
nej chud
ne vi
ne mo
navrh l</w>
naslou ch
na vý
metod a</w>
mean while</w>
mani pu
l om
kvali tě</w>
kr mi
konfli kty</w>
kil led</w>
jmenov itě</w>
jin ou</w>
jak á
jader ných</w>
invest ing</w>
interne tov
ho pes</w>
h in
for mul
flor en
fen om
f as
exper tise</w>
ex changes</w>
eu roz
equival ent</w>
energi es</w>
e x</w>
dí lů</w>
dra w
doh romady</w>
diversi fication</w>
defin ing</w>
davi es</w>
cov ers</w>
conven tional</w>
con go</w>
comb ined</w>
clari fication</w>
chara kter</w>
burden s</w>
alis mu</w>
ak ci</w>
affor dable</w>
accoun tability</w>
a se
9 6</w>
4 .
š ující</w>
š ka</w>
ňov ali</w>
čís lo</w>
čtvr té</w>
Člen ství</w>
účin něji</w>
úprav u</w>
zodpově zení</w>
země pis
zahájen o</w>
zahr nout</w>
za kázá
z přístup
z isk</w>
výslov ně</w>
výkon u</w>
ví nem</w>
vy ko
vy dat</w>
v čas</w>
v čas
under take</w>
tě ho
ty p</w>
tre s</w>
tov i</w>
toto ž
tick á</w>
tick ou</w>
system atic</w>
su spe
stop ped</w>
statisti cké</w>
srde čně</w>
správ ná</w>
sly šel</w>
skvě lou</w>
sho wing</w>
se ly</w>
scot land</w>
schů zce</w>
sau di</w>
s qu
s mus</w>
s lem</w>
s ca
s at</w>
re productive</w>
re pression</w>
r né</w>
r ny</w>
přeru šeno</w>
pře chod</w>
propu štění</w>
profe sion
pro secu
prelimin ary</w>
pol ské</w>
poku sit</w>
podpo rová
pl ing</w>
partne ři</w>
ovan ému</w>
ov y</w>
os praved
oboh ac
objem u</w>
ne zaměstnanosti</w>
na mes</w>
musli m</w>
mezinárod ními</w>
mem oran
man n</w>
mag ne
lá ním</w>
ku s</w>
ku jí</w>
každ ému</w>
k i</w>
judi ci
jmé nu</w>
její mu</w>
jedn ali</w>
ja pan</w>
in vit
im posing</w>
hlou b
g ging</w>
fó rum</w>
fáz e</w>
funk ční</w>
fe a
f it</w>
experi ences</w>
ex pre
ex emp
eng aged</w>
efektiv ně</w>
e pi
du tch</w>
dro g</w>
dota cí</w>
dopad ů</w>
dneš ním</w>
dis agree</w>
di kta
deli vered</w>
de ro
de le
d rob
cuk rov
civi lisation</w>
cen tu
bezpeč ností</w>
b ních</w>
b ed
approach es</w>
apo logi
adul ts</w>
ž al
ě ním</w>
úřad ů</w>
úprav a</w>
získ ala</w>
zam ýš
zají má</w>
za stoupen
z ující</w>
z dokonal
wide ly</w>
wed nes
wednes day</w>
vnitř ních</w>
vil la
učin ila</w>
uvědom uji</w>
uni versity</w>
u trp
utrp ení</w>
u jícímu</w>
tre at</w>
teroristi ckých</w>
tain s</w>
t rou
t g
subsequ ent</w>
střed i
statu tu</w>
sta tions</w>
sov ě
soud nictví</w>
sk and
shod neme</w>
sho wed</w>
ser ving</w>
s w
rychle jší</w>
rom ské</w>
revi ze</w>
represen ting</w>
re ment</w>
přijat á</w>
přesvědčen á</w>
pře sa
prv ních</w>
pou ště
potřeb ám</w>
poplat ky</w>
poo rest</w>
podmín kou</w>
po rod
po krý
play er</w>
paasil in
ospraved l
občan ských</w>
obje ktiv
o gra
nov ému</w>
nezávis lý</w>
ne jedná</w>
nad národní</w>
na hra
n d
mus íte</w>
mobili tu</w>
lo sing</w>
lik vid
less ons</w>
len o</w>
konzulta cí</w>
k allen
kallen ba
k ací</w>
jí mž</w>
jmen ování</w>
irá k</w>
inte li
ima ge</w>
il l
i cal</w>
highligh ts</w>
hel ps</w>
ha má
g daň
fis cal</w>
fede ration</w>
fede ra
exclu sively</w>
even tually</w>
energetick y</w>
důstoj nosti</w>
dosáh ly</w>
dis placed</w>
den ně</w>
debat y</w>
dat um</w>
con ci
christi ans</w>
char ty</w>
blo cks</w>
be lon
be ings</w>
ač koliv</w>
author isation</w>
ale x
afri ckých</w>
ac ade
a led</w>
5 8</w>
žá dostí</w>
ž ší</w>
Čí nu</w>
úče l</w>
úspěch y</w>
ú lov
ú d
ú ct
í cí</w>
á </w></w>
zvyš ovat</w>
způsob ené</w>
zpráv ách</w>
zmír nění</w>
zji ště
z ones</w>
vž dy
vzděláv ací</w>
vyplý vající</w>
vo ters</w>
vnitrostát ním</w>
uzav ře
určen é</w>
tota lit
tlu mo
tion ary</w>
th ro
ter ri
t ých</w>
sí la</w>
surro un
st vo</w>
sov i
soutěž i</w>
sna žili</w>
sin ce
shromažď ování</w>
schvá lit</w>
schop ní</w>
schop ná</w>
safe guar
sa ke</w>
s wit
roz dělen
re serve</w>
re produk
re mov
re af
radi kali
přísluš níků</w>
pří lo
přeprav ě</w>
prospe ct</w>
propor cion
poskyt nutí</w>
poplat níků</w>
plan et</w>
perfe ct</w>
pa cha
o proti</w>
o gen
něj šími</w>
názo rem</w>
nábožen ské</w>
ná me</w>
ne možné</w>
na stal</w>
muse l</w>
multi annual</w>
mar k
manag ing</w>
lo ans</w>
lim a</w>
li by
la cking</w>
l ně</w>
kriti z
kategori e</w>
k vá
k lon
jazy ků</w>
impe tus</w>
i ho</w>
h ám</w>
h ala</w>
globali sed</w>
frank ly</w>
fosil ních</w>
forma tion</w>
fin ish</w>
envis aged</w>
e ling</w>
don u
do g
differ enti
di oxide</w>
den mark</w>
dat ory</w>
da ří</w>
cro a
convi ction</w>
com for
cho ro
ch em</w>
c vi
býval é</w>
bla h
b ad
atmo sphere</w>
ar ance</w>
ab road</w>
5 7</w>
1 2
1 1.
širo kou</w>
š ují</w>
čist ě</w>
Úče tní</w>
zná me</w>
zdravot ních</w>
zamě ř
zabý vali</w>
z ma
z dale
zdale ka</w>
war mly</w>
vůd čí</w>
věnov ala</w>
věd omo
vě děl</w>
výmě nu</w>
vyšet ř
vy vá
vojen ských</w>
ver ze</w>
v ře
v lo
uprchlí ků</w>
udržitel nost</w>
tý kat</w>
to krát</w>
texti le</w>
ten tokrát</w>
t ý</w>
t ování</w>
stanov eny</w>
spad á</w>
since rely</w>
shor t
se as
sac ri
regulari ties</w>
regi ster</w>
regi mes</w>
re pu
radi o</w>
připomně la</w>
při dělen
přezkou m
předpis ech</w>
pře konat</w>
probí hají</w>
prepara tions</w>
poptáv ka</w>
po ta
po jem</w>
po dotk
po chází</w>
perspektiv y</w>
p ped</w>
p n
ov acího</w>
otev řít</w>
omez ování</w>
olympij ské</w>
odpo ledne</w>
občan ská</w>
ob čan</w>
o wing</w>
o par
něme ckého</w>
ně hož</w>
nu t</w>
navrhu jeme</w>
na sazení</w>
n oucí</w>
mur der</w>
modern isation</w>
lo west</w>
le c</w>
l ars</w>
ko st</w>
kin ds</w>
ka zach
justi fy</w>
jak ou
is ite</w>
ir regularities</w>
inf lation</w>
i gra
i ans</w>
humanit ár
hol ds</w>
enab les</w>
en em
en ded</w>
employ ed</w>
důvě ra</w>
doká že</w>
do stávají</w>
do ha</w>
defen ding</w>
de vi
cris es</w>
counter fe
con fron
chy by</w>
ca teg
c tional</w>
bla me</w>
bioply n</w>
bio ci
asi j
appar ently</w>
appar ent</w>
an tu
ad jour
19 6
šet ření</w>
říj nu</w>
ř iz
ček at</w>
če le</w>
úlo hou</w>
Ú stní</w>
zept al</w>
zem ře
začlen it</w>
zač ne</w>
zatí žení</w>
zapo j
work place</w>
wa sh
vě řit</w>
vě nu
vče re
východ ním</w>
výbor ů</w>
vyrov nat</w>
volu me</w>
vo cational</w>
vaš ich</w>
v ence</w>
uved li</w>
uplynu lých</w>
ukrajin ou</w>
témat a</w>
tor ů</w>
to </w></w>
threat ened</w>
ten den
t k
súdá nu</w>
sz p</w>
svobod ně</w>
sub stitu
str ö
sti ck</w>
speci es</w>
sovi et</w>
som ál
sl í
simpli fy</w>
se </w></w>
sacri fi
s né</w>
rozmanit ost</w>
rozdíl né</w>
requ isite</w>
ra ises</w>
r ity</w>
quar ter</w>
přís né</w>
přistupo vat</w>
přeru šil</w>
princip al</w>
pre serve</w>
pra vách</w>
požá rů</w>
pomal u</w>
podrob né</w>
podmí ně
pod pisu</w>
pn r</w>
plat form</w>
pla cement</w>
pestici dy</w>
pat ing</w>
ovliv ňuje</w>
os u</w>
opo mí
od dělen
obran y</w>
n ally</w>
měst ských</w>
me p</w>
mcgu in
la tes</w>
květ nu</w>
kla dech</w>
ke en</w>
ka m</w>
k ři
j šího</w>
j a</w>
integ rity</w>
inte ra
inst al
hroz by</w>
hra jí</w>
hlubo ce</w>
gro wn</w>
g al
fra me</w>
f lu
f low</w>
exer c
ex cise</w>
ensu red</w>
e -
důvěryhod nost</w>
dáv ají</w>
dro p</w>
draf ted</w>
dom a</w>
con sent</w>
commen d</w>
cin ogen
chud ých</w>
chea p</w>
chap ter</w>
chan ne
c ard</w>
an ého</w>
allow ances</w>
adap ted</w>
a u</w>
a c</w>
řad ující</w>
ňov aly</w>
ł aw</w>
če st</w>
č íme</w>
é r
způsob í</w>
znepoko juje</w>
zelen ých</w>
zav ra
z opak
y our
your self</w>
w ind</w>
voleb ním</w>
uži tek</w>
upozor nila</w>
un fortunate</w>
u veřej
u jícími</w>
tel ným</w>
stri ve</w>
strategi cký</w>
stra ch</w>
st it</w>
spoleh livé</w>
soused ních</w>
smě řování</w>
sh ou
sh e
sever in</w>
sen tence</w>
sa úd
s čí
s cre
s .</w>
roz dě
rou te</w>
restri ct</w>
regul arly</w>
re conci
rape x</w>
quanti ties</w>
přev z
předlo žený</w>
průmě ru</w>
provoz ova
problemati ky</w>
požadav ku</w>
posi luje</w>
podstat ně</w>
po mohla</w>
po ci
pla ys</w>
pl ném</w>
peri ods</w>
per mit</w>
per cei
od škod
o la
ola f</w>
o kru
několi krát</w>
náro d</w>
nahrad it</w>
mož ných</w>
mono poli
mimo chodem</w>
mi ch
mani fe
ma k
lod í</w>
lim iting</w>
li vým</w>
leta del</w>
l ome
ká že</w>
kole ktiv
kh stan</w>
kaza khstan</w>
je t</w>
je opar
isti cs</w>
ir ska</w>
inter im</w>
in va
heal th
ha zar
gruzi e</w>
goepe l</w>
gener ální</w>
fundament ally</w>
fra ss
fif th</w>
fail ing</w>
facilita ting</w>
eri al</w>
en ého</w>
dosa hování</w>
dep lo
contribu ting</w>
congratu lating</w>
chod u</w>
c itu
bo dech</w>
bhut to</w>
attra ctive</w>
akcep tovat</w>
abu ses</w>
5 2</w>
3 7</w>
, 5</w>
ži jících</w>
ři di
řed itel
ř ed</w>
ňov al</w>
č nost</w>
ö tter
zó ny</w>
zí t</w>
závě rů</w>
zásad ách</w>
ztrá tu</w>
zer o</w>
zen é</w>
zelen ou</w>
zamě ření</w>
založen á</w>
y ho</w>
vě zni
výbě ru</w>
vz duchu</w>
vyh ý
vnit roz
vnitroz em
vis as</w>
vi ze</w>
veřej ně</w>
ve ssels</w>
uplat ňuje</w>
under lying</w>
udr žení</w>
u teč
tr žit
tn ými</w>
tini ho</w>
ti sation</w>
tack led</w>
t ová
svět ovou</w>
stu r
sta u
soukrom í</w>
sli b
sev ere</w>
se ctions</w>
rá z
rober t</w>
refu se</w>
přítom nosti</w>
přistěhoval ci</w>
připo jit</w>
přev zít</w>
pursu ing</w>
produ cer</w>
pris ing</w>
potřeb ných</w>
potenci ální</w>
polo žil</w>
pokrač ující</w>
pok les</w>
podni ku</w>
pev né</w>
pa ted</w>
p ötter
ou </w></w>
od u</w>
od bo
occupa tional</w>
občan skou</w>
obser ved</w>
náv rat</w>
ná sledek</w>
nu l</w>
nepře tržit
mol dav
migra ční</w>
man že
lithu ania</w>
len a</w>
le one</w>
l at</w>
kon ž
kom er
ka ze
judg ment</w>
jist á</w>
je an</w>
it ím</w>
igno rovat</w>
i ties</w>
hroz bou</w>
hrani cemi</w>
h our</w>
fa ith</w>
exce pt</w>
examin ed</w>
environment álních</w>
enshr ined</w>
efektiv nější</w>
dv ac
dlouhodob ě</w>
di ag
den ied</w>
d žá
constitu ency</w>
chu doba</w>
cho ices</w>
categ ory</w>
c ence</w>
brit ské</w>
blo ck</w>
ay ala</w>
at ors</w>
asse ts</w>
aspe ktech</w>
ara b
ameri cans</w>
ali zaci</w>
alar ming</w>
al bá
ak té
activi sts</w>
absolu tně</w>
ab ilities</w>
8 5</w>
život ních</w>
ž ou</w>
šen y</w>
š ke
ří káme</w>
ř ská</w>
Řek l</w>
ě ných</w>
čem už</w>
č nímu</w>
úto k</w>
znalo stní</w>
zlep ší</w>
ze sí
z ím</w>
z krát
zkrát ka</w>
z ane
wash ing
výhod u</w>
vá na</w>
vzta hovat</w>
vytvo řila</w>
vy ty
vez meme</w>
venezu ela</w>
under stand
umož nilo</w>
uhlí ku</w>
tur bu
tibet an</w>
termí n</w>
tele fon
tan e
substan tially</w>
subje cts</w>
stí novým</w>
strategi ckého</w>
simil arly</w>
se x</w>
schval ování</w>
s dě
rou sly</w>
ro ad
resul ted</w>
reali sed</w>
re stau
příno sem</w>
před cházet</w>
před cháze
proc la
pri ori
pre zent
pova hy</w>
poten tially</w>
posí lí</w>
partici pan
osob a</w>
od váž
od por
obyvatel ům</w>
obnov ení</w>
objev ují</w>
o w
ně ný</w>
ná rok</w>
nejdůležit ějším</w>
nedo šlo</w>
ne patří</w>
ne kal
má na</w>
muga be</w>
mor tg
mol dov
migran tů</w>
mezi kulturního</w>
mez itím</w>
ma kers</w>
ma ce</w>
m ské</w>
lá rní</w>
ly n
lov á</w>
lou s</w>
lid skými</w>
li vem</w>
lea sed</w>
kon tra
ka men
jader ná</w>
integra te</w>
hod in</w>
ho c</w>
gu el
green s</w>
gra ef
fungu jící</w>
four thly</w>
form álně</w>
flexibili tu</w>
fire arms</w>
financ ovat</w>
fin dings</w>
fa ster</w>
f an
en i
dictator ship</w>
destro yed</w>
del ší</w>
cí mi</w>
con cep
co hn</w>
clo sing</w>
cat ches</w>
ca pa
broad ca
bo l
be long</w>
balk an</w>
b its</w>
assess ments</w>
as sa
ameri ky</w>
ambi tions</w>
am ne
al ban
aka demi
afri ku</w>
a spoň</w>
9 9</w>
8 00</w>
4 1</w>
20 50</w>
žen ého</w>
š lap
ř skou</w>
č nosti</w>
účin ek</w>
účast nit</w>
úpl nou</w>
zásad ně</w>
zá sob</w>
zmí nili</w>
zjednodu šit</w>
zdro j</w>
zač le
zaháj ila</w>
zach rá
z jištění</w>
who le
war m</w>
wa ters</w>
výzkum ných</w>
vý š</w>
vá no
vzni k</w>
vykon at</w>
vy vážený</w>
upozor ňuje</w>
uplat ňují</w>
uni lateral</w>
ukáz aly</w>
udě lal</w>
tren ds</w>
terri ble</w>
te am</w>
takzvan é</w>
t wi
stre sses</w>
stra š
stanov uje</w>
stabili tě</w>
spe ku
sniž ovat</w>
smlu vní</w>
sk ry
sig n
si ght</w>
si c</w>
sev rop
sel l</w>
secu ri
s ale</w>
regu lovat</w>
recei ving</w>
re placed</w>
rap e</w>
radik ální</w>
radica lisation</w>
připrav uje</w>
připomí ná</w>
přem ě
před em</w>
pursu ant</w>
produ ktivní</w>
preced ent</w>
pozná mek</w>
považ ují</w>
poky ny</w>
podmín kami</w>
pochop ení</w>
pla cen
persecu tion</w>
pe king
paasilin na</w>
p ed
ostat ně</w>
organiza cemi</w>
on to</w>
ohrož uje</w>
obrov skou</w>
nejist ot
nane j
nanej výš</w>
nale zení</w>
na vi
my an
mo ther</w>
mi l</w>
mal ta</w>
loň ském</w>
lob by</w>
list ening</w>
le tů</w>
l strö
ku po
konzerva tiv
konstat ovat</w>
klad ně</w>
kapit ál</w>
jak ého</w>
jak koli</w>
inter nationally</w>
integ rované</w>
im igra
hroz ba</w>
histori cké</w>
gir ls</w>
ga me</w>
fore sts</w>
fi rem</w>
fe ktiv
fe eling</w>
fakt orů</w>
exclu ded</w>
excep tions</w>
emphasi ses</w>
emp ty</w>
dostup nost</w>
dost alo</w>
doká žeme</w>
dohod li</w>
diver se</w>
disab ilities</w>
di a
desi red</w>
demonstra tes</w>
de vět</w>
de centrali
dan ý</w>
croa tia</w>
consoli dation</w>
compon ent</w>
civili ans</w>
christ mas</w>
character istics</w>
cha ir</w>
cel ních</w>
capa cities</w>
bulhar sko</w>
bos nia</w>
blah oby
be gun</w>
ba ro
as set</w>
are r</w>
an í</w>
ameri čan
ameri ce</w>
administra tiv
a ten</w>
a soci
život ů</w>
škod a</w>
šen ý</w>
ř is
úst nímu</w>
závaz ná</w>
zátě ž</w>
základ ními</w>
zájm ům</w>
zá ch
způsob it</w>
znepoko jující</w>
z ran
wro c
wroc ław</w>
won der
vývo z
výraz né</w>
vyko řis
vy pu
vy naklá
vy mě
urych lit</w>
une qui
unequi vo
u čitel
trans fers</w>
tran sevrop
tori es</w>
t ních</w>
systema ticky</w>
stár nutí</w>
sto jíme</w>
ssi vely</w>
spotře bní</w>
souhla sil</w>
sol ving</w>
slov ak</w>
sk lá
secon dary</w>
s ite</w>
re leased</w>
qu iry</w>
představi tel</w>
publi cation</w>
prostřed ek</w>
priorit ní</w>
pracu jící</w>
pracov níkům</w>
power ful</w>
potřeb ovat</w>
posu nout</w>
poku sy</w>
penal ties</w>
pat ři
partner ships</w>
para me
okamžit é</w>
odstra ňování</w>
occu r</w>
occu pation</w>
něme cké</w>
nezbyt ný</w>
ne zapomí
na stav
n in</w>
měří tku</w>
moř ské</w>
moderni zace</w>
mich el</w>
mi cro
mer a</w>
me </w></w>
man datory</w>
libera ls</w>
li vější</w>
li p</w>
legitim ní</w>
le té</w>
kri zí</w>
kov ý</w>
koment á
jednodu š
jarzembow ski</w>
interopera bili
inteli gent
in ju
i ze</w>
harmon ogra
gu il
gene rate</w>
fun ctional</w>
feat ure</w>
fashi on</w>
exper t</w>
exist ovala</w>
ent i</w>
effici ently</w>
ed ge</w>
důsled ků</w>
dě j
dé le</w>
dve ře</w>
dosáh ne</w>
dosáh l</w>
dosa vad
dopl nění</w>
domá c
do týká</w>
do há</w>
di vision</w>
di ly</w>
decre ase</w>
deb t</w>
de part
dan gers</w>
conta cts</w>
conclu des</w>
chemi ckých</w>
chemi cal</w>
ce jí</w>
bra t</w>
blo ck
balká ně</w>
b é
avoi ded</w>
assu rance</w>
ambi ce</w>
al ing</w>
air space</w>
adequ ately</w>
ade kvá
ad mit</w>
aboli shed</w>
199 2</w>
žen ami</w>
ř ského</w>
člově ka</w>
úmr tí</w>
ú zké</w>
á tu</w>
zách ran
znač nou</w>
zazně lo</w>
z pracování</w>
whole hear
wat ch</w>
w on</w>
vě dy</w>
ví n</w>
váž íme</w>
vysok ých</w>
vi sible</w>
v ili</w>
turbu lence</w>
tov á</w>
tin u</w>
t ům</w>
sčí tání</w>
stanov ila</w>
standar dis
spe cu
součas ném</w>
sol v
si mul
si lence</w>
shi ft</w>
sha me</w>
sdí lím</w>
schvá lila</w>
sank cí</w>
safegu ards</w>
s pra
roz liš
rovnová ha</w>
rezolu ce</w>
při cházejí</w>
předklá dat</w>
provádě cí</w>
protection ism</w>
promis ing</w>
preven ted</w>
posou dit</w>
politick ém</w>
politi kami</w>
podni k</w>
po zemní</w>
parlament ního</w>
pa desá
p hi
očekáv ají</w>
ov lá
ov a</w>
opětov ně</w>
om lou
odvět vím</w>
odbor níků</w>
o p</w>
ná zev</w>
neu mož
nes sed</w>
ne souhlasíme</w>
ne smě
nation alism</w>
na cházíme</w>
n de
minist ra</w>
me se</w>
man t
m ere</w>
loň ského</w>
list ened</w>
lep ších</w>
le y</w>
komunika čních</w>
každo ročně</w>
kav kazu</w>
ka ra
k un
k lima</w>
k de
j at
investi ční</w>
interven e</w>
intelli gence</w>
h op
gu ti
gu ard</w>
gov ina</w>
fo ster</w>
explo it</w>
energetick ého</w>
en thusi
ekologi ckých</w>
dá n</w>
dota z</w>
dossi er</w>
dospě li</w>
do v</w>
divi de</w>
de sí
dala j
cri ti
conserva tive</w>
cház ím</w>
ch rání</w>
ch e</w>
cere mon
ca ta
be it</w>
basi cally</w>
b i</w>
b ans</w>
b all</w>
availa bility</w>
au ta</w>
amen d</w>
alterna tivní</w>
alkoho l</w>
advo cate</w>
4 6</w>
ži jící</w>
železni ce</w>
řeč níků</w>
úřed níků</w>
účin ných</w>
úvě ry</w>
úko lu</w>
ú no
zů stávají</w>
západ ním</w>
zákon em</w>
zá min
způsob ují</w>
zmi ň
zalo žen</w>
za stává</w>
with draw
wit nessed</w>
wh ite</w>
vyvin u
vypracov ala</w>
vyhlí dky</w>
vy čerp
vy pad
vod ě</w>
vnitrostát ního</w>
vhod ný</w>
veřej ným</w>
verheu gen
uvaž ovat</w>
určit ým</w>
určen ých</w>
unanim ous</w>
těž ko</w>
twi ce</w>
tomcza k</w>
tole rovat</w>
terorist ů</w>
technologi i</w>
teach ers</w>
surroun ding</w>
sugge sts</w>
sta ges</w>
ss ly</w>
soci ally</w>
smo kers</w>
sligh tly</w>
se ctoral</w>
sdí lení</w>
schůz ky</w>
schůz ka</w>
s prav
s car
s an</w>
růz ným</w>
rozvoj ovou</w>
rozhod ne</w>
respe kt</w>
respe cting</w>
remov al</w>
quar ters</w>
quali ties</w>
příprav ků</w>
přijí má</w>
předlo žen</w>
propagan da</w>
proce sy</w>
pota z</w>
polov ina</w>
pod kop
po mě
pe tro
participan ts</w>
par is</w>
pa in
p ád
otevřen á</w>
omezen é</w>
oko lo</w>
ohle dech</w>
odhod lan
od vo
obchod ním</w>
o ec
oec d</w>
ná hod
neleg álnímu</w>
ne vládních</w>
ne příjem
ne mohli</w>
ne moc
ne chtějí</w>
nah raz
nad by
místo předsedo</w>
mu sic</w>
mnoho stran
mista kes</w>
minist ry</w>
m zd
li lo</w>
li cence</w>
l v</w>
ku řá
kov ou</w>
konzu mace</w>
koneč ný</w>
koleg ovi</w>
je v</w>
je ggle</w>
j oh
ip c
infrastruk turu</w>
infra structures</w>
inform ovanost</w>
in land</w>
i f
hrani ční</w>
hazar dous</w>
hat red</w>
harmon ise</w>
ha u
gui de</w>
gro ss</w>
g ů</w>
funda menta
fri day</w>
fin es</w>
fail s</w>
fa va</w>
extra ordinary</w>
engag ement</w>
encoura ges</w>
du m</w>
du cha</w>
dohod nout</w>
dodateč né</w>
dod al</w>
do y
do stane</w>
dis charge</w>
d ering</w>
cul tiva
comb ination</w>
citu ji</w>
ca sh
byrokra cii</w>
bulhar ska</w>
bu jí</w>
asse ssed</w>
analy se</w>
an ci
ag ue</w>
advan ced</w>
accu rate</w>
ab stain
žád ným</w>
žen i</w>
ž </w></w>
Ž eny</w>
ške rou</w>
ě né</w>
čty ř</w>
á ly</w>
zátě že</w>
zvo lit</w>
zprostřed kov
zdra vé</w>
zaruč uje</w>
založen ou</w>
za platit</w>
z pracov
z důvod
y er</w>
xenofob ie</w>
wor ried</w>
wh ene
whene ver</w>
we a
wal lströ
výno su</w>
vá n</w>
vymez ení</w>
vy plá
vy budování</w>
vig net
vignet te</w>
ved eme</w>
ve škerou</w>
v stří
ustanov en
u al</w>
tran z
tra ins</w>
tex tů</w>
termí nu</w>
tab áz
systema tically</w>
su pre
stíž ností</w>
stran ám</w>
stov ky</w>
statu te</w>
statisti k</w>
spokojen i</w>
souhr n
sociali stů</w>
sociali sts</w>
simul tane
sig nature</w>
si ted</w>
shor tage</w>
securi ties</w>
se r</w>
rů stem</w>
rozvinu té</w>
ro ot</w>
resear ch
requ iring</w>
re serves</w>
re ha
ra kov
ra cion
pří čin</w>
pří stupo
překva p
proce ssing</w>
pro mluvit</w>
preziden tem</w>
pres sive</w>
prav di
požád ali</w>
poza dí</w>
povol ání</w>
pou ští</w>
potřeb ný</w>
posil ovat</w>
popu lations</w>
poptáv ky</w>
pla vi
per mitted</w>
per c
perc nt</w>
pas sive</w>
pa ří
pa dem</w>
ov acím</w>
odbor nou</w>
obez ře
ob raz</w>
ní ku</w>
násled kem</w>
náležit ě</w>
nu té</w>
naznač uje</w>
naru šení</w>
naléha vou</w>
monito red</w>
moldov a</w>
modifik ovaných</w>
me to
mal ou</w>
ma fi
list ině</w>
li ve
li sed</w>
květ na</w>
kvalifik ovaných</w>
krát ké</w>
korup ce</w>
kon ala</w>
ki vu</w>
kan ce
k ry
k do
jedn ala</w>
je zd
iso lation</w>
intelli gent</w>
in security</w>
impera tive</w>
im men
i tele</w>
horizon tal</w>
hlasu ji</w>
he avi
h léd
graef e</w>
gh ly</w>
fungu jí</w>
fun ctions</w>
form ed</w>
fore station</w>
finan čně</w>
fi xed</w>
far má
euro vignette</w>
ekonomi k</w>
dy ing</w>
dovo z</w>
dopl nit</w>
do prová
de cou
dan ish</w>
dala i</w>
da tabáz
da m</w>
d va
cí tí</w>
coordin ator</w>
com promises</w>
civil ního</w>
chatzimarkak is</w>
cele bra
candi dates</w>
bu dov</w>
baringdor f</w>
avoi ding</w>
automobil ového</w>
analý za</w>
ali sts</w>
al beit</w>
6 00</w>
2. 5</w>
žád ných</w>
ško lení</w>
š ance</w>
ústav a</w>
úspěš ný</w>
í mu</w>
zře telem</w>
zí ská</w>
zvyš ují</w>
zji šť
zbyteč né</w>
zane ch
z vyk
wor ding</w>
wonder ful</w>
withdraw al</w>
waldne r</w>
wal lis</w>
vůd ce</w>
vznik la</w>
vz bu
vi sited</w>
va lid</w>
uzav řena</w>
us nesen
umí r
u bezpeč
tí t</w>
ti gh
tan no
takov ém</w>
t ého</w>
sty le</w>
stran ách</w>
sta žení</w>
st one</w>
společ nostmi</w>
spojen á</w>
sil ent</w>
sig ns</w>
shor tly</w>
shod li</w>
sed m
safe r</w>
s bě
rozvo jem</w>
rov ali</w>
rov ací</w>
research ers</w>
reje ction</w>
reinfor ced</w>
reci pro
ra f</w>
přím ý</w>
při pra
přes né</w>
přeru šení</w>
před cházející</w>
pákistá n
prode j</w>
pro vádí</w>
pracov ali</w>
posto jů</w>
pomá hají</w>
podob ných</w>
podni cích</w>
po pis
pa r</w>
ovliv ňují</w>
ofici álně</w>
ode z
obnov it</w>
ob serve</w>
německ a</w>
násled ků</w>
nom in
nej me</w>
nabíd ky</w>
na poli
měst ské</w>
médi í</w>
muse ly</w>
multi -
mu š
modi fied</w>
minu lém</w>
ment </w></w>
manufac turing</w>
lear ned</w>
le vnější</w>
kultur ních</w>
komunika ční</w>
kom unity</w>
klíč ový</w>
kance lá
k ist
jí ž</w>
jednotliv ce</w>
izra ele</w>
inev itably</w>
in no
i munity</w>
i ka</w>
fra g
foun ded</w>
form ally</w>
experien cing</w>
every day</w>
evalu ate</w>
elektro nické</w>
ef in</w>
dispar ities</w>
diskus ích</w>
da ta
cyk lu</w>
cre d
con ten
comple tion</w>
comm od
ci ally</w>
cha in</w>
celo životní</w>
ce st</w>
cata strop
ca mps</w>
c over
budou cího</w>
bru tal</w>
bom bs</w>
blu efin</w>
ben az
benaz ir</w>
barro t</w>
auton omy</w>
au t</w>
asse ssing</w>
arbit ra
appreci ation</w>
ap s</w>
amne sty</w>
še ho</w>
čty ř
ú raz
zásad ním</w>
zeměděl ského</w>
za vádí</w>
za o
wholehear tedly</w>
výz vě</w>
vý sky
vál ce</w>
vz dát</w>
vy ho
vní mat</w>
vi dí</w>
va šeho</w>
usnad nění</w>
usi luje</w>
un like</w>
u leh
tý dnech</w>
ty </w></w>
tw enty</w>
turk men
trval é</w>
touris t</w>
ton ight</w>
ti ch
tex ty</w>
tari ff</w>
ste red</w>
sp o</w>
sp ira
souhlas u</w>
som alia</w>
sociali stické</w>
služ bu</w>
si er
schvá len</w>
s cra
rozvin out</w>
reven ue</w>
repor ting</w>
rele van
rela tivně</w>
reha bili
referen ces</w>
re z</w>
re servations</w>
re lu
relu ct
re in
ran ging</w>
qui ck</w>
quanti ty</w>
při jde</w>
přesvěd či
předsed ové</w>
př ene
prv ků</w>
pronásled ování</w>
pravdě podob
pou žit
posto ji</w>
portugal skému</w>
podnika tel
plá nová
očivid ně</w>
osob ám</w>
os ce</w>
origin ally</w>
opera cí</w>
odmít nutí</w>
obvin ění</w>
ob taining</w>
ob o
o to
náro da</w>
noti ce</w>
nezbyt nou</w>
nevyhnu telně</w>
nech á
ne be</w>
na je</w>
mo thers</w>
minist ři</w>
meto d</w>
memoran dum</w>
ma kro
ma ch
lov i</w>
leh ne</w>
legislativ ním</w>
lan ding</w>
koordin ovat</w>
komisař ky</w>
kal las</w>
k ání</w>
judici ary</w>
její mi</w>
jednotliv ců</w>
jan š
j deme</w>
ital ské</w>
inter -
in c
hund red</w>
ho ped</w>
hlas ů</w>
h áme</w>
gu ine
gom es</w>
genera ted</w>
fri end</w>
fre sh</w>
focu ses</w>
flexibil ní</w>
fed er
extremis mus</w>
extre misti
explo ited</w>
ess ence</w>
enhan cing</w>
eng lish</w>
en ri
en </w></w>
ekonomi ckého</w>
dva krát</w>
dra sti
dosa huje</w>
do předu</w>
dlouhodob ou</w>
dispu te</w>
cur ing</w>
cre dit
convin ce</w>
conve y</w>
consist ently</w>
conce ssions</w>
com it
ch ůd
blí že</w>
automob ily</w>
automa tically</w>
ase an</w>
ara bia</w>
ap pal
an dre
am ing</w>
agen ts</w>
abstain ed</w>
4 8</w>
1 25</w>
železni c</w>
ž u</w>
ž as
ško lách</w>
čí st</w>
úče lu</w>
způsob il
zdro jích</w>
zač aly</w>
zapo mně
zajist ily</w>
yugosla via</w>
yi eld</w>
vě dom</w>
výro bek</w>
vý cho
vítěz ství</w>
vyu žív
vy padá</w>
ver zi</w>
ved li</w>
valen ci
uznáv ám</w>
univer zá
umíst ění</w>
udrž ovat</w>
tvor bu</w>
tla kem</w>
tel nější</w>
syner gy</w>
substan tive</w>
střed ně
sti pu
sti on</w>
stej ném</w>
stej ného</w>
spotřebi tel</w>
solidar itě</w>
skuteč ných</w>
skuteč ného</w>
simpli fied</w>
sen tences</w>
se curing</w>
samot ný</w>
samot ného</w>
s lep
reli ef</w>
reali tou</w>
reak cí</w>
re source</w>
re moving</w>
ran t</w>
r ný</w>
příšt ím</w>
příprav a</w>
při šli</w>
přechod u</w>
pou kaz
ponech at</w>
politi ků</w>
poko j
podí ve
podrob nosti</w>
podmín kám</w>
poci ť
plá nu
pl ný</w>
pen ding</w>
partici pating</w>
pa ter
p ů</w>
on line</w>
omezen ý</w>
odsou zení</w>
odpověd ností</w>
odpoví dat</w>
obsa hovat</w>
ob se</w>
o stud
o sm
nízk ými</w>
níz ká</w>
nu tri
nu r
ni čení</w>
nezávis le</w>
nepo chop
ne zaměstnanost</w>
ne mohl</w>
n on</w>
mu že</w>
mo des</w>
live stock</w>
letišt ních</w>
la val</w>
l ými</w>
kriti ku</w>
kon sensus</w>
k ováním</w>
k er
jist oty</w>
jak ém</w>
iz u
inter vence</w>
ini tially</w>
ing ent</w>
incid ent
if rs</w>
hr d
hospodář skému</w>
hospo da
h le</w>
guti ér
gratu luji</w>
genoci de</w>
for ma</w>
far m</w>
explicit ly</w>
ex cu
endor sed</w>
dět mi</w>
du ly</w>
doz or
dod nes</w>
do stan
dlouhodob ý</w>
di stance</w>
deterio ration</w>
demokra té</w>
deleg acích</w>
de voted</w>
cu ts</w>
consolid ate</w>
confu sion</w>
cle arer</w>
civili zace</w>
chu dobou</w>
ch tít</w>
can cer</w>
c f
budouc ím</w>
budouc na</w>
bro wn</w>
bor y</w>
biomas s</w>
auth ors</w>
arre sted</w>
7 8</w>
4 7</w>
ško d</w>
š pi
Švéd sku</w>
Špi dla</w>
řeč níci</w>
čín ské</w>
černomo řské</w>
če hož</w>
Čer ného</w>
ústav ě</w>
ú z
á bi
zásad ami</w>
zá pla
zpravodaj ky</w>
změ nách</w>
zmi ňuje</w>
zbran ěmi</w>
zaved ly</w>
zasta ral
zabezpeč í</w>
za myslet</w>
z ou
vě ro
význam nější</w>
východ u</w>
východ ního</w>
vý kon</w>
vyrábě jí</w>
vyrov náv
vyrov nan
vypracov al</w>
vy hodnocení</w>
vari ety</w>
us u</w>
umož nily</w>
ukon čeno</w>
tribu ná
te st
tak ová
taková to</w>
t ách</w>
t v</w>
svěd čí</w>
sv é
středomo ří</w>
středo africké</w>
stro j
stre ets</w>
str áv
sti </w></w>
správ ě</w>
spotřebitel ské</w>
spojen ým</w>
soula d</w>
smy slu
shar raf</w>
ser bs</w>
scen ari
sa u</w>
s ná
roz dělování</w>
rodi čů</w>
road map</w>
respon d
reinfor cing</w>
ra tional</w>
qu o</w>
při šel</w>
přest at</w>
představ u</w>
předlo žena</w>
pře hodnotit</w>
pun ished</w>
pt ám</w>
problé mech</w>
pro ven</w>
pro cen
priv acy</w>
preven tive</w>
pozi tivním</w>
postup né</w>
podstat ou</w>
po klá
pa ys</w>
pa kist
pa cit</w>
ov ému</w>
orgá nech</w>
ohrož ují</w>
od stu
och otu</w>
ob y</w>
o l</w>
náv ra
nábožen ských</w>
nej nižší</w>
narů sta
muš ara
muse la</w>
mu sharraf</w>
mit ting</w>
mili tar
mi kro
ma ta
m sy</w>
londý ně</w>
lep šího</w>
korup ci</w>
konz ist
konsen su</w>
každoden ní</w>
ka pacit</w>
k k</w>
jmé no</w>
jim ž</w>
jas nější</w>
jakého koli</w>
ja vi
it ted</w>
ist s</w>
ish ing</w>
is land</w>
invi ted</w>
horizon tu</w>
he ro
h mata
fo odstu
fle et</w>
fal len</w>
fa ul
ex em
et nických</w>
erro r</w>
ekonomi ka</w>
e cho</w>
doporuč uji</w>
dif fer</w>
defen ded</w>
dan ých</w>
cultiva tion</w>
cro ss</w>
criti cise</w>
contra ctual</w>
continu ation</w>
conserva tives</w>
compon ents</w>
comit ology</w>
cla uses</w>
cit livých</w>
cháze lo</w>
ca st
c ct
běloru sku</w>
bu ji</w>
blízk ém</w>
bla ck
b 6</w>
auton omi
author ised</w>
assu red</w>
arran gement</w>
anne x</w>
an t
ad vis
ad i
ac compli
199 7</w>
ško lní</w>
ří dí
ře tě
č ilo</w>
úto ku</w>
úc tu</w>
zúčast nit</w>
získ al</w>
zásob y</w>
zná mé</w>
zají m
za va
za se</w>
y ers</w>
x ity</w>
work force</w>
wh at
what so
whatso ever</w>
wa i
vě c
výrob cích</w>
výchov y</w>
vzni ká</w>
vzděláv acích</w>
vz rost
vyvážen é</w>
vysí d
vy řešen
vy v
vrchol né</w>
ver ing</w>
v livem</w>
v ini
uděl ala</w>
tvor bě</w>
transpo sition</w>
tor a</w>
thre sho
th ou
teroris mem</w>
surov in</w>
středomo řské</w>
středně dob
sto rage</w>
stig li
sta in</w>
spotře bu</w>
spo jit</w>
specifi ckých</w>
simpli fying</w>
sear ch</w>
sdí lí</w>
sch al
schal demo
sa les</w>
s bar
růz ná</w>
rych lou</w>
ri sk
resid ents</w>
remain ed</w>
rec ital</w>
reali ties</w>
re turned</w>
re per
re construction</w>
re a</w>
ra dostí</w>
přiná šejí</w>
pře jí</w>
publi c
prokáz at</w>
prohla š
produ ktu</w>
proce sem</w>
pris ons</w>
pra ise</w>
polov inu</w>
pokry te
podmí ne
podepsá na</w>
ple d</w>
pilí ře</w>
peking u</w>
pan ese</w>
p tion</w>
p led
p kk</w>
own ership</w>
ovo ce</w>
otevřen ý</w>
ot ře
op pon
off en
odmít á</w>
obsa žené</w>
obha j
o či</w>
norm ally</w>
ni ci</w>
nepo važ
nejlep ších</w>
ne šťast
ne vládní</w>
navr žené</w>
médi a</w>
mysl íte</w>
mou dr
mode rate</w>
mid -
men tation</w>
manže l
lé tě</w>
lo g
liv ého</w>
li ties</w>
legislativ a</w>
l ního</w>
křesťan ských</w>
ku p
ka mi
jist ot
ji šť
jednoduch é</w>
jedna cím</w>
je gg
ja panese</w>
j uni
itäl ä</w>
ir respective</w>
identi fication</w>
hovo řila</w>
grap hy</w>
gra de</w>
gn ant</w>
glob álních</w>
g mo</w>
g aps</w>
fragi le</w>
examin ation</w>
euroz ó
emer ged</w>
ear th</w>
důkaz y</w>
dě li
doz or</w>
dostateč ný</w>
doplň ujících</w>
dodrž ují</w>
distribu ted</w>
distin gu
dis ability</w>
deb ata</w>
d r</w>
d ni</w>
contribu tes</w>
conside rations</w>
conclu ding</w>
con servation</w>
colle cted</w>
ch er</w>
cen né</w>
cele b
ce stá
ca stigli
by to
bi d</w>
automa ticky</w>
audiov izu
atten d</w>
associ ations</w>
ar ábi
an napoli
agen dy</w>
ad re
ac emi</w>
ab or
ab du
a zer
4 9</w>
199 8</w>
1 2.
žá dají</w>
š ly</w>
ř ka</w>
čist é</w>
čen i</w>
č ným</w>
účast ní</w>
ú mysl
á lem</w>
Ú lo
zá c
zvý šil</w>
zpravodaj ové</w>
změ ní</w>
zmír nit</w>
zločin ů</w>
zaváz aly</w>
zaváz ala</w>
zahrnu ta</w>
z řídit</w>
z vy
z m
we ber</w>
w all</w>
věř itel
věnov ali</w>
vě ze
výzkum né</w>
vý bu
vzni ka
vyz vala</w>
vynalo žit</w>
vykon áv
vyjas nit</w>
vyba ven
vir tu
vešker ých</w>
val o</w>
uspoko jení</w>
uni fied</w>
unemp loyed</w>
ukaza telů</w>
uděl ování</w>
u vidíme</w>
u pí
tře ba
třeba že</w>
týka jícím</w>
týd nů</w>
ture cké</w>
tr y
tisí ci
tis m</w>
tel ka</w>
sú dán
sócra tes</w>
sy ri
suveren ity</w>
surpr ise</w>
suppli ers</w>
success es</w>
stupe ň</w>
struk turu</w>
stra ight</w>
stej ných</w>
sot va</w>
skon čí</w>
sil ná</w>
sho p</w>
shi re</w>
sen ové</w>
se ssions</w>
se ch</w>
schů ze</w>
schvá lili</w>
sa li
s ou</w>
rám c
rov ala</w>
ro ll</w>
ri gorous</w>
re pa
působ it</w>
přízni vé</w>
příspěv ků</w>
přísluš ná</w>
přistoup it</w>
při dě
předpoklá dám</w>
přechod né</w>
progra mech</w>
pro life
pravdě podobné</w>
potě šena</w>
posu zování</w>
posled ního</w>
por no
po ore
poore r</w>
pl ore</w>
ou ts</w>
oprav d
okamži k</w>
odved l</w>
odstav ce</w>
odsou zen
od ha
oba v</w>
ob raz
nez leti
nes por
neighb our</w>
ne potřebujeme</w>
ne podaří</w>
naléha vé</w>
n c
mé nde
mu jící</w>
moun t</w>
mon day</w>
min or</w>
min ent</w>
maxim álního</w>
lé ky</w>
lu ka
lob by
lid ského</w>
lid skou</w>
les ů</w>
law ful</w>
kov i</w>
kontrover zní</w>
kom u</w>
ko loni
klíč ová</w>
k ří
k end</w>
ji mi</w>
jegg le
jakých koli</w>
jaký koli</w>
iz ol
is sion</w>
ir a</w>
her ce
hal y</w>
frat tiniho</w>
expla ined</w>
evrop any</w>
en sures</w>
em oc
důležit osti</w>
dy s</w>
dre am</w>
dost aly</w>
domní vají</w>
dlouh ý</w>
dezertifi kace</w>
deta il
destro y</w>
demonstra tions</w>
demonstra tion</w>
dan ém</w>
cí tit</w>
cro w
critic ised</w>
conta min
con stra
co opera
civi list
ci ous</w>
cháp at</w>
chy stá</w>
ch ot
celkov á</w>
ce pt</w>
bis sau</w>
bezpeč í</w>
b p</w>
aspe ktem</w>
ar má
any way</w>
alber tini</w>
ad ian</w>
ab i
4 2</w>
3 6</w>
201 1</w>
1 /
šir ším</w>
řad ou</w>
čet l</w>
č ném</w>
Čer nomo
ú střední</w>
ú mys
zúčastně nými</w>
zákon né</w>
zjist ili</w>
zhor šení</w>
zdro jům</w>
zby tek</w>
zba vit</w>
zahr nutí</w>
za vá
za pla
za dr
z říd
z em</w>
yor ku</w>
věde ckých</w>
význam ných</w>
výraz ný</w>
vý živ
vysok ým</w>
vyhý b
voli či</w>
vi děl</w>
ver i
vaz by</w>
u čení</w>
u ss
u m
týka jícího</w>
tvr dit</w>
tureck em</w>
tu mn</w>
travel ling</w>
trans atlantic</w>
tragé di
tou ch</w>
ti tle</w>
ti mi
th eme</w>
terro r</w>
te ore
svěd om
stri p</w>
stoup it</w>
sta rost
spor u</w>
spoj uje</w>
smlou vách</w>
si ly</w>
shod a</w>
sever ním</w>
sdí líme</w>
safeguar ding</w>
rozší řením</w>
rov ou</w>
revolu tion</w>
region álního</w>
re sto
re mark</w>
re bel</w>
ra cy</w>
při šla</w>
přeh nan
předví da
pursu it</w>
prost itu
proc lama
pre zen
pravid lo</w>
poško zení</w>
počí naje</w>
počá teční</w>
povin né</w>
po lá
po ho
pa šování</w>
oznám ila</w>
odpově děl</w>
odbor níci</w>
od a</w>
obyče j
obsa hem</w>
objev ily</w>
obje ktivní</w>
o sud</w>
ná hra
no tion</w>
nemo cí</w>
neleg álních</w>
nedáv ných</w>
ne víme</w>
ne stran
ne smysl
nacion ali
myšlen ek</w>
mob ile</w>
mili on</w>
mil len
mean time</w>
mean ing
mc car
maďar sku</w>
lov u</w>
lodě nice</w>
lodě nic</w>
lo ty
lo cated</w>
lis mu</w>
lep ším</w>
le in
la n</w>
ky ni</w>
kvalit ních</w>
kon alo</w>
komuni kace</w>
klíč em</w>
jour ne
jednoduš ší</w>
jazy k</w>
jas ným</w>
j or
it é</w>
isla m</w>
is ual</w>
interne tové</w>
interna li
inform ování</w>
incor porate</w>
il legally</w>
id ance</w>
i mu
hou se
hodno tami</w>
hla sem</w>
her ze
fó ra</w>
f tly</w>
f ana
extremist s</w>
et nické</w>
endeav our</w>
enab led</w>
en ým</w>
en lar
důchod u</w>
du al</w>
dokon čit</w>
do cela</w>
disap pointed</w>
dis h</w>
di stur
depend ency</w>
delibera tely</w>
defin ovat</w>
dedi cated</w>
dec line</w>
dan ého</w>
cí mu</w>
condi tional</w>
comprehen sible</w>
comple xity</w>
ch ý
cestá ch</w>
centu ries</w>
cct b</w>
blu e</w>
ber lí
ber lin</w>
ben dit</w>
audiov isual</w>
au tumn</w>
attemp ting</w>
arri ve</w>
ar gue</w>
an ým</w>
ali sing</w>
ah ti
agentu ře</w>
acade mic</w>
absolu tní</w>
aband on</w>
4 3</w>
ž ku</w>
ří te</w>
ň ovány</w>
čas ový</w>
č nými</w>
Č ast
ústav u</w>
úspor y</w>
Ú řadující</w>
zásob ování</w>
zni čení</w>
zhor šuje</w>
zdokonal ení</w>
zařa zení</w>
zaru čí</w>
zapomen out</w>
zahrnu ty</w>
z vol
z hodnotit</w>
wor sen
whe l
wat son</w>
vědom a</w>
vý raz</w>
ví mi</w>
vál ka</w>
vz nesen
vyu žitím</w>
vyrá bí</w>
vy hodno
voleb ního</w>
vol ně</w>
vo dem</w>
vešker á</w>
veli kost</w>
v ší</w>
učin í</w>
ukáz al</w>
u žší</w>
u ms</w>
trest ní</w>
techni cká</w>
su pr
stup uje</w>
stub b</w>
stri ctly</w>
sti l</w>
spotře ba</w>
souhla sili</w>
sniž uje</w>
sjedno cení</w>
shou l
sexu álního</w>
se kre
scé ně</w>
sch mit
roz prav</w>
ri sty</w>
restri ctive</w>
přispě li</w>
přij meme</w>
představi telů</w>
pásm a</w>
punish ment</w>
publi sh</w>
proporcion ality</w>
promo tes</w>
projev it</w>
pro u
pres sed</w>
pre servation</w>
practi cally</w>
požadav kům</w>
požad ují</w>
pozi tivních</w>
povzbud it</w>
povzbu di
potřeb nou</w>
posto jem</w>
posti žení</w>
poskyt l</w>
podně ty</w>
podně t</w>
podeps ali</w>
po vod
po mohlo</w>
parlia ment
pan -
over whel
opráv něné</w>
odpoví dají</w>
ode hr
ob slu
ně ni</w>
námit ky</w>
náhrad ních</w>
nespráv né</w>
nedostat kem</w>
ne souhlasí</w>
ne schopnost</w>
nation ality</w>
naprav it</w>
n ali</w>
mě ní
mě nového</w>
mož ný</w>
mortg age</w>
mor u</w>
moderni zaci</w>
mo z
mis si
minu lých</w>
mini mali
min ors</w>
mexi co</w>
menš in
me at</w>
lov al</w>
loty š
lin ing</w>
liban onu</w>
letoš ního</w>
lea ves</w>
la pse</w>
la bel</w>
kon fron
komisa řem</w>
kni ha</w>
jurisdi ction</w>
jedná ním</w>
jedno hlas
j džá
inter institucionální</w>
institu ci</w>
in stances</w>
in quiry</w>
in es</w>
i ter</w>
hy dro
hodno tě</w>
hlav ního</w>
herze govina</w>
he sit
h ome
h it</w>
gutiér rez</w>
guel lec</w>
glob ally</w>
g ri
g on
fore ca
fer ti
exist ovaly</w>
execu tive</w>
eli te</w>
děl ali</w>
dí te</w>
dospě t</w>
do stává</w>
do pustit</w>
dis gra
dialo gů</w>
depen ding</w>
demonstra ce</w>
debat u</w>
de pre
d lo</w>
d ity</w>
d den</w>
cross- compliance</w>
con ge
com ings</w>
chi ef</w>
chea per</w>
c u</w>
c </w></w>
břemen o</w>
bá jdžá
block ade</w>
big ger</w>
bezpeč nější</w>
bere me</w>
be et</w>
ba ij
b le
azer baij
ari b
ali zovat</w>
adver se</w>
addre sses</w>
accid ent</w>
a ma
7 7</w>
ř ský</w>
ń sk</w>
če kají</w>
Čast o</w>
účin ného</w>
ú stup
zne mož
znalo st
zem ním</w>
zbý vá</w>
začí nají</w>
zaved la</w>
zaved ena</w>
zajiště na</w>
zabý vají</w>
with draw</w>
weapo n</w>
věze ň
věd ců</w>
výsled kům</w>
váž nou</w>
vysí lá</w>
vy nětí</w>
victi m</w>
velk ými</w>
ved ením</w>
under lined</w>
un g</w>
un de
u šet
u rá
těles né</w>
tvá ř</w>
tur mes</w>
trans atlan
tragé die</w>
tra ce
tisíci letí</w>
thresho ld</w>
texti les</w>
ten ed</w>
t ings</w>
svob o
střel ných</w>
stě ž
strán ce</w>
stre et</w>
stra chu</w>
st ence</w>
spotřebi teli</w>
souvise jí</w>
soud ních</w>
směř ující</w>
smu ggling</w>
simultane ously</w>
short comings</w>
samot ných</w>
roz míst
ro bu
restri cting</w>
repre zen
relation ships</w>
refu sed</w>
re turning</w>
re fra
působ ení</w>
pří kladu</w>
připrav ila</w>
přimě t</w>
při klá
přeh led</w>
předsednict vo</w>
předklá dání</w>
před cházení</w>
pře jít</w>
pře hlí
pře bí
pí še</w>
prolife ration</w>
projev uje</w>
prodlou žení</w>
proclama tion</w>
probíha jící</w>
pro fi
presen ts</w>
pre fer</w>
pr ü
