#version: 0.2
t h
e n
r o
s t
i n
a n
p o
th e</w>
r e
t e
t i
o n
t o</w>
o n</w>
r a
c h</w>
l i
o u
a r
l e
< /
</ w
</w ></w>
a l
o v
o f</w>
i s
e r
l a
o r
i t
n e
a t</w>
an d</w>
p ro
o m
n í</w>
p ř
e d
i s</w>
i n</w>
n o
in g</w>
c h
s e</w>
p r
d e
s k
s i
s e
c e</w>
o d
p e
m en
ti on</w>
o b
n í
t a
a n</w>
s t</w>
l y</w>
j e</w>
e s</w>
v e</w>
b e
n i
te r
o r</w>
n a
c i
s u
n a</w>
h o</w>
v e
d o
a l</w>
i t</w>
th at</w>
l e</w>
a t
a s</w>
á v
l o
m e
en í</w>
c om
ž e</w>
m e</w>
ý ch</w>
b y</w>
po r
c on
o u</w>
j e
z a
i l
b u
r i
th e
h o
e v
m a
c e
á ní</w>
f or</w>
o t
v i
f i
ro p
t s</w>
s po
e u
m o
a c
m ě
w h
b y
v y
e d</w>
t u
p ra
m u
n ě</w>
h a
w e</w>
d i
k ter
ti on
př ed
z á
s a
p ar
t r
m i</w>
p re
men t</w>
v ě
d e</w>
c k
e n</w>
st a
ev rop
ř e
v ý
o p
st i</w>
a d
l d</w>
k on
q u
n é</w>
l u
j í
b e</w>
s o
c i</w>
th is</w>
t o
n á
t y</w>
n ě
ar e</w>
f or
u n
k o
př í
j a
r u
c a
s h
a g
é ho</w>
po d
c ou
c í</w>
pr áv
ro z
c u
en t</w>
e x
eu ro
í m</w>
d u
pr o</w>
l a</w>
i m
com m
k y</w>
evrop sk
j í</w>
te d</w>
no t</w>
ní ch</w>
c o
v o
i ch</w>
ov ání</w>
euro pe
k a
te s</w>
europe an</w>
l i</w>
g i
s ou
g h
ha ve</w>
st i
e r</w>
m in
a s
st á
v á
j ed
ta k
ou ld</w>
w it
pra v
k u
wit h</w>
z e
po li
r e</w>
k om
por t</w>
u ni
tion s</w>
p an
j s
př i
d o</w>
l en
m u</w>
k e
d ě
si on</w>
it y</w>
d a
l á
er s</w>
s ed
r is
er e</w>
ou t</w>
a b
h od
s o</w>
v š
r á
cou n
v í</w>
d y</w>
m í
il l</w>
kter é</w>
v a
kom is
p a
m i
r an
š í</w>
wh ich</w>
w e
comm is
c í
d is
e u</w>
t ě
2 0
f in
k u</w>
jí cí</w>
h la
t e</w>
ov at</w>
g u
f e
k la
v ot
b o
w or
u p
d ů
at e</w>
k e</w>
t ing</w>
n u
ou r</w>
al l</w>
á l
př e
m p
s s</w>
l é
li d
ro v
t u</w>
po s
w ill</w>
h as</w>
j i
re a
no sti</w>
in g
m y</w>
m ar
ý m</w>
h e
t ře
ti v
ti ve</w>
be r</w>
ja k
u je</w>
no st</w>
le d
20 0
z e</w>
t en
m ber</w>
le g
n ov
the r</w>
spo le
si d
l o</w>
k a</w>
se d</w>
t ra
d á
s </w></w>
z a</w>
commis sion</w>
h u</w>
g e
st ra
it u
st e
spole č
js ou</w>
v í
hla s
ní m</w>
f ro
ž it
g ra
v er
poli ti
pre sid
' s</w>
ro ris
te r</w>
před sed
n o</w>
g e</w>
s pe
re s</w>
pr á
o d</w>
f u
a p
al so</w>
sk é</w>
c y</w>
a r</w>
m an
a by</w>
n á</w>
pro b
tr an
ž en
bu t</w>
u p</w>
mu s
b i
t i</w>
ch o
an t</w>
p er
y </w></w>
n y</w>
p u
fro m</w>
n ých</w>
č e
st ř
it s</w>
p l
sh ould</w>
m or
ní ho</w>
c an</w>
c t</w>
min u
j m
gh t</w>
b le</w>
s v
w ould</w>
p la
st an
on e</w>
en t
t í</w>
t é
so ci
mar ke
li ty</w>
jed no
j i</w>
č in
z i
s i</w>
č len
á z
fin an
men ts</w>
st ví</w>
me mber</w>
ř ení</w>
pr i
c t
ř í
le žit
te l
d ing</w>
é m</w>
w a
m on
se e</w>
al ly</w>
l u</w>
d a</w>
komis e</w>
p ů
evropsk é</w>
al e</w>
stř ed
presid ent</w>
i r</w>
b ý
ž i
d s</w>
s er
re port</w>
f un
s s
sta tes</w>
ti es</w>
f a
e f
c es</w>
r y</w>
n áv
tran s
ý mi</w>
qu ot
a tion</w>
s p
zá p
sk ých</w>
m r</w>
in c
de r</w>
a k</w>
te č
vě t
be z
z na
i st
w as</w>
ve l
u s</w>
ob la
v en
minu tes</w>
tion al</w>
quot ;</w>
& quot;</w>
v z
vot e</w>
on s</w>
g o
in for
mor e</w>
m il
in ter
hlas ování</w>
pra c
c o</w>
t om
or g
st í</w>
par la
k ů</w>
be en</w>
c en
s y
vě d
v ed
la tion</w>
i r
pro du
s ob
st ru
marke t</w>
c tion</w>
c al</w>
š ení</w>
v is
á d
jak o</w>
n ý</w>
té to</w>
kla d
m s</w>
bez pe
d ob
by ch</w>
u se</w>
li a
y e
p le
h u
coun ci
t í
t h</w>
ra l</w>
por t
par lia
bu de</w>
z práv
le m</w>
counci l</w>
k ov
uni on</w>
s ch
bezpe č
th ere</w>
t ri
kter á</w>
f o
vi z</w>
pan e</w>
o pe
č ní</w>
ž e
ja k</w>
záp is</w>
the ir</w>
mu st</w>
g re
náv r
š í
vš e
tak é</w>
u r
st ro
se m</w>
vš ak</w>
en ce</w>
i d</w>
t ě</w>
ar d</w>
n i</w>
ř í</w>
p o</w>
n ého</w>
c er
eu rop
no u</w>
ne j
g ro
a k
li ke</w>
bý t</w>
t ý
europ e</w>
ů m</w>
j u
fi r
parlia ment</w>
í me</w>
pro střed
me z
g h</w>
b li
al ko
z áv
im port
d ra
a jící</w>
ar y</w>
dě l
wh at</w>
op at
y ou</w>
cho m</w>
by chom</w>
js me</w>
tře b
ter roris
alko ho
po u
ou s</w>
k ro
s led
no w</w>
u jí</w>
leg is
na š
mo ž
ál ní</w>
in i
the se</w>
od po
the y</w>
stra te
s en
pe op
g en
t ro
stá t
p is
al a</w>
k te
cí ch</w>
z ení</w>
ve r</w>
or i
ope ra
bu d
al i</w>
t y
m an</w>
ver y</w>
v n
j sem</w>
re gu
po ž
m y
o ther</w>
a f
re d</w>
peop le</w>
m no
b or
kter ý</w>
k ing</w>
a d</w>
z en
obla sti</w>
lo gi
st o
re c
h i
předsed ající</w>
ov á
m ů
l ar
b o</w>
wor k</w>
vn it
s it
qu e
su b
opat ření</w>
d r
ot áz
ne ed</w>
ca tion</w>
su p
parla men
le d</w>
ck é</w>
be t
al o
ch an
w i
s l
infor ma
al co
n e</w>
li v
sk u
ac t</w>
om i
pro gra
s om
s itu
ab out</w>
m lé
st itu
mo h
in te
gh ts</w>
z pů
jm é
a u
0 0</w>
v lá
o f
cu r
alco ho
před pis
na tional</w>
dů ležit
v r
tu re</w>
sta v
sh i
re for
ž í
ze m
p ad
uni e</w>
ne w</w>
ap pro
le s</w>
a st
ř en
stá ty</w>
ž ení</w>
sku teč
ti me</w>
v od
su ch</w>
m </w></w>
ve n</w>
import ant</w>
do u</w>
spe ci
pro to</w>
por tu
ne bo</w>
by lo</w>
ro d
ag a
terroris m</w>
l l</w>
e con
b a
pro ti</w>
org an
á m</w>
a su
k ra
d u</w>
f er
de d</w>
c ts</w>
s í
ro u
prac ov
ob č
ri ghts</w>
d al
po z
me asu
t </w></w>
w n</w>
te roris
st up
alcoho l</w>
ta k</w>
spo lu
ov é</w>
ji ž</w>
roz hod
r a</w>
in stitu
tr hu</w>
l ou
f re
ag re
po ku
je me</w>
ve d</w>
mil k</w>
men ta
par ti
jedno t
př i</w>
mu n
en cy</w>
sit ting</w>
si on
obč an
je n</w>
t in
ni t</w>
de m</w>
c is
pod por
l an
or d
mi li
ex ist
spo n
i f</w>
ř e</w>
w ho</w>
t a</w>
s m
th o
con su
za mě
rá m
p e</w>
on ly</w>
m at
k s</w>
de ve
de mo
se s</w>
mus í</w>
j ich</w>
p en
ck ých</w>
re gi
a m
re spon
que sti
mus íme</w>
le p
ca use</w>
pro te
do prav
deve lo
som e</w>
od a
h y</w>
způ sob
je jich</w>
ef fe
d om
č as
i l</w>
trans port</w>
re st
m á</w>
u s
j ší</w>
a li
š ím</w>
vel mi</w>
prob lé
pro je
parlamen tu</w>
zá klad
r ů
r y
measu res</w>
s lu
r it
in ve
c k</w>
by la</w>
ú čin
é mu</w>
y s</w>
r o</w>
poku d</w>
te x
ou n
sk up
si ble</w>
re su
o ch
ho spo
ab le</w>
st u
ov er
d an
ci al</w>
c re
tho se</w>
ni ct
comm it
a re
tri es</w>
man y</w>
j en
vo l
ch </w></w>
c le
st at
e </w></w>
pan í</w>
k á
g y</w>
v y</w>
mě r
c or
vi e
ra z
is su
d y
d ru
t ím</w>
st ran
en ti
coun tries</w>
mez i</w>
200 7</w>
tak e</w>
se l
š tě</w>
so lu
so lid
j in
e ment</w>
com e</w>
ce l
ro b
il a</w>
hospo dá
t or
po in
ty to</w>
j de</w>
e m</w>
be cause</w>
hu man</w>
f ra
b an
qu i
ing s</w>
h ov
ur č
r ing</w>
d ne
b ě
parti cu
p í
ne ž</w>
n u</w>
ležit o
komis a
ř i</w>
vy t
skup in
ro n
k o</w>
hospodá ř
d </w></w>
wi th
strate gi
in st</w>
commis sion
ar i
alkoho lu</w>
aga inst</w>
teroris mu</w>
za sed
ta to</w>
pu bli
d er
a mp
pro ce
o h
cu l
ce d</w>
sa id</w>
il i</w>
al s</w>
we ver</w>
ho wever</w>
c lo
l in
ci ti
ch tě
su re</w>
si l
nov é</w>
ch od
pro pos
legis lation</w>
c tive</w>
z u
wh en</w>
sup port</w>
stan ov
sp ě
sou vis
sk y
me n</w>
a m</w>
zased ání</w>
wa y</w>
tý ka
n ým</w>
m b
gen e
w ere</w>
poli cy</w>
ord in
och ran
no stí</w>
la w</w>
í </w></w>
rám ci</w>
m ov
le t</w>
la r</w>
h ar
commission er</w>
by ly</w>
š en
m á
an ce</w>
ten to</w>
práv ních</w>
n out</w>
n ing</w>
bi lity</w>
v al
solid ar
pr v
e ve</w>
di alo
ag en
ví ce</w>
s in
ro u</w>
opera tion</w>
mun ity</w>
spolu prá
li on</w>
ži vot
z í
w ar
re la
p t</w>
vá m</w>
soci al</w>
po č
po sky
ne s
inc lu
ř ad
mů že</w>
logi sti
an s</w>
t ů</w>
společ en
pod le</w>
l and</w>
en vi
re g
e mp
con cer
citi zen
ze mě
te n</w>
odpo věd
ní mi</w>
n ení</w>
econ omi
ž í</w>
třeb a</w>
s k</w>
resu l
prá v</w>
citizen s</w>
před lo
pre s
ke m</w>
ac tion</w>
vie w</w>
envi ron
de b
z k
pří pad
par t
in k</w>
he m</w>
č ení</w>
u ží
s á
ma ke</w>
a do
při j
c s</w>
a tions</w>
the refor
therefor e</w>
c ra
bu dou</w>
we en</w>
práv ní</w>
k dy
bet ween</w>
t re
s ing
ní </w></w>
hod no
al y</w>
á r
pro to
kla d</w>
ing </w></w>
d od
vel k
po mo
mě li</w>
l ob
jí cích</w>
co operation</w>
mo st</w>
fir st</w>
z ře
l on
d ou
an y</w>
f t</w>
č á
wh ere</w>
r en
předpis ů</w>
lo sti</w>
cou r
re ad
in to</w>
er i
ří zení</w>
m ě</w>
kte ří</w>
ja s
ch to</w>
za ce</w>
v á</w>
ra da</w>
ob i
h al
evropsk á</w>
ce ss
p á
1 0</w>
zá sa
za h
st s</w>
sing le</w>
dis ku
tu r
tom u</w>
d í
č en
z mě
ti ck
t ov
menta l</w>
fi ci
cer ta
be li
1 9
ve l</w>
v ing</w>
sy st
c ted</w>
člen ské</w>
we ll</w>
jed n
is e</w>
develo p
commit te
ra dy</w>
p li
la t
c ri
vše ch
společen ství</w>
s vět
re st</w>
pre ven
od y</w>
na l</w>
kon zu
evropsk ého</w>
th rou
ra p
com munity</w>
z dra
ye ar</w>
ve ře
t ní</w>
prob le
od s</w>
k r
stá le</w>
p lá
m a</w>
di f
cí lem</w>
com pe
tiv es</w>
proto že</w>
k ou</w>
ji st
im ple
economi c</w>
dom ní
od i
l í
ko li
h lá
ch y
an é</w>
a ce</w>
s si
ov er</w>
jmé na</w>
gro up</w>
finan cial</w>
de cis
y ing</w>
th an</w>
questi on</w>
nu tí</w>
l ov
č i</w>
é </w></w>
veře j
tak ov
sy ste
s u</w>
ně ní</w>
l s</w>
d v
cou ld</w>
ar s</w>
tě chto</w>
sou čas
ge t</w>
g over
z d
vý zna
th ink</w>
si g
ser vi
pro vi
e l</w>
decis i
ř it</w>
č ních</w>
u jící</w>
le vel</w>
ho w</w>
ev er
ent ly</w>
a bychom</w>
vy š
un der
to m</w>
ro ri
progra m
ma de</w>
ch i
ze jména</w>
tu ral</w>
tom to</w>
ste j
pod po
po si
m obi
fi cation</w>
do hod
to ho</w>
the m</w>
ka ž
e ven</w>
ri zi
publi c</w>
org á
nu t
vý rob
sá h
solidar ity</w>
je ho</w>
j o
go od</w>
con si
ší ch</w>
tr h</w>
sch op
organ i
or u</w>
ha d</w>
g a
deb ate</w>
z lep
u e</w>
tr y</w>
th re
te ch</w>
read y</w>
př ed</w>
po tře
ado p
ú rov
regu la
ně jší</w>
l </w></w>
k ri
g lob
by l</w>
at ing</w>
th ing</w>
si mp
re m</w>
práv a</w>
sv é</w>
pos sible</w>
ne d</w>
m ž</w>
ka ta
cle ar</w>
v ím</w>
stát ů</w>
ne ed
in ten
ho to</w>
h ere</w>
f on
š it</w>
t vr
ed i
člen ských</w>
vyt vo
to hoto</w>
regi on
om e
ná z
n an
me d</w>
ju st</w>
informa tion</w>
dru h
spo jen
sk ého</w>
prav y</w>
lo w
hal f</w>
cur ity</w>
beli eve</w>
sub je
st e</w>
ná m</w>
im pro
gre e
d en
be ing</w>
ac i</w>
zamě st
z ku
v in
te ch
p an</w>
o m</w>
l ing</w>
vá žen
re as
pou ze</w>
part n
ná stro
k dy</w>
a ch</w>
u ved
tiv ní</w>
se t</w>
re du
ran i
prote ction</w>
ne cess
k now</w>
je ště</w>
do es</w>
dne s</w>
c ing</w>
an i</w>
ag e</w>
te dy</w>
regu lation</w>
pro hlá
politi cal</w>
ob je
ed u
důležit é</w>
se curity</w>
or y</w>
ne m</w>
me mb
kata stro
z vlá
te m</w>
te ly</w>
s práv
l ly</w>
inve st
inc rea
z dů
wor k
ob chod
ko li</w>
k á</w>
gover n
ce </w></w>
z er
u </w></w>
t w
shi p
r ání</w>
pří klad</w>
posky t
my s
kte rou</w>
con tin
zá kon
up lat
p i
ma jí</w>
j ů</w>
g es</w>
ch á
wa ys</w>
všech ny</w>
vnit ro
sk á</w>
pra vi
po třeb
di es</w>
b ot
případ ě</w>
pod ni
ob e
in ci
fi c</w>
committe e</w>
urč it
skupin y</w>
ro ku</w>
rea li
m r
legis la
g ent
d ov
ž ád
ř ád
z vý
ye ars</w>
w rit
v ání</w>
tu to</w>
se m
sa y</w>
roz vo
m is
fu r
di rec
develop ment</w>
č í
vis i
stru k
so b</w>
pí sem
po tí
ne do
issu e</w>
finan ční</w>
e ss</w>
ž it</w>
zře jm
th an
sk u</w>
s měr
roz poč
par t</w>
mili on
kon tro
d la</w>
c lu
vá dě
v ů
v la
ri ght</w>
před stav
poin t</w>
ne x
lid ských</w>
kdy ž</w>
ini ti
b u</w>
ac ce
a men
zá ležito
vý sled
vnitro stát
v ě</w>
s h</w>
rá d</w>
portu g
kaž d
do kon
al ready</w>
un der</w>
mil lion</w>
lo w</w>
evrop ě</w>
v es</w>
s věd
s na
pri or
nex t</w>
in á
ex amp
dal ší</w>
al o</w>
z ne
t ou
ni ce</w>
mlé ka</w>
l ze</w>
f act</w>
úrov ni</w>
trans par
strate gy</w>
st ní</w>
ra te</w>
ma y</w>
h e</w>
fu l</w>
d ly</w>
vnit ř
va ž
v at</w>
throu gh</w>
th ir
t ně</w>
st ate</w>
ori ties</w>
nict ví</w>
li m
he al
h le
š tě
č ně</w>
země děl
zdů raz
vy uží
to o</w>
servi ces</w>
r u</w>
parla ment</w>
p ě
p at
n or
mu ch</w>
m ot
jedno du
de s</w>
d ě</w>
com b
chan ge</w>
as se
š ko
zna men
zem í</w>
with in</w>
to to</w>
tak en</w>
sta te
st ill</w>
situ ation</w>
shi p</w>
por u
dis ast
d re
ch a
bud ou
bet ter</w>
a chi
č ast
tion </w></w>
st up</w>
od vět
necess ary</w>
men t
le s
jmé nem</w>
he l
e le
c ů</w>
be half</w>
u sed</w>
sv ob
ser i
n ými</w>
n ém</w>
ma ti
ka z
eu r</w>
a </w></w>
týka jící</w>
tw o</w>
th ou
le ss</w>
l y</w></w>
en d</w>
am eri
w s</w>
vše ch</w>
te rori
st ri
ry ch
re solu
pr inci
inter nal</w>
in di
im p
b al
záv a
z ná
k va
k ce</w>
demo kra
c al
zpráv a</w>
st ou
poz or
p it
organ is
ně ž</w>
min i
komis i</w>
fu ture</w>
eu res</w>
compe ti
ci es</w>
a lity</w>
Ř e
wh y</w>
t oda
toda y</w>
pro po
pre sen
particu lar</w>
or der</w>
na příklad</w>
kon e
k lá
com pan
are a</w>
ň ov
č í</w>
á ch</w>
vý bor
rozhod nutí</w>
ro ve
návr h</w>
ni c</w>
m .</w>
lid í</w>
k no
hla v
effe ctive</w>
c ally</w>
st áv
souvis losti</w>
si bility</w>
ou r
na vr
gent le
demo cra
co ž</w>
wh e
stej ně</w>
sa mo
ob sa
examp le</w>
evropsk ý</w>
d áv
co l
ch ž</w>
au th
ru les</w>
rove ň</w>
před ev
l ení</w>
ha p
cur r
bě hem</w>
š k
ú lo
záv ě
w ant</w>
předev ším</w>
prob lem</w>
odi fi
mů že
my sl
m es</w>
is t</w>
inter national</w>
h y
e kon
da y</w>
comm on</w>
chtě l</w>
. m.</w>
u ji</w>
se ct
po sti
or s</w>
ná klad
mě la</w>
mp tion</w>
la dies</w>
l od
gentle men</w>
d it</w>
b í
uni i</w>
odvět ví</w>
li t</w>
b en
ar ly</w>
an al
w ho
stru c
rů z
ro le</w>
ro ce</w>
prostřed í</w>
pod ob
n y
mí n
ekon omi
potře bu
o wn</w>
ne bezpeč
leg al</w>
h ů</w>
emp lo
consu mption</w>
bot h</w>
as pe
agre ement</w>
200 5</w>
za ci</w>
z ni
the n</w>
sin ce</w>
sa me</w>
politi ky</w>
partn er
me r</w>
m edi
do ku
1 2</w>
re spe
pá nové</w>
presid ency</w>
po zi
ne z
l é</w>
h a</w>
coun try</w>
c ar
u m</w>
thir d</w>
per i
návr hy</w>
in de
adop ted</w>
0 00</w>
z at
u r</w>
rod ní</w>
p l</w>
ne bo
fi ght</w>
evropsk ých</w>
dá my</w>
ck s</w>
be z</w>
ac í</w>
zaměst nan
potí rání</w>
o sti</w>
la st</w>
imp act</w>
dá le</w>
con clu
b ro
a ir
1 3</w>
work ers</w>
tex t</w>
s ní
předsed nictví</w>
pe r</w>
ní ků</w>
ny ní</w>
kon kr
dis cu
ar ds</w>
č er
výbor u</w>
ste ch</w>
st o</w>
předpis y</w>
produ cts</w>
pr ů
p ac
ov an
lar ly</w>
ini ci
heal th</w>
domní vám</w>
do sa
de l</w>
u jeme</w>
soci ální</w>
ná s</w>
mí t</w>
me chan
jí cí
e s</w></w>
d lou
zřejm ě</w>
we l
vi l</w>
uplat ň
společ nosti</w>
re qui
pos lan
pla ce</w>
otáz ky</w>
m lu
lo o
konkr é
in stru
g er</w>
fer ence</w>
doprav y</w>
člen sk
í ch</w>
vy j
sl ov
sa fe
propos al</w>
proce ss</w>
proble ms</w>
oh led
naš e</w>
mon it
m ého</w>
h er
f e</w>
en er
d í</w>
a st</w>
2 0</w>
1 5</w>
spoluprá ci</w>
ra di
o v</w>
nebo ť</w>
m la
k rá
k do</w>
f ac
e sta
ch áz
c ím</w>
bu r
zpráv y</w>
z prav
y ment</w>
věd om
than k</w>
t ly</w>
sa tion</w>
rov něž</w>
particu larly</w>
obe c
ně koli
need s</w>
mno ho</w>
it e</w>
initi a
fur ther</w>
e m
dialo gu
de leg
certa in</w>
u es</w>
struk tu
spoluprá ce</w>
sect or</w>
ná sled
ne u
na d
může me</w>
ba sed</w>
b ar
amen d
a ž</w>
záv is
sm lou
propos als</w>
o te
mu s</w>
lod ě
is h</w>
institu tions</w>
g n
esta bli
ef fici
e t
ca se</w>
b lo
are as</w>
af ter</w>
ře k
zem ě</w>
wor ld</w>
vz ta
ship y
resul ts</w>
prohlá šení</w>
mez iná
komisa ři</w>
inici a
gro w
go ods</w>
fun da
` `</w>
Ře ck
zprav oda
v a</w>
th er
soci ál
s c
prac ti
op en
lon g</w>
l á</w>
katastro f
je m</w>
inte gra
200 6</w>
ř i
re ce
pří m
program me</w>
mě ly</w>
mechan is
kter ých</w>
jedn ání</w>
hov o
hi gh</w>
dob ě</w>
do sáh
v é
st ar
samo zřejmě</w>
dů sled
chá ze
pos led
portug al
pa ra
má me</w>
com ple
ck ého</w>
zá j
zpráv ě</w>
s sion</w>
po važ
op portu
o l
moh ou</w>
l ta
ko ordin
ho pe</w>
econ om
d ri
' '</w>
zna č
z jednodu
x i
ve li
u kon
tri bu
syste m</w>
sk o</w>
se con
rap por
li s
konzu ma
k áz
je jí</w>
i d
gree ce</w>
gene ral</w>
com mu
co ordin
an ti
2 5</w>
1 6</w>
základ ě</w>
za bý
ti c</w>
s ho
ro us</w>
proje k
pro c
po stup
nict vím</w>
min ist
li be
g o</w>
con di
c rea
at a</w>
appro pri
zk ou
zdra vot
tre at
subje ct</w>
stan ce</w>
speci ally</w>
s lo
ro k</w>
rappor te
qu ality</w>
pro gre
podpor u</w>
pan a</w>
me ans</w>
ma in
logisti cs</w>
li t
i a</w>
h ou
fi res</w>
cour se</w>
cen tra
za bezpeč
z da</w>
vá ž
uni ted</w>
sch vá
pro st
pres ent</w>
odpo vě
issu es</w>
inclu ding</w>
i </w></w>
fu lly</w>
en sure</w>
e specially</w>
c ti
budou c
1 1</w>
un d</w>
ta l</w>
su m
situ ace</w>
s a</w>
ra ge</w>
prostřed nictvím</w>
por ts</w>
nes ení</w>
mož né</w>
m ers</w>
la b
inte rest</w>
for e</w>
enti al</w>
če k
y oun
v ari
v al</w>
us nesení</w>
u mož
st </w></w>
sel f</w>
om o
naš ich</w>
ma in</w>
m ů</w>
har mon
econom y</w>
du ring</w>
bu il
bu de
agen tu
ů </w></w>
w er</w>
vy h
v če
t al
při po
pož ár
posti žen
po chy
of fi
o </w></w>
marke ts</w>
jednot ného</w>
it u</w>
is h
increa se</w>
in a</w>
evrop y</w>
de ser
c ení</w>
be fore</w>
b il
at ta
a jí</w>
y our</w>
sou hlas
pří ležito
per s
o sob
ně j
ma j
lin e</w>
in e</w>
fun ds</w>
fre e</w>
environ ment</w>
direc tive</w>
d ní</w>
vět ší</w>
u dr
tel né</w>
shipy ard</w>
ru le</w>
rece i
pří š
pož ad
mě l</w>
le n</w>
fre ed
f le
con tro
commu ni
bud get</w>
ap pli
ab i
zá roveň</w>
youn g</w>
whe ther</w>
sti ce</w>
s pa
rapporte ur</w>
pri v
poz mě
p le</w>
o c
mobi lity</w>
mat ter</w>
g da
dou f
do cu
af fe
ře šení</w>
ň uje</w>
thre e</w>
pro vádě
pomo c</w>
p .m.</w>
ote v
ne k</w>
n al
man ag
gre at</w>
en ces</w>
con tribu
5 0</w>
ví t
vy so
tick y</w>
ti fi
st a</w>
sou kro
se e
sa z
resolu tion</w>
re al</w>
písem ně</w>
pou ží
po kro
na ší</w>
m al
ke y</w>
k </w></w>
in tro
i ght</w>
hi gh
decisi on</w>
d i</w>
ck á</w>
š e</w>
ú to
vi ous</w>
v o</w>
ter s</w>
sou r
ra tion</w>
náz oru</w>
n </w></w>
lid é</w>
k li
jo in
govern ment</w>
f i</w>
ever y
e ss
disast ers</w>
de ch</w>
c ris
b as
zpráv u</w>
w ard</w>
vče tně</w>
ven tion</w>
tech ni
su c
strategi e</w>
reg ard</w>
questi ons</w>
při prav
progre ss</w>
po ten
p ř</w>
od bor
nu mber</w>
memb ers</w>
kon ku
i de
gi ven</w>
fo l
evrop a</w>
en ess</w>
dr in
doku men
d ent</w>
col le
b on</w>
b on
a mon
200 8</w>
ú řad
ú spě
áv ání</w>
význa m
vyj ád
st u</w>
pří stup</w>
po d</w>
milion ů</w>
kva li
kra č
intro du
i m</w>
hel p</w>
e se</w>
druh é</w>
di re
condi tions</w>
c n
ben ef
asse ss
ag ri
č it</w>
za ved
ye t</w>
tra de</w>
ta b
stou p
spo tře
slu ž
simp li
pu t</w>
prá ce</w>
ob ě
n s</w>
n on
menta tion</w>
h is</w>
gi ve</w>
fra me
ex ce
ar u
zvlá š
va jí</w>
treat y</w>
stan d
safe ty</w>
ris k</w>
potřebu jeme</w>
ní mu</w>
m é
in vol
dů vod
do lar
ck ý</w>
at ten
appro ach</w>
with out</w>
vé st</w>
vážen ý</w>
thou gh</w>
skuteč ně</w>
s ly</w>
s cho
pře prav
př is
práv ě</w>
pe d</w>
p s</w>
občan ů</w>
ni l</w>
mr s</w>
ma king</w>
le </w></w>
in fra
ho </w></w>
funda mental</w>
fro n
f ran
f ar
evropsk ou</w>
dif fer
dan ge
da m</w>
cris is</w>
cen tr
bude me</w>
řek l</w>
ta in
sk a</w>
seri ous</w>
respon sibility</w>
priv ate</w>
pod ě
ová ny</w>
orgá ny</w>
o st</w>
ne t
ne jen</w>
imple mentation</w>
il o</w>
grow th</w>
dod r
com men
ci e</w>
b ac
ý ch</w></w>
zd ro
za po
z i</w>
writ ing</w>
v an
terori sti
t k
ra li
prá ci</w>
p lo
ov ali</w>
návr hu</w>
nal é
ma dam</w>
m od
li ties</w>
ko leg
i ch
fi e
exist uje</w>
ever y</w>
establi sh
ed </w></w>
dif fi
d á</w>
clo sed</w>
c tions</w>
c la
c a</w>
bas is</w>
ac coun
č e</w>
způsob em</w>
z mí
sk ou</w>
r i</w>
při jí
předsed a</w>
produ ction</w>
p ly</w>
ob dob
o ček
ni ž
na bí
n ému</w>
m c
ka m
j ení</w>
i le</w>
g er
frame work</w>
en ts</w>
e t</w>
do pl
dange rous</w>
concer ning</w>
ch e
ce la</w>
anal y
a id</w>
č lá
wh ile</w>
tion ed</w>
spotře bi
sh or
r </w></w>
pře svěd
produ k
pla t
lo u</w>
je jí
inte rest
i g
e c</w>
d one</w>
ci on
certa in
b er
auth orities</w>
an other</w>
amp ;</w>
al </w></w>
agri cul
& amp;</w>
ú vě
vš ich
všich ni</w>
vy z
va i
ti fication</w>
stá t</w>
speci fic</w>
si ons</w>
roz prav
re view</w>
re presen
kro mě</w>
jednot liv
j ste</w>
h roz
h rani
go ing</w>
fun d</w>
děl ení</w>
do wn</w>
diffi cul
ci vil</w>
c b</w>
z cela</w>
sk ý</w>
s mě
s an
prv ní</w>
p as
mini stra
men tioned</w>
la t</w>
jed in
inicia tiv
hodno cení</w>
ex tre
emplo yment</w>
ck ou</w>
ad ministra
že b</w>
wor king</w>
wel come</w>
vz děl
vyš ší</w>
visi on</w>
te l</w>
st ren
soci e
re ch</w>
představ uje</w>
problé m</w>
pre vious</w>
ov á</w>
ochran u</w>
mysl ím</w>
mat u</w>
g ed</w>
finan c
f ar</w>
dů vě
c lim
c an
bezpeč nost</w>
a bu
záležito sti</w>
z de</w>
who le</w>
vě cí</w>
v ž
ter m</w>
sv ých</w>
slu žeb</w>
respe ct</w>
ra ble</w>
prav omo
po krač
pl an
ov ých</w>
nov u</w>
n ů</w>
mé ně</w>
l í</w>
k lí
import ance</w>
ho d</w>
g rea
fo re
dialogu e</w>
cour t</w>
bil lion</w>
atten tion</w>
aga in</w>
ú da
vot ing</w>
vnitrostát ní</w>
te le</w>
te k</w>
sour ces</w>
se qu
se cu
resul t</w>
re ly</w>
pří pa
prostřed ky</w>
po če
ou t
organi zace</w>
op ini
o s
i es</w>
f er</w>
dodr ž
docu ments</w>
cház í</w>
b ru
agre e</w>
a mi</w>
19 9
čin nosti</w>
úlo hu</w>
za č
vari ous</w>
t é</w>
t ting</w>
stren g
společ nost</w>
souvis e
r ů</w>
pro č</w>
pracov ní</w>
pla n</w>
o l</w>
na tural</w>
mys lu</w>
mlé ko</w>
jm out</w>
in du
h ist
g u</w>
f r</w>
di e</w>
di d</w>
deser tification</w>
clim ate</w>
cle arly</w>
bezpeč nosti</w>
amon g</w>
a však</w>
znamen á</w>
zlep šení</w>
zah á
terroris t</w>
tak ing</w>
t le</w>
t ent</w>
stran y</w>
sti c</w>
sou čá
směr nice</w>
rec ent</w>
re commen
předlo žení</w>
provi de</w>
progra m</w>
pož á
pod í
maj or</w>
m at</w>
k é</w>
join t</w>
de zer
chtě la</w>
bo j</w>
ad di
zákon od
vz ni
veli ce</w>
tý ká</w>
ter ms</w>
svob od
su d</w>
si de</w>
s ing</w>
recei ved</w>
proc edu
posi tion</w>
pomo ci</w>
obdob í</w>
ně kterých</w>
ni chž</w>
me m</w>
me </w></w>
k de</w>
gu ar
er ship</w>
de fin
d ne</w>
by t
as k</w>
zákonod ár
vý z
v i</w>
v hod
tí ch</w>
sh are</w>
s le
rů st</w>
ro ad</w>
ou sly</w>
offi ce</w>
odifi kov
o sob</w>
mla d
manag ement</w>
legisla tive</w>
kla dy</w>
k ům</w>
k on</w>
imple men
h en
fin ally</w>
fie ld</w>
fa v
e l
e ar
dezer tifi
d ers</w>
bu l
záva z
vnitř ní</w>
vai la
u za
to ge
toge ther</w>
t or</w>
sv ou</w>
su f
sta teč
součas né</w>
so l
si ve</w>
roz ší
pu r
oček áv
ová ním</w>
of ten</w>
mobi li
mno ž
mlé č
loo k</w>
environ mental</w>
decisi ons</w>
d ro
d ence</w>
con tra
ch al
at </w></w>
an s
a vaila
z u</w>
vž dy</w>
vytvo ření</w>
v li
ss ing</w>
s is</w>
respon se</w>
pod mín
ov e
nut né</w>
mě lo</w>
mno h
meziná rodní</w>
m to</w>
konku ren
in y</w>
for ward</w>
fi re</w>
do poru
d ů</w>
compan y</w>
b rá
agen da</w>
ž á
w om
vý vo
ve ly</w>
tor s</w>
ti l</w>
syst ém</w>
stá tech</w>
stro n
st y</w>
skuteč nosti</w>
sil í</w>
rest ri
přij at
progra mu</w>
pozmě ňov
po vin
návr hů</w>
náklad ní</w>
ne jsou</w>
low ing</w>
inc reas
in d</w>
impro ve</w>
ess ential</w>
dou b
coun ter
competi tion</w>
co sts</w>
chal len
ac ích</w>
a v
a ted</w>
200 4</w>
1 .
ž en</w>
ší ho</w>
á me</w>
základ ní</w>
z alo
význa m</w>
velk é</w>
v é</w>
transpar ent
tor y</w>
th s</w>
tel ů</w>
t v
t on
sp en
sig ni
sh all</w>
pří li
při je
před cho
prostřed ků</w>
proble mati
pravi dla</w>
poče t</w>
portu gu
portugu ese</w>
odpověd nost</w>
o b</w>
nov ých</w>
m o</w>
jak é</w>
glob al</w>
freed om</w>
finan čních</w>
fa ir
ex peri
dolar ů</w>
b ody</w>
al u
a ir</w>
1 4</w>
člensk ými</w>
ú če
ze mí
vla st
tra f
tech no
st ly</w>
st and</w>
rov at</w>
při jmout</w>
po ra
po l
otáz ku</w>
na řízení</w>
množ ství</w>
ká ch</w>
jin é</w>
informa ce</w>
id enti
hle dis
h om
h led
g ing</w>
fe k
ex pe
emp ha
e y</w>
drin king</w>
do pad
b ri
as si
appropri ate</w>
amend ments</w>
ad dre
- terrorism</w>
š e
řen é</w>
z aru
vy kon
tr u
te x</w>
t rest
sel ves</w>
propo sed</w>
non -
ni la</w>
mě sí
me ly</w>
kla dem</w>
jed en</w>
in f
for ce</w>
douf ám</w>
dob ře</w>
do sud</w>
consi de
c on</w>
appro val</w>
al ways</w>
Řeck u</w>
č i
č as</w>
způ sob</w>
zemí ch</w>
z n
writ ten</w>
vyt vá
t le
t ary</w>
stá tu</w>
signi fi
s y</w>
s dělení</w>
rozpoč tov
roz sa
předsed o</w>
př ev
ov ala</w>
ov a
ope n</w>
ní ž</w>
ne dáv
mu l
memb ership</w>
m é</w>
li st
lab our</w>
is ed</w>
h uje</w>
e s
dosáh nout</w>
differ ent</w>
contin u
ap pe
š i
č ního</w>
zí sk
zne uží
v il
t ar
su r
st ry</w>
so ft</w>
secon d</w>
pře ká
prv é</w>
pro saz
prior ity</w>
pracov ních</w>
pos í
poin ts</w>
ov al</w>
ob y
ně me
ně které</w>
ni koli</w>
mon ey</w>
li fe</w>
kov é</w>
kli matu</w>
je m
indi vi
fun k
for tu
fo rest</w>
e ach</w>
dob r
curr ent</w>
cri min
contin ue</w>
ca ses</w>
c le</w>
bu sin
assi stance</w>
ří ci</w>
ě </w></w>
zat í
z o
z novu</w>
vět š
vě ci</w>
v ý</w>
teroris mus</w>
stanov is
společ né</w>
som e
smlou vy</w>
rela ted</w>
příli š</w>
problé my</w>
p t
opini on</w>
ochran y</w>
o zná
ní ci</w>
ni ch</w>
moh li</w>
m it</w>
l ých</w>
ka ce</w>
k ed</w>
jí cím</w>
grea ter</w>
en cou
consi der</w>
colle ag
ch il
ch ci</w>
c ro
by li</w>
b or</w>
b a</w>
ac ts</w>
> </w></w>
. 00</w>
země mi</w>
z ovat</w>
u pozor
tiv ity</w>
tiv eness</w>
ti al</w>
se ve
pro mot
princi ple</w>
pozi ci</w>
poli cies</w>
podob ně</w>
po sou
po pu
po k
několi k</w>
lep ší</w>
ku l
kno w
klí č
jedno u</w>
it self</w>
indu stry</w>
indivi du
gra p
dokon ce</w>
de n</w>
de mon
con text</w>
con sequ
cel é</w>
b rit
19 8
že l</w>
ště ní</w>
čast o</w>
za ch
wom en</w>
ve ch</w>
ve </w></w>
uza v
to le
ta ck
su spen
sta ti
skuteč nost</w>
situ aci</w>
rov ání</w>
proce su</w>
pochy b
občan é</w>
ně </w></w>
la te</w>
hle dem</w>
fo cu
fin d</w>
fe w</w>
edu cation</w>
de ta
da i
d ate</w>
comb ating</w>
be st</w>
accoun t</w>
ř ad</w>
Č len
ú čast
zí ch</w>
zah r
vů li</w>
vý hod
vo zi
ti cké</w>
ta ble</w>
su sta
stran ě</w>
socie ty</w>
s on</w>
rozvo j</w>
rod ních</w>
ro man
ris ks</w>
re sources</w>
re que
při mě
posi tive</w>
pa le
otáz ka</w>
o k
nez byt
ne t</w>
na d</w>
len ce</w>
ju stice</w>
i i</w>
h ra
h or
guar an
fre ight</w>
en a</w>
e k</w>
e fek
dra w</w>
b r
af ri
1 7</w>
ž </w></w>
šk od
š ování</w>
ň ovat</w>
ál ních</w>
á </w></w>
zjednodu šení</w>
zdra ví</w>
y or
u ži
slu š
respon sible</w>
reg ards</w>
pro spě
pr u
po třeba</w>
nut no</w>
li g
le te
jí t</w>
jas ně</w>
ja ko
h on
g m</w>
g g
fa k
d ata</w>
cre ate</w>
contro l</w>
bo ji</w>
affe cted</w>
achi eve</w>
abu se</w>
abi lity</w>
</w ></w></w>
život ního</w>
á l</w>
ví me</w>
vyh nu
uplatň ování</w>
to </w></w>
syst ému</w>
spojen ých</w>
se ar
rozpoč tu</w>
rea kce</w>
přis pě
práv o</w>
pra k
n ity</w>
mo de
lo cal</w>
le tech</w>
la ck</w>
l ů</w>
invest ment</w>
initia tive</w>
hospodář ské</w>
ho l
h un
fortu na
f li
exist ují</w>
en é</w>
důsled ku</w>
dí ky</w>
con vention</w>
con fi
ab solu
řad ě</w>
udr ži
tu ally</w>
ti t</w>
thre at</w>
stati sti
stat u
ssi ve</w>
sní žení</w>
ru mun
re le
re ally</w>
přije tí</w>
on ce</w>
nalé ha
mi ght</w>
me t
každ ý</w>
instru ments</w>
informa cí</w>
hou se</w>
h er</w>
fron tex</w>
f y</w>
effici ent</w>
e qu
da ma
communi cation</w>
certain ly</w>
ce n</w>
c ting</w>
c all</w>
ban k</w>
availa ble</w>
assess ment</w>
a c</w>
0 5</w>
zvlá ště</w>
z ů
z í</w>
z vyš
výsled ky</w>
vá me</w>
vz hledem</w>
vo t</w>
us a</w>
u dě
tě ž
tu al</w>
th ers</w>
state ments</w>
speci fi
sou la
sm all</w>
se n</w>
roz u
rou ght</w>
ro und</w>
recommen da
pro ti
pri ces</w>
pož ád
pod rob
po lo
obla stech</w>
moh la</w>
ku ji</w>
know led
k v
hledis ka</w>
hist ori
gree k</w>
g in</w>
g ari
er n</w>
dis pozici</w>
ci i</w>
ca u
bor der</w>
a y
če mž</w>
zí ho</w>
záj mu</w>
zalo žen
vý zku
vý ro
ukon čení</w>
tra di
ti mes</w>
syst é
svět ě</w>
susta in
st ě
schvá lení</w>
pří stup
předlo žen
pra v</w>
pale st
opportu nity</w>
mo tion</w>
mi mo
me th
ma k
m í</w>
m ing</w>
lo st</w>
ji chž</w>
it </w></w>
is u</w>
hospodář ství</w>
ho ž</w>
ha ving</w>
guaran te
fon du</w>
e ments</w>
e f</w>
demon stra
dal ších</w>
curr ently</w>
crea tion</w>
buil ding</w>
an y
am bi
ž ky</w>
Ú mlu
vá s</w>
vy ž
v u</w>
tv or
sy m
suc ce
strategi i</w>
sto ck</w>
stanov ení</w>
spe ak
rozprav a</w>
pří čin
při čemž</w>
prost oru</w>
preven tion</w>
požár ů</w>
posou zení</w>
per cn
percn t</w>
ová na</w>
ome z
ob rov
na př</w>
li sa
la be
k ou
inde ed</w>
in ing</w>
fair s</w>
ex ten
dra ft</w>
dov ol
compan ies</w>
clo se</w>
ck ým</w>
ch ed</w>
be come</w>
af fairs</w>
ů j</w>
š lo</w>
základ ních</w>
zdůraz nit</w>
z is
vyž ad
vod ní</w>
v ent</w>
tí ho</w>
tr á
tiv ních</w>
ta tion</w>
sv ůj</w>
sub si
ste m</w>
spa ce</w>
s sed</w>
region al</w>
redu ce</w>
ra ther</w>
ra lly</w>
pří sluš
pří prav
pře zkou
princi ple
obla stí</w>
ně mž</w>
nástro je</w>
ná klady</w>
na dále</w>
men t</w></w>
m it
kter ým</w>
jist it</w>
ig n</w>
h and</w>
gda ň
fu ll</w>
for m</w>
far mers</w>
e p</w>
democra cy</w>
dal ším</w>
d ří
counter -terrorism</w>
consu lta
comb at</w>
ch ce
cal led</w>
achi e
a w
ře šit</w>
ň ování</w>
ál ním</w>
zku šen
z y</w>
z ní</w>
w ish</w>
up s</w>
su per
spo ko
součá stí</w>
sk ém</w>
sil ni
s ha
růz ných</w>
rá da</w>
pů sob
před po
proje ct</w>
pro per
principle s</w>
politi ka</w>
pl ně</w>
pa pí
občan y</w>
need ed</w>
nebezpeč ných</w>
m er
k y
ji m</w>
jak ým</w>
j á</w>
instru ment</w>
hu žel</w>
gro ups</w>
glob ali
g ar
financ ování</w>
f oun
du š
du e</w>
doporu čení</w>
ch u</w>
centra l</w>
c </w></w>
bě ž
bo hužel</w>
bac k</w>
an ých</w>
1 4
život ní</w>
č tvr
č len</w>
ál u</w>
zvláš tní</w>
z bo
war ds</w>
wa ter</w>
výsled ků</w>
vý m</w>
vyz ý
vli v</w>
vla stní</w>
vi cti
tr a</w>
ter min
te st</w>
struc tu
společ ností</w>
sou tě
sear ch</w>
roz pravy</w>
přípa dech</w>
předcho zího</w>
politi cké</w>
otáz ce</w>
otev řen
ome zení</w>
ně ji</w>
mož nost</w>
konzuma ce</w>
k vůli</w>
jící ho</w>
jedn at</w>
it a</w>
is ing</w>
fol lowing</w>
fle xi
f ri
e ver</w>
de al</w>
cí le</w>
con ference</w>
b rea
at lan
ac tions</w>
3 .
š tí</w>
ř ili</w>
ě jší</w>
ve m</w>
uved l</w>
te g
t ři</w>
služ by</w>
se k
se </w></w>
s or
pozor nost</w>
posled ní</w>
pokro ku</w>
po sto
op e</w>
nu je</w>
ne závis
ne vyhnu
my š
mi </w></w>
le ti
kone č
komisa ř</w>
koli v</w>
k an
hy po
hlas ovat</w>
hap pen
fortuna tely</w>
fav our</w>
ef for
e a
dr ž
do stup
dne š
difficul t</w>
de f
cí ho</w>
concer ns</w>
ch op
ce p
ca pit
bo j
alkoho l</w>
úspě š
ze k</w>
vzděl ávání</w>
vlá dy</w>
us ing</w>
transpar ency</w>
ter i
te le
st re
simpli fication</w>
secu ri
re search</w>
práv ního</w>
prav ed
požad av
poten tial</w>
podpor y</w>
po tra
po hy
par ties</w>
pac k
p ing</w>
on </w></w>
odpově ď</w>
monit o
liv es</w>
li ght</w>
lar ge</w>
kri ze</w>
ka pit
k ovat</w>
increa sed</w>
h an
go ti
g ers</w>
fi ed</w>
fa ci
f lo
f ers</w>
e st</w>
dě kuji</w>
dre n</w>
dovol te</w>
dohod y</w>
dialo gu</w>
de l
confi dence</w>
clo sure</w>
ci </w></w>
chil dren</w>
ch es</w>
ca ted</w>
c u</w>
b ra
administra tive</w>
a le
20 0</w>
ř ím</w>
ř il</w>
čen o</w>
úřad ující</w>
záva ž
záp isu</w>
ze mi</w>
z ru
vý raz
vo tes</w>
vo ted</w>
vnitř ního</w>
victi ms</w>
under stand</w>
un til</w>
u ž</w>
u čin
u dá
subje k
sti </w></w>
ste p</w>
soula du</w>
sk y</w>
ri ed</w>
re ports</w>
písem ná</w>
pro ved
pre vent</w>
prac ovat</w>
požá ry</w>
politi ku</w>
pod stat
pers on
organis ation</w>
open ing</w>
ne goti
mí r
min d</w>
lo t</w>
li qui
le ast</w>
knowled ge</w>
ka mi</w>
k aci</w>
j ob
fun c
ener gy</w>
e ch</w>
dokumen tů</w>
dohod a</w>
disast er</w>
cen y</w>
b od
agricul tural</w>
2 7</w>
1 9</w>
že le
ž ila</w>
ň ují</w>
če k</w>
č en</w>
závě r</w>
zbo ží</w>
z trá
u vědom
u to</w>
té mě
témě ř</w>
tu re
tom uto</w>
te </w></w>
sí tě</w>
suspen ded</w>
s v</w>
s niž
reque st</w>
rela tions</w>
regi ons</w>
refor m</w>
redu cing</w>
ra dou</w>
pře pravy</w>
produ c
por ted</w>
poli ce</w>
po stav
pla y</w>
orgá nů</w>
oh ro
oby va
obje c
o stat
o prav
nov á
net work</w>
ne bude</w>
naš i</w>
na ture</w>
mon ths</w>
m ám</w>
libe rali
le ad
l ý</w>
kv ó
initia tives</w>
g in
g en</w>
fir my</w>
fa il
exist ing</w>
ex cel
effe cts</w>
do st</w>
di men
de li
consequ ences</w>
ci r
chce me</w>
budouc nosti</w>
bo je</w>
benef its</w>
b ring</w>
aw are</w>
atta cks</w>
a sk
1 8</w>
1 16</w>
zpravoda j
za ji
w ing</w>
vi d
v ou</w>
u n</w>
tě ho
týka jících</w>
tur n</w>
tole ran
to wards</w>
throu gh
through out</w>
st at</w>
součas nosti</w>
signifi c
scho ol</w>
s r
s .</w>
prá vech</w>
pro visi
prav dě
politi ckých</w>
pe n</w>
ohled u</w>
objec tives</w>
o thers</w>
o kam
mí sto</w>
mov e</w>
mimo řád
l ent</w>
komisa ř
jo b</w>
jed ním</w>
jed na
interest s</w>
inde pen
increas ing</w>
inclu de</w>
hlav ní</w>
excel lent</w>
ex ter
ev alu
disku se</w>
de c
dai ry</w>
coordin ation</w>
com ing</w>
ck y</w>
ch ar
bud ge
ba si
an n
al though</w>
agre ements</w>
čer ven
za jí
z uje</w>
vnit roz
un fortunately</w>
u stanovení</w>
th us</w>
techno logi
ta x</w>
t ních</w>
stra n</w>
sm lu
sl ou
securi ties</w>
se en</w>
re pe
re co
ra t
qu ar
pů dy</w>
pří s
pře zku
prior it
pra cu
podmín ky</w>
pan u</w>
pac ity</w>
opportu ni
opportuni ties</w>
nabí d
lodě nic</w>
konzu lta
kaz uje</w>
jin ých</w>
j un
individu al</w>
harmon i
ct ly</w>
concer ned</w>
colleag ues</w>
ck ing</w>
by ro
bli ž
ans wer</w>
ag ency</w>
a round</w>
6 0</w>
3 0</w>
č ty
ý </w></w>
ú silí</w>
za brá
y ed</w>
wor ks</w>
vš e</w>
ve ment</w>
v zá
v ně</w>
tel é</w>
ta in</w>
struc ture</w>
si t</w>
se tk
se ssion</w>
ru ssi
reg ar
re main
re ag
provisi ons</w>
pro vo
po řad</w>
pack age</w>
ová no</w>
ov e</w>
ov aly</w>
ou </w></w>
or ing</w>
odpo ví
od stran
ní ky</w>
ne r</w>
navr h
mov ement</w>
m odifikov
liv ing</w>
lid i</w>
kro ky</w>
kov ých</w>
konkuren ce
konkré tní</w>
je jichž</w>
institu cion
he ld</w>
f ish
ex pres
evropsk ým</w>
ev ents</w>
er </w></w>
environ ment
en y</w>
e me</w>
dří ve</w>
develo ped</w>
democra tic</w>
cri ti
cre dit</w>
cor p</w>
ce mi</w>
ca used</w>
byro kra
busin ess</w>
b ě</w>
ar ti
ac tually</w>
a bych</w>
3 5</w>
20 13</w>
0 .
žit í</w>
změ ny</w>
zamě řen
wor ds</w>
wa ter
vý bor</w>
vážen á</w>
vy pl
vnitroz em
val ues</w>
tra ining</w>
tra g
ti v</w>
ti n</w>
tex tu</w>
tex ts</w>
su ch
souhlas ím</w>
sle du
si l</w>
ra z</w>
před klá
pře s
provádě ní</w>
pro por
pri orities</w>
pracov níků</w>
pr ve</w>
poslan ci</w>
po tvr
ot á
open ed</w>
op a
obec ně</w>
o t</w>
o logi
něj ších</w>
ne ss</w>
ne lze</w>
ne ga
nad měr
moh ly</w>
mno ha</w>
m ání</w>
le ar
konkurence schop
ju ly</w>
jednotliv ých</w>
is ation</w>
iniciativ y</w>
ex plo
dopad u</w>
do stateč
demokra cie</w>
com pli
by ste</w>
an nu
al low</w>
ú č
áv á</w>
ál ního</w>
zása dy</w>
z ovan
vě c</w>
vi o
v ers</w>
u re</w>
u l
t ku</w>
sustain able</w>
sum mer</w>
state k</w>
skupin a</w>
seve ral</w>
sen se</w>
s praved
rozsa hu</w>
roz dí
re li
r á</w>
qu ite</w>
pů j
příš tího</w>
pře sto</w>
pro fe
practi ce</w>
portugal ské</w>
podpor uji</w>
pa ci
p u</w>
ni li</w>
ni ka
ne pří
mě k
mí st
mí ry</w>
myš len
mor t
moh l</w>
mo del</w>
me zi
m ní</w>
lisa bon
le ta
la ws</w>
krá t</w>
je j</w>
invol ved</w>
inve sti
infor m
in land</w>
i gh
ge o
g ge
fun g
fo od</w>
f our</w>
en í</w></w>
en su
empha s
ed e
de m
cí lů</w>
contribu tion</w>
com es</w>
capit al</w>
bezpeč no
b in
ann oun
amend ment</w>
agen cies</w>
ad ver
ac ci
ž ní</w>
člá nek</w>
člen ě
zvý šení</w>
zlep šit</w>
z nění</w>
výrob ky</w>
ví je
ved e</w>
ve hi
u se
ter rori
terrori sts</w>
syste ms</w>
sym bo
stu dy</w>
sou drž
soci ali
sk ým</w>
s ses</w>
rů stu</w>
rych le</w>
ry bo
rizi ka</w>
ri es</w>
rele v
př í</w>
program mes</w>
pro ces</w>
pri ce</w>
pravdě podobně</w>
podě kovat</w>
pod mí
po wer</w>
po sed</w>
plá nu</w>
pa red</w>
p il
ob ser
n é</w></w>
mort g
mo hu</w>
mno hem</w>
ment ary</w>
lis bon</w>
je hož</w>
je gg
i ther</w>
i led</w>
h á</w>
gra tu
fra t
for m
ex change</w>
en ých</w>
e ly</w>
dov o
dob u</w>
develo p</w>
de pen
consu mer</w>
cis e</w>
ci vil
ce stu
c ru
c ov
c ate</w>
bi li
bal í
anal ý
1 00</w>
ži l</w>
žele zni
čin nost</w>
účin né</w>
zdravot ní</w>
zaved ení</w>
zaměstnan osti</w>
zabý vat</w>
y nu
vše m</w>
výrob ků</w>
vít ám</w>
vnitrostát ních</w>
vi ce
u .
the m
them selves</w>
t s</w></w>
svob ody</w>
stron g</w>
společ ně</w>
speci al</w>
sa mot
s í</w>
represen ta
ra n</w>
produ kce</w>
podni ky</w>
po chop
pat ří</w>
parti ci
pa k</w>
o p</w>
mc cre
lé pe</w>
lodě nice</w>
lid ská</w>
le a
katastrof y</w>
je ž</w>
jas né</w>
inten tions</w>
implemen ted</w>
h r
gene ticky</w>
fi gh
extre mely</w>
er u
en ing</w>
effici ency</w>
effe ct</w>
do ta
dlou hod
con ne
chan ges</w>
ch u
ce ment</w>
c les</w>
bud u</w>
ban ks</w>
ad van
acce ss</w>
ab ove</w>
a min
2 1</w>
2 .
žád né</w>
život a</w>
ži vot</w>
ž to</w>
ú myslu</w>
zvý šit</w>
vý bo
vz duš
využí vání</w>
vy svět
vy nika
velk ý</w>
v rá
udrži tel
u. s.</w>
tou bon</w>
subsi di
stáv á</w>
sto že</w>
st on
ssi ons</w>
sk ými</w>
signific ant</w>
se ly</w>
regula tions</w>
přimě řen
pře stože</w>
proje cts</w>
problé mů</w>
practi cal</w>
pozměňov ací</w>
portug al</w>
po n
plá n</w>
partner ství</w>
organis ations</w>
obchod u</w>
něme ck
ní ch</w></w>
nov á</w>
ne může</w>
naš e
n '
n' t</w>
mí ře</w>
mož ná</w>
monit oring</w>
mili ar
mccre ev
m im
lo gy</w>
le ad</w>
lar ge
k ind</w>
je </w></w>
jako žto</w>
integra tion</w>
hypo teč
h </w></w>
g ran
fa ce</w>
ex amin
evrop u</w>
e x</w>
dlouhod ob
di st
de ba
cor rec
consu mers</w>
con stru
ce st
c it
bo dem</w>
aspe cts</w>
appli cation</w>
air space</w>
ag o</w>
achie ved</w>
4 5</w>
žen y</w>
ň ující</w>
člá n
ú ko
zneuží vání</w>
zd á</w>
za čí
vů či</w>
vzta hy</w>
vo i
vhod né</w>
ve k</w>
terori st
ta ge</w>
t rea
sv ého</w>
star t</w>
st ac
správ né</w>
sociál ních</w>
so li
smlu v</w>
servi ce</w>
s por
rybo lov
rov é</w>
roman ia</w>
ro ss</w>
resu med</w>
relev ant</w>
př eru
procedu re</w>
pro f
pravomo ci</w>
pos sibility</w>
po vo
partn ers</w>
ov liv
ou gh</w>
oh le
ná š</w>
naléha vě</w>
n en
mí t
mak es</w>
ma ď
ma li
m om
lid mi</w>
li s</w>
le to
le t
job s</w>
j men
j it</w>
in ed</w>
har m
ger many</w>
g an</w>
fon dů</w>
focu s</w>
fer en
fe l
exter nal</w>
experi ence</w>
en ough</w>
em er
e ing</w>
e cu
dě t</w>
dv ou</w>
dosa žení</w>
dod áv
do šlo</w>
disku si</w>
den ts</w>
d at</w>
con tent</w>
committe es</w>
co st</w>
co m</w>
cau ses</w>
benef it</w>
ac ross</w>
4 0</w>
200 1</w>
žen o</w>
šen ím</w>
ře čeno</w>
ń sk</w>
úda jů</w>
é ri
áv at</w>
zákonodár ství</w>
zá stup
vě t</w>
vytvo řit</w>
ver sion</w>
tře tí</w>
te m
tal king</w>
t ovat</w>
t ori
t la
sy n
stoup ení</w>
spo lu</w>
some thing</w>
resolu tions</w>
re main</w>
r s</w>
přím o</w>
před sta
př in
prospě ch</w>
posky tu
podmí nek</w>
po stup</w>
po ko
p se</w>
p hen
ová n</w>
ob stac
o znač
o ld</w>
ná po
ni kdy</w>
mul ti
mr .</w>
mnoh é</w>
measu re</w>
me e
maď ar
lin es</w>
la </w></w>
l ní</w>
kone čně</w>
kno wn</w>
is es</w>
im medi
ide a</w>
i tem</w>
govern ments</w>
gen cy</w>
gda ńsk</w>
g i</w>
finan cing</w>
fin al</w>
f is
exist ence</w>
euro po
důvod u</w>
dá m</w>
doprav u</w>
doprav ní</w>
dokon al
do ing</w>
de k</w>
dama ge</w>
correc tions</w>
conclu sions</w>
cel kov
bu rea
basi c</w>
ac qu
a vy</w>
a g</w>
š i</w>
č ním</w>
ú ro
zah rani
za jistit</w>
w ers</w>
vý mi</w>
vá dí</w>
vlá da</w>
v ní</w>
v in</w>
určit ých</w>
u su
tě ch</w>
tí mto</w>
tou to</w>
th y</w>
te d</w></w>
tak ové</w>
střed ní</w>
stand ards</w>
simp ly</w>
shor t</w>
ro z</w>
pří spě
přijat ých</w>
prote ct</w>
problé mu</w>
preven ce</w>
posled ních</w>
poli ce
podpo řit</w>
po de
phen om
pa d</w>
p y</w>
p pe</w>
p .</w>
ov i</w>
ou cí</w>
or ity</w>
občan ům</w>
několi ka</w>
nástro j</w>
násled ky</w>
nov ého</w>
ne můžeme</w>
naše ho</w>
mim o</w>
katastro f</w>
jak á</w>
ing ly</w>
im s</w>
hod lá</w>
fa mili
every thing</w>
en </w></w>
de ci
cro ss
con tain
car ried</w>
ca tions</w>
blo cks</w>
arti cle</w>
analy sis</w>
am oun
alkoho li
agre ed</w>
agentu ry</w>
ab ly</w>
a ř
a de
5 00</w>
2 3</w>
š ť
řád u</w>
č ist
zaměstnan ost</w>
z účast
z ohled
z je
z dokonal
wi de</w>
we st</w>
w al
vý kon
vý chod
vy u
vy k
veřej né</w>
val ue</w>
va rování</w>
va hu</w>
th ings</w>
tel ná</w>
techni cal</w>
sv ém</w>
su gge
stav u</w>
spo čí
sou d
si bi
requi re
regar ding</w>
reas ons</w>
re publi
ra dě</w>
r is</w>
přeprav u</w>
projek t</w>
pro de
pri me</w>
police j
podě kov
po r</w>
pl od
per hap
perhap s</w>
partner ship</w>
par ty</w>
p a</w>
ou rable</w>
ochran a</w>
ná sledu
ná rod
ne w
mí sto
mu m</w>
minist er</w>
mi c</w>
mat ters</w>
ma dri
liv é</w>
li st</w>
kontro ly</w>
kone c</w>
klíč ov
ka mi
k y</w></w>
jednot ný</w>
j im
it y</w></w>
is la
indepen dent</w>
h rá
fir stly</w>
ex per
ensu ring</w>
efek tiv
dialo g</w>
dezertifi kaci</w>
cti vely</w>
ck ými</w>
civil ní</w>
ca p
ca m
bor ders</w>
boj ovat</w>
b ly</w>
b la
ay ala</w>
as soci
an ts</w>
adop tion</w>
ad s</w>
ac ti
9 .
1 5
ře č
ě l
čen a</w>
Člen ství</w>
áv ají</w>
á ř
zdro jů</w>
zabezpeč it</w>
zabezpeč ení</w>
z ří
z á</w>
z y
z im
y ch
w </w></w>
vypl ý
uži teč
u přím
u prav
to o
tin i</w>
ti sí
takov ý
st er</w>
směr ni
slo žení</w>
sel s</w>
rov n
recommenda tions</w>
rec ently</w>
re fle
rap port</w>
rap id</w>
q u</w>
provi ded</w>
promot e</w>
pre zi
pomo cí</w>
pokrač ovat</w>
podpor uje</w>
po ško
po se</w>
ple a
pa st</w>
or a</w>
of f</w>
o pravy</w>
neu stále</w>
ne ch
n ovat</w>
mys l</w>
mus ím</w>
mod er
mee ting</w>
me an</w>
lé m</w>
logisti ka</w>
li ko
li c</w>
legisla tiv
le h
la s</w>
komis í</w>
kom uni
k ám</w>
jun e</w>
jed né</w>
inten zi
in nov
impro ving</w>
i ž</w>
harm ful</w>
g li
for war
dy na
dis ab
disab led</w>
dezertifi kace</w>
consi st
cir cu
c lar
be c</w>
aspe k
an o</w>
ado pt</w>
ac c
a ť</w>
a .m.</w>
2 4</w>
že k</w>
ň u
Úmlu vy</w>
zahá jení</w>
z on
vzá jem
vy sí
vod ních</w>
vice -
ver s
uved en
umož ní</w>
u z
u vádě
traf fic</w>
tion s</w></w>
ti tu
ti s
ther n</w>
ter na
te mp
te h
takov é
subsidi ar
stu pe
ste ps</w>
stan ding</w>
st al</w>
společ ných</w>
sp o</w>
sou hla
sh od
ser va
sa ys</w>
s sels</w>
s li
s la
rozvo ji</w>
rozvo je</w>
regula tory</w>
regi on</w>
reas on</w>
re lation</w>
re </w></w>
ra ting</w>
příležito sti</w>
pří rodních</w>
při bliž
provi ding</w>
použí vání</w>
poten ci
pla ced</w>
pas sen
pa r</w>
ou ght</w>
organi za
op ě
om s</w>
ok er</w>
odifi ed</w>
obě tí</w>
obla st</w>
ob nov
no s
no r</w>
nezbyt né</w>
nej prve</w>
nedo stat
mí st</w>
mortg age</w>
min im
mili ard</w>
mi d
mccreev y</w>
m ed
lon d
liko ž</w>
li n</w>
li l</w>
l ého</w>
l ling</w>
krá lov
konkré tně</w>
kon ference</w>
komisa ře</w>
kom ple
ke ep</w>
kdy by</w>
je likož</w>
infra struktu
ho oker</w>
gn ant</w>
fun ding</w>
expe ct</w>
er ing</w>
ener ge
ear li
e it</w>
do m</w>
dialogu es</w>
defin i
de se
concer n</w>
challen ge</w>
ca pacity</w>
ca li
by teč
burea u
b í</w>
b lí
ar gu
al on
ag ed</w>
7 5</w>
1 ,
ř ování</w>
zn alo
zeměděl ství</w>
zdokonal ení</w>
zatí m
zatím co</w>
w ar</w>
vě řím</w>
vzni k
val en
v it</w>
v it
ur ge</w>
up l
ter mí
te dly</w>
ta x
t ou</w>
suc cess
stu di
state ment</w>
sta bili
sociál ního</w>
sk em</w>
see ms</w>
secon dly</w>
sch en
sc ope</w>
s how</w>
russi a</w>
rozší ření</w>
ro w</w>
requi red</w>
region ální</w>
re a</w>
přesvěd čen</w>
překá žky</w>
potřeb né</w>
postižen ých</w>
poru šování</w>
podpo rovat</w>
pers ons</w>
parlia mentary</w>
p r</w>
ome zen
ohle dem</w>
od ha
obchod ování</w>
ob lig
o ral</w>
nástro jů</w>
nej vyšší</w>
nedo statek</w>
ne be</w>
na tions</w>
n ings</w>
mo ř
mo ci</w>
mit ted</w>
milion u</w>
mi gra
men tion</w>
lit tle</w>
li k
le r</w>
ka li
jí </w></w>
jist ot
jedna cího</w>
jed nu</w>
inter ven
inter pre
in tel
hom e</w>
harmon isation</w>
h ou</w>
h lí
fun gu
f ying</w>
exce ssive</w>
ent </w></w>
encou rage</w>
effor ts</w>
e ston
důvod ů</w>
dv ě</w>
doub t</w>
do káz
di stri
deleg ations</w>
d rought</w>
con ce
co he
ce lo
cam pa
c at
ban ky</w>
annu al</w>
agricul ture</w>
ac cor
0 </w></w>
ř ila</w>
čá st</w>
č in</w>
účin nost</w>
ú roveň</w>
ú pl
zo g</w>
zne poko
zi one</w>
we ek</w>
vů bec</w>
vynika jící</w>
vehi cles</w>
určit é</w>
ur ych
udě lat</w>
u ne
tru st</w>
traf fi
tr ue</w>
tin y</w>
te ď</w>
t r</w>
t ot
syn dro
suf fici
stand ar
st á</w>
st er
správ ně</w>
sh ed</w>
se ver
se v
sa tis
s ou</w>
s ist</w>
roz víje
ro čně</w>
rela ting</w>
ra tes</w>
quar ter</w>
připo men
přibliž ně</w>
představ ují</w>
pre pared</w>
poč tu</w>
považ uji</w>
poskyt nout</w>
pod ně
pl ans</w>
ove ra
otá zek</w>
opera te</w>
opat řen
op ak</w>
of fer</w>
od stra
ochran ě</w>
obchod ní</w>
ně j</w>
ni kdo</w>
ne vy
mí stní</w>
moh lo</w>
mlad ých</w>
meth ods</w>
me et</w>
low ed</w>
li min
li dem</w>
l cb</w>
králov ství</w>
kri zi</w>
komple x
jak é
it ing</w>
inve stice</w>
infra structure</w>
informa ční</w>
inclu ded</w>
in c</w>
implemen ting</w>
i an</w>
her c
herc zog</w>
faci li
every one</w>
eu ro</w>
důležit ou</w>
dr ink</w>
dodrž ování</w>
do chází</w>
cru cial</w>
cor p.</w>
con stitu
competi tiveness</w>
challen ges</w>
cha ra
ca me</w>
c ent
bureau cra
bul gari
au tom
appro ved</w>
alkoho lem</w>
al terna
acci dents</w>
a ims</w>
a i
a byste</w>
8 0</w>
20 10</w>
ř en</w>
é ho</w></w>
á ní</w></w>
záležito st</w>
zá kaz
zvý šen
zeměděl ské</w>
zdro je</w>
za členě
za stav
za druhé</w>
war ning</w>
vzduš ného</w>
vyžad uje</w>
vyzý vám</w>
vo lu
vo d</w>
va še</w>
uved la</w>
určit ou</w>
u na
tvor by</w>
tra gi
tra ding</w>
tr hy</w>
tor u</w>
ti sh</w>
ti ckých</w>
teh dy</w>
tack le</w>
streng th
strategi c</w>
stanovis ko</w>
st rá
spraved l
sou střed
so on</w>
sibi lities</w>
se r</w>
sa v
rybolov u</w>
rozpočtov ý</w>
redu ction</w>
reco gn
radi o</w>
r cb</w>
pře sh
prv ním</w>
produ ce</w>
pre gnant</w>
pr im
potřeb u</w>
potra vin</w>
postižen ím</w>
pla tí</w>
pl y
ozná men
oc cu
obstac les</w>
ob vi
ná ro
net works</w>
ne s</w>
ne měli</w>
mo re
kul tur
kontro lu</w>
k ého</w>
j our
institu tional</w>
frat tini</w>
fi gu
f ede
f al
ex tent</w>
ex pre
ex ecu
evropsk ém</w>
establish ment</w>
encou ra
dě ji</w>
dá me</w>
dom á
distri bu
de termin
d le</w>
cross -
crimin al</w>
cor re
compe ten
ci vi
ch od</w>
c tiveness</w>
budge tary</w>
bo ard</w>
bal an
aspe ct</w>
appropri ations</w>
an </w></w>
addre ss</w>
addi tion</w>
0 ,
Ž á
ě ní</w>
á v</w>
zása dě</w>
ze m</w>
za vést</w>
y ers</w>
větš in
vývo j</w>
výbo rech</w>
vá z
využí t</w>
vice- president</w>
ve šk
valen ci
v is</w>
ur g
tu ry</w>
tran spo
tou bon
ti cally</w>
ter rit
t an
subsidiar ity</w>
sub stan
stát ní</w>
stá ch</w>
spojen é</w>
solu tions</w>
sniž ování</w>
slo žit
se p
schop ni</w>
s ci
ri ers</w>
rela zione</w>
re kla
přesh rani
před mě
procedu res</w>
problé mem</w>
pro s
pro per</w>
preven ci</w>
požád at</w>
poskyt ování</w>
peri od</w>
parlamen tem</w>
pan ěl
p lu
p is</w>
ová ní</w></w>
overa ll</w>
obrov ské</w>
o li
nov ý</w>
ne ver</w>
ne má</w>
ne hod
ne budou</w>
n cn
ncn b</w>
mě r</w>
mov ing</w>
more over</w>
miliar dy</w>
mi to</w>
ma x
lo ans</w>
libe ra
le tí</w>
la un
l ovat</w>
l or
kami on
k ter</w>
jak ý</w>
inter vention</w>
i z
i re
he ar
gar g
fore ign</w>
fe red</w>
fe el</w>
fail ure</w>
facili ta
fac ing</w>
ex ist</w>
ener gi
en able</w>
ele k
earli er</w>
dob y</w>
dneš ní</w>
dire ct</w>
der i
de s
de </w></w>
da jí</w>
cul ture</w>
con sid
cohe sion</w>
cháze jí</w>
ch rá
ce stách</w>
ca re
bul har
bru ssels</w>
b ou</w>
ap pla
acti vi
accor ding</w>
a im</w>
čtvr tle
če m</w>
í m</w></w>
ál ně</w>
záp ad
zá ří</w>
zkušen osti</w>
z řízení</w>
z en</w>
vý mě
ví </w></w>
vá ním</w>
vytvá ření</w>
vyjád řit</w>
vy pracov
vio lence</w>
vešk er
v nější</w>
udá lo
u spoko
týka jí</w>
tí mi</w>
toleran ce</w>
tick á</w>
than ks</w>
ta s</w>
svět ové</w>
sum mit</w>
succe ss</w>
stě hov
stát ům</w>
streng then</w>
ste ad</w>
sta bility</w>
specifi cally</w>
speci ali
souvise jící</w>
solu tion</w>
sna ží</w>
smě rem</w>
sig ned</w>
sh ro
sek toru</w>
san ds</w>
rá di
rych lé</w>
rozhod ně</w>
ris e</w>
require ments</w>
re ál
re action</w>
qu o
příležito stí</w>
přij ata</w>
př it
pur su
pro vision</w>
pr e</w>
pož í
popu lation</w>
politi k</w>
podni ků</w>
po má
pl nění</w>
papí ry</w>
op ti
odpověd nosti</w>
odpověd i</w>
obsa huje</w>
obje ctive</w>
o ct
ně kteří</w>
nedáv no</w>
ne me</w>
ne byly</w>
navr hov
měsí ců</w>
mož no</w>
mom ent</w>
modifikov aných</w>
mlé kem</w>
mechanis ms</w>
lid ské</w>
la te
kri min
kou p
koordin á
koordin ace</w>
každ ém</w>
in stead</w>
in come</w>
il s</w>
hled u</w>
high er</w>
he ad
har m</w>
h lu
grap h</w>
g ra</w>
g al
fel low</w>
famili es</w>
expres sed</w>
er s</w></w>
effe ctiveness</w>
effe ctively</w>
ea si
e qui
e arly</w>
důležit ý</w>
důležit á</w>
dě l</w>
dá n
discu ssion</w>
direc tives</w>
dem and</w>
de cla
con gratu
comple x</w>
ch ing</w>
ce lém</w>
bur den
budouc nost</w>
bru se
bro ad</w>
bezpečno stní</w>
an ý</w>
an im
ak tiv
ag es</w>
ade qu
activi ties</w>
ž i</w>
ší </w></w>
šk ody</w>
ří me</w>
ří j
ř a
Řeck o</w>
ě j
čtvrtle tí</w>
úvě rů</w>
úto ků</w>
ú st
í mi</w>
z práv</w>
z byteč
yor k</w>
we e
vědom í</w>
vý da
ví te</w>
vz d
vozi dla</w>
v ra
u h
tře tími</w>
těho t
tě mito</w>
trans atlan
tr ying</w>
thou sands</w>
th in
teg ori
takové to</w>
tab led</w>
ta sk</w>
struktu rá
st ed</w>
spo třeb
sp í
sou dní</w>
si mi
simi lar</w>
se zna
sch eme</w>
s vým</w>
remain s</w>
reli gi
reag ovat</w>
rea k
ra el</w>
přístup u</w>
příspě v
předlo žila</w>
promot ing</w>
profe s
produc ers</w>
pre hen
pravi del</w>
požadav ky</w>
pozi tivní</w>
postup y</w>
postav ení</w>
pokro k</w>
phenom en
passen gers</w>
otáz kou</w>
or ů</w>
oprav du</w>
okam žit
obsa hu</w>
ob tí
ně ny</w>
náklad ů</w>
no thing</w>
ni ly</w>
nej důležit
ne byla</w>
naš ím</w>
na u
na tu
na opak</w>
n l</w>
me s
me ch</w>
man it
ma teri
m ý</w>
m ou</w>
low er</w>
li ber
le ft</w>
lan gu
kvali tu</w>
kvali tní</w>
kter ými</w>
ko v</w>
každ é</w>
k odifikov
k en</w>
jak ou</w>
ja zy
integra ce</w>
institu ce</w>
guarante e</w>
gu ard</w>
grap hi
g ov
fo rest
fir m</w>
figh ting</w>
fi ve</w>
f la
ex pen
ev id
establish ed</w>
emphas ise</w>
e mis
e ko
e ither</w>
dv a</w>
doprav ních</w>
do spě
do ká
disku tu
dis crimin
dire ction</w>
dimen sion</w>
deba tes</w>
de la
de al
conside red</w>
commit ment</w>
c ta
burden s</w>
bulgari a</w>
bud ování</w>
bi g</w>
be gin</w>
b ře
at or</w>
any thing</w>
an d
al most</w>
adver ti
acc ord
že t</w>
š pat
ři di
červen ce</w>
če lí</w>
účin nosti</w>
zřejm é</w>
zúčast ně
záj my</w>
způsob y</w>
zmí nil</w>
zaru čit</w>
za čá
za u
z odpově
z lo
y on
who se</w>
w ed</w>
vše mi</w>
vá l
vozi del</w>
vel s</w>
uzav ření</w>
u po
upo n</w>
u mír
tr hů</w>
ti es</w></w>
teroristi cké</w>
tel ně</w>
tab ling</w>
svět ov
stu po
sto jí</w>
spí še</w>
spotřebi telů</w>
spa in</w>
souvise jících</w>
soutě ž</w>
sob ě</w>
slov a</w>
silni ční</w>
sho ws</w>
sh r
setk ání</w>
sc ale</w>
rozu m
rod in
ro st
restri ctions</w>
rea lity</w>
re vi
ran ge</w>
qu anti
pří j
připomen out</w>
při roz
při ja
přezkou mat</w>
prosaz ování</w>
prob í
potře by</w>
postup ů</w>
policej ní</w>
pohy bu</w>
podni k
po ver
po tle
po or</w>
po land</w>
plá ny</w>
phenomen on</w>
pat ri
para graph</w>
p é
p tion</w>
oznámen í</w>
of fici
offici als</w>
o ko
ně na</w>
ní kům</w>
náz or</w>
ná bo
nábo žen
niž ší</w>
ne bylo</w>
měr ně</w>
mí me</w>
mu </w></w>
mes sa
mar k</w>
list op
le vels</w>
kri ti
konzuma cí</w>
koleg ové</w>
kodifikov ané</w>
ka z</w>
it able</w>
introdu ce</w>
infor mov
i gn
i c</w>
hu jí</w>
hospodář skou</w>
hodno ty</w>
h ovat</w>
for ms</w>
ex er
evalu ation</w>
dra wn</w>
dobr é</w>
deleg acích</w>
cu t</w>
cross- border</w>
cre ating</w>
consulta tion</w>
cháze t</w>
ch ov
bri tish</w>
bal ance</w>
b ách</w>
at temp
at h</w>
ari ly</w>
an á</w>
al le</w>
ak ční</w>
ak ci
acce pt</w>
acce p
ac tivity</w>
ac tive</w>
a č
a vi
200 0</w>
2 6</w>
žád ný</w>
ů r</w>
š ila</w>
Š paněl
ří zen
ří ká</w>
člán ku</w>
čen ých</w>
účin ná</w>
ó n</w>
í t</w>
závě rem</w>
zna čně</w>
zk é</w>
začí t</w>
za prvé</w>
yon d</w>
water ways</w>
w ish
větš ina</w>
výzku m</w>
vod y</w>
učin it</w>
uz náv
upl ynu
u en</w>
tě mto</w>
transparent nost</w>
ter ran
te mber</w>
tal k</w>
tak es</w>
t y</w></w>
systé my</w>
svobod u</w>
suffici ent</w>
stupe m</w>
stu die</w>
struc tural</w>
sto p</w>
sta v</w>
sta ke</w>
speak ing</w>
souhlas í</w>
solidar itu</w>
sl y
sk ot
sep tember</w>
schop nosti</w>
sa ying</w>
s vo
rám ce</w>
rov nová
ro stou
re structu
re fer
ra s</w>
ra il</w>
quo tas</w>
qui ck
quick ly</w>
půj č
pří kladem</w>
pu tting</w>
program ů</w>
prob ably</w>
pro hi
presen ted</w>
pravi del
pover ty</w>
potle sk</w>
po tě
po su
patri ar
pa tion</w>
our selves</w>
od mít
od a</w>
ně co</w>
nes míme</w>
nej větší</w>
nej de</w>
nedo stateč
nebezpeč í</w>
ne existuje</w>
na konec</w>
mléč ných</w>
minu losti</w>
man u
m in</w>
lu je</w>
loo king</w>
logisti ky</w>
li </w></w>
leto s</w>
len é</w>
kro k</w>
kon textu</w>
kon at</w>
kaz ují</w>
k les
k i
jící </w></w>
jed ná</w>
jed no</w>
j ad
jad er
ire land</w>
in stance</w>
i ly</w>
hu ge</w>
hospodář ský</w>
hon ourable</w>
ho ras</w>
he ad</w>
h ed
gu e</w>
ger man</w>
ge </w></w>
freed oms</w>
fon dy</w>
flo ods</w>
fish ing</w>
ex clu
establi sh</w>
en for
e p
dá t</w>
dv ůr</w>
dv ora</w>
dohod ě</w>
do pad</w>
discu ssing</w>
da tion</w>
da le
d y</w></w>
cí l</w>
cul tural</w>
ct ví</w>
cre te</w>
continu ed</w>
consulta tions</w>
con crete</w>
competi tive</w>
clo sely</w>
char ge</w>
c ům</w>
be yond</w>
balan ced</w>
b an</w>
b ab
au gu
ameri ca</w>
alon g</w>
adverti sing</w>
abi lities</w>
200 9</w>
2 2</w>
žen a</w>
ž ili</w>
ško l</w>
š en</w>
č ku</w>
zása d</w>
zá klad</w>
změ na</w>
zatí žení</w>
zaměstnan ců</w>
zají ma
ye ster
yester day</w>
y er</w>
war eness</w>
vě novat</w>
výhod y</w>
vý ši</w>
vod ně</w>
vo le
vlá dní</w>
ven kov
umír ně
uh r</w>
u vádí</w>
u t
tře tích</w>
traffi cking</w>
ti ous</w>
the less</w>
terran e
teroristi ckých</w>
tel ům</w>
te ku
takov á</w>
success ful</w>
sub -
stre ss</w>
sta ted</w>
st í
st vím</w>
st alo</w>
spočí vá</w>
spotřebi tele</w>
soukro mého</w>
soukro mé</w>
sní žit</w>
sk i</w>
sen der</w>
sch ů
s pl
s ov
růz né</w>
rozvíje t</w>
ro p</w>
ro n</w>
represen ts</w>
re struktu
ra tions</w>
ra ised</w>
přij ala</w>
pře chod
pě t</w>
pru ž
provi des</w>
proje v
po znamen
po měrně</w>
po li</w>
plea sed</w>
person al</w>
palest in
organis ed</w>
ohled ně</w>
of f
oc cur
o stí</w>
o st
o ce
ná rodní</w>
ni c
ne ws</w>
natu rally</w>
mu se
mo je</w>
mi ted</w>
met ody</w>
mechanis m</w>
m ých</w>
lo ss</w>
li mited</w>
le ty</w>
lan ds</w>
l d</w></w>
kvó t</w>
jm ů</w>
intel lig
infor me</w>
hun gari
hlas oval</w>
happen ed</w>
h at</w>
gro und</w>
gh tly</w>
func tion
fri day</w>
ev ing</w>
ekonomi ku</w>
e v</w>
důležit ým</w>
dě ní</w>
dri vers</w>
dostateč ně</w>
domní vá</w>
disku tovat</w>
dese ti
def ence</w>
de ce
dan ger</w>
d ity</w>
cri me</w>
coordin ator</w>
constru ction</w>
conclu des</w>
con stan
com prehen
c odified</w>
bruse lu</w>
bro ad
bo eing</w>
bin ding</w>
ask ed</w>
appli ed</w>
appla use</w>
ap ply</w>
alkoholi ckých</w>
adequ ate</w>
addi tional</w>
ad jour
ac ím</w>
absolu tely</w>
a way</w>
a wareness</w>
a se</w>
- -</w>
žen é</w>
železni ční</w>
ší mi</w>
Š pi
řad u</w>
ř ed
člensk ým</w>
č ními</w>
č né</w>
č ili</w>
Člen ské</w>
úst nímu</w>
úda je</w>
ú vahu</w>
ál o</w>
závaz ky</w>
záležito stí</w>
zákon y</w>
zá ru
zru šení</w>
zim bab
zimbab we</w>
zdůraz nil</w>
zaji štění</w>
z veřej
whe re
wal lis</w>
w ise</w>
w h</w>
vyso k
vit al</w>
ver ts</w>
ved oucí</w>
v ých</w>
v liv
use ful</w>
us nad
u ta</w>
u k</w>
transparent nosti</w>
tr v
tex tů</w>
terrane an</w>
tem pora
tel ný</w>
takov ý</w>
t ního</w>
t ky</w>
syste mati
svěd ky</w>
st ala</w>
sr p
společ ná</w>
sou th</w>
sna žit</w>
sna d
slou ží</w>
skup in</w>
sever ní</w>
seri es</w>
ser ve</w>
s vě
roz sáh
roz hov
restruktu rali
requi res</w>
qu e</w>
příš tích</w>
příčin ou</w>
přípa d</w>
pří rodní</w>
připo mín
pt áv
pru d
provo zu</w>
proper ly</w>
projek ty</w>
projek tu</w>
prior it</w>
prac ování</w>
posky tov
por tal</w>
podpor a</w>
po vol
po rate</w>
po ptáv
po lov
per for
pa y</w>
ov alo</w>
opera tions</w>
ob avy</w>
o po
o cen
něj ším</w>
ná silí</w>
nu clear</w>
no st
nic méně</w>
nej dříve</w>
na me</w>
mu ž</w>
mu tual</w>
mož nosti</w>
mon et
mlad é</w>
mimořád ně</w>
men š
medi terranean</w>
m p</w>
m ne</w>
listop ad
lik vid
li vo
li i</w>
leti š
lete cké</w>
leta dla</w>
len a</w>
le ss
le gi
late ral</w>
la ted</w>
la ce</w>
l ních</w>
l d
l are</w>
ky ně</w>
kter ém</w>
konzuma ci</w>
koneč ném</w>
kon stat
kam pan
jegg le</w>
jed náv
je d</w>
invest ors</w>
introdu ction</w>
institucion ální</w>
inc or
in st
in ova
hungari an</w>
hod not</w>
ho ld</w>
hlav ních</w>
grow ing</w>
govern mental</w>
func tional</w>
fran k
f at</w>
ex tr
europo l</w>
en i</w>
e ti
e ast
důvě ru</w>
dě tí</w>
domní váme</w>
do or
dis krimin
dece mber</w>
cu st
cra ft</w>
contribu te</w>
conclu sion</w>
con du
centr e</w>
cen né</w>
cal ls</w>
buil d</w>
b rought</w>
b odi
anti -
ameri can</w>
alcoho lic</w>
ak cii</w>
ad ded</w>
a ve
3 00</w>
1 3
1 0
žen ých</w>
ši ro
š né</w>
řad a</w>
ř edi
ň uji</w>
čin ností</w>
úče lem</w>
í ze</w>
zodpově zení</w>
zis k</w>
zahr nu
zabý vá</w>
z ji
z ed</w>
vše obec
výro by</w>
vyso ce</w>
vyj ad
vod u</w>
vnitrozem ských</w>
val u
v ní
určit ě</w>
tu res</w>
tori um</w>
tom or
tomor row</w>
t z
t vo
sup ported</w>
stř í
stáv ající</w>
stran a</w>
stanovis ka</w>
sta ge</w>
společ ný</w>
spole h
spe ak</w>
sp i
směrni ci</w>
se tting</w>
se cre
schop nost</w>
s s</w></w>
s mysl</w>
roz počet</w>
rizi kových</w>
resul ting</w>
restructu ring</w>
rec or
re present</w>
ra ise</w>
ra du</w>
příprav ě</w>
pří tom
přit om</w>
př á
prů myslu</w>
propor tion
produ ct</w>
pro m
povin ností</w>
posí lit</w>
posi tions</w>
por ting</w>
podí l</w>
podpo ře</w>
po vědomí</w>
po do
plan ning</w>
pen íze</w>
pa id</w>
ov at</w></w>
oc ca
obvi ously</w>
o re
ná růst</w>
ná moř
nej více</w>
negoti ations</w>
n ar
mí ru</w>
monet ary</w>
mo c
mal é</w>
m álo</w>
lodě ni
listopad u</w>
liqui ds</w>
lim it</w>
li d</w>
labe ls</w>
labe lling</w>
káz at</w>
jist ě</w>
jin ými</w>
j me</w>
it ě</w>
it á
introdu ced</w>
inte g
increas ingly</w>
inclu des</w>
immedi ate</w>
il legal</w>
i ma
hovo řit</w>
hospodář ského</w>
hed ge</w>
ha b
gra fi
globali sation</w>
g a</w>
fon d</w>
fir ma</w>
fer ing</w>
f a</w>
ex pla
establish ing</w>
en ed</w>
ele ment</w>
ekonomi ky</w>
e mb
e ast</w>
dosa ženo</w>
disku tov
discu ssions</w>
dis charge</w>
difficul ties</w>
deleg ation</w>
de va
de stro
de si
da ňov
d ání</w>
d it
crea ted</w>
con serva
con centra
commit ments</w>
ci a</w>
ch t</w>
centr ální</w>
cen ných</w>
ce m</w>
c y</w></w>
c y
c are</w>
bodi es</w>
bo d</w>
bar riers</w>
ban kov
b ran
ač koli</w>
augu st</w>
ar ing</w>
afri ca</w>
acce ssion</w>
absolu torium</w>
a tely</w>
4 .
1 8
1 6
čá st
čty ři</w>
č ím</w>
ú zemí</w>
á ni
zá jem</w>
zpravoda j</w>
zat ím</w>
za řízení</w>
za sáh
za potřeb
zapotřeb í</w>
z vá
z odpověd
y es</w>
w at
význa mu</w>
ví c</w>
váž ně</w>
vyjad ř
vo j
veřej nost</w>
v ali</w>
tz v</w>
trea ties</w>
tran s</w>
trag é
tr zích</w>
ter ro
tempora ry</w>
techno logy</w>
te č</w>
tar ge
subjek ty</w>
sti ma
stan e</w>
sp á
sp ite</w>
sou sed
sol ve</w>
so il</w>
si x</w>
si tion</w>
sh e</w>
sen de
sed uta</w>
sed </w></w>
s m</w>
s la</w>
s ar
rám cov
rá me
ráme c</w>
ru ral</w>
ru n</w>
rozsa h</w>
rov á</w>
rizi ko</w>
rizi k</w>
ris h</w>
respon sibilities</w>
requi re</w>
regula ci</w>
recommenda tion</w>
reali sti
re zer
re turn</w>
re ply</w>
re gre
r b</w>
příš tí</w>
přiroz en
při stěhov
přezku mu</w>
předsta vi
předpo klá
př iná
prost or</w>
proper ty</w>
prohlá si
produ ced</w>
pro mis
pres sure</w>
pre ci
pr ü
politi ce</w>
poli ti</w>
poli t
po té</w>
pl ying</w>
par ts</w>
p ů</w>
ov ané</w>
osob y</w>
ori zon
ori gin
omez it</w>
odpoví da
oct ob
octob er</w>
občan ské</w>
obsa h</w>
ob vyk
ob il
ně no</w>
nov e
no sti</w></w>
no stem</w>
ni ckých</w>
ne igh
neigh b
naš em</w>
n g
místo předseda</w>
mu set</w>
mor gan</w>
migra tion</w>
mi sti
mi l</w>
medi um</w>
man ner</w>
ma xi
m ně
m ly</w>
lit y</w></w>
li ke
lear ning</w>
lead ing</w>
le ch</w>
ku </w></w>
kro kem</w>
kon feren
kno te</w>
jící mi</w>
ju sti
it aly</w>
is </w></w>
interest ing</w>
initi al</w>
in </w></w>
impro ved</w>
i rish</w>
hypoteč ních</w>
hovo ří</w>
hodno tit</w>
hlav ním</w>
high li
h orizon
gh ted</w>
gen u
garg ani</w>
fur ther
foun d</w>
fa ir</w>
f en
f </w></w>
en g
east ern</w>
dů raz</w>
dě ti</w>
dokon čení</w>
discrimin ation</w>
dire ctly</w>
di ver
develop ing</w>
dan ě</w>
d lu
continu ing</w>
congratu late</w>
con fli
communi ties</w>
com ment</w>
co sta</w>
chtě jí</w>
cestu jící</w>
bar ro
bar ni
ban knote</w>
ba se</w>
b rání</w>
b raz
atta ck</w>
assess ments</w>
ap poin
al lowed</w>
air craft</w>
ai med</w>
ad d</w>
ad a</w>
achi eving</w>
ac cu
198 7</w>
1 2.
1 1.
/ 2007</w>
š li</w>
š el</w>
čer a</w>
č ů</w>
závě ry</w>
zása dní</w>
způsob en
zpravoda ji</w>
znač né</w>
zlo čin
zamě ř
za sta
z un
wish es</w>
war nings</w>
vě ma</w>
výraz ně</w>
vy řešit</w>
veřej nosti</w>
velk ých</w>
va jící</w>
upozor nit</w>
uplynu lých</w>
un doub
u skuteč
u děl
u d</w>
tvr dí</w>
ture ck
tur key</w>
tu ku</w>
transpar ent</w>
tor a</w>
too k</w>
tel l</w>
tal ks</w>
ta m</w>
t op
t ka</w>
sí ly</w>
sí d
stř ed</w>
sti on</w>
statu te</w>
st ing</w>
st aly</w>
spojen ými</w>
spo ken</w>
soutě že</w>
souhlas íme</w>
soudrž nosti</w>
soud ního</w>
situ ations</w>
sit zun
si bly</w>
sho wn</w>
se a</w>
scho o
sav ings</w>
ry ing</w>
rozhod ování</w>
rozdí l</w>
roz por
ro v</w>
reali stic</w>
rea ched</w>
rea ch</w>
re ference</w>
radi kali
radi cali
ra il
r ing
příčin y</w>
příležito st</w>
pří no
přijí mání</w>
přij ali</w>
přezku m</w>
pravomo cí</w>
portugal ského</w>
poděkov al</w>
plod in</w>
pit í</w>
pen ě
pe ti
paci fic</w>
p í</w>
p s
p </w></w>
ov ací</w>
our s</w>
ou t</w></w>
otáz kách</w>
organiza cí</w>
opa kov
obtí ž
oblig ations</w>
ob ha
o práv
nov ým</w>
ni ght</w>
nevyhnu telné</w>
nepří zni
nega tive</w>
nedáv né</w>
ne sm
na mely</w>
mě ní</w>
monito rování</w>
mod ern</w>
mo tions</w>
meziná rod
ment s</w></w>
me rely</w>
maj ority</w>
lon ger</w>
lo ň
liv ě</w>
li e</w>
ko lem</w>
klad u</w>
kapit álu</w>
kampan ě</w>
k ers</w>
jin ak</w>
jednot né</w>
infor med</w>
inf lu
imple ment</w>
hrani ce</w>
hrani c</w>
hap pen</w>
h ru
glob ální</w>
geo graphi
gene rally</w>
gdaň ských</w>
g la
g ali
fung ování</w>
forest s</w>
fir ms</w>
extr é
examin e</w>
evrop sk</w>
ev es</w>
europe ans</w>
equ al</w>
en ter
en ta
empha sis</w>
ele ct
economi es</w>
dů klad
do kazuje</w>
diskutu jeme</w>
di an</w>
dec lare</w>
da ys</w>
d věma</w>
d ent
conne ction</w>
che ck</w>
ch ina</w>
centra li
c over</w>
bra zi
br ings</w>
bo s
be d</w>
b eri
auth or
at d</w>
asse ss</w>
ask ing</w>
as su
ambi tious</w>
ak tů</w>
acqu is</w>
a voi
a b</w>
20 12</w>
2 5
žá do
čer v
ý š
úč ast</w>
ó zní</w>
získ at</w>
zása d
způsob uje</w>
způsob it</w>
změ nit</w>
zje vně</w>
z ví
z hor
wh il
whil st</w>
w ir
wir d</w>
všech no</w>
výzku mu</w>
vý bu
vzni ku</w>
vzd ory</w>
vyso ké</w>
vers ity</w>
venkov a</w>
uplatň ovat</w>
událo stí</w>
u važ
u ti
tí </w></w>
to tal</w>
to ld</w>
tion ali
ti ve</w></w>
termí ny</w>
tele vi
tel nosti</w>
tack ling</w>
t ří</w>
t rov
t ové</w>
t ing</w></w>
such a</w>
sub mitted</w>
structu res</w>
stri ke</w>
statu tu</w>
stanov en
st vo</w>
st va</w>
st ro</w>
společ nou</w>
spo ň</w>
spe ku
soli da
sitzun g</w>
si ón</w>
seri ously</w>
se sión</w>
se be</w>
se be
schoo ls</w>
schen gen</w>
s led</w>
s dě
rych le
rozvo j
roz vin
rovn ání</w>
rop s</w>
reali zace</w>
re j
radicali sation</w>
ra s
r un
př es</w>
prů měr
profes sion
produk tů</w>
pro zkou
pro p
pre para
pre cis
pra x
poží vání</w>
povo len
potřebu jí</w>
politi ckého</w>
po řád
po wers</w>
plu s</w>
pil í
partner y</w>
out side</w>
ordin ary</w>
om é
od dě
obyva tel</w>
o zna
německ u</w>
ně mu</w>
ně m</w>
nápo jů</w>
ná ku
no v</w>
no st</w></w>
ng l</w>
nesm í</w>
nej lepší</w>
ne pochyb
ne byl</w>
na vzdory</w>
na tion</w>
měk ké</w>
mode rate</w>
mla dí</w>
mi ly</w>
m oun
lu tion</w>
lo ď
lis m</w>
liqui dity</w>
li la</w>
li k</w>
legi ti
le o</w>
konkurenceschop nost</w>
kon struk
komisař ko</w>
k ni
k la</w>
ji </w></w>
její ho</w>
jednot li
jed na</w>
inicia tiv</w>
hroz bu</w>
hospodář ských</w>
hol ders</w>
hlav ně</w>
h ání</w>
gu i
gli et
gali leo</w>
gal in
g s</w>
g one</w>
further more</w>
function ing</w>
for ces</w>
fol low</w>
fo gliet
finan ce</w>
fen omé
expre ss</w>
eti ke
en d
emer gency</w>
eko logi
e limin
důvě ry</w>
důsled ky</w>
dru h</w>
dri ving</w>
dopl ňující</w>
door n</w>
dokumen tech</w>
discu ssed</w>
discu ss</w>
deta il</w>
de spite</w>
dale ko</w>
d s</w></w>
d is</w>
d al</w>
contra ry</w>
contra cts</w>
con ven
comple tely</w>
comm er
col la
civi li
circu m
ch y</w>
ch ce</w>
ce stu</w>
car ry</w>
cap able</w>
can a
cana dian</w>
c rops</w>
c ove
c ity</w>
beri cht</w>
b om
b i</w>
b at
announ cement</w>
amen ding</w>
ambi ci
alkoho lov
al one</w>
al de</w>
agentu ra</w>
affe ct</w>
addre ssed</w>
ac í
a te</w></w>
a si
4 00</w>
3 ,
200 3</w>
14 2</w>
ško d</w>
š uje</w>
čá sti</w>
člen y</w>
čen é</w>
čas u</w>
č ila</w>
účin ky</w>
úvě rov
ú spor
ú plně</w>
é st</w>
á ním</w>
zů stává</w>
zá kladem</w>
změ ně</w>
změ n</w>
zeměděl ských</w>
zdůraz ňuje</w>
zapo mín
zabrá nit</w>
z ují</w>
wor d</w>
we ak
vě de
výz vou</w>
vy lou
vol ný</w>
vnit ř</w>
vis ed</w>
vie ws</w>
veřej ného</w>
velk ou</w>
uzav řen
upřím ně</w>
undoub tedly</w>
under min
udr ž
u zn
tře tím</w>
tě z
trov er
trans fers</w>
tor ů</w>
to rem</w>
the re
th u
terorist ů</w>
tel ných</w>
tak to</w>
ta st
t ře</w>
t on</w>
t ním</w>
t ings</w>
sup ple
stáv ají</w>
strukturá lních</w>
strength ening</w>
sta čí</w>
sta ve
sta ke
st y
společ ného</w>
speak er</w>
spe cu
souvis í</w>
sle dek</w>
skuteč nou</w>
sit tings</w>
si zed</w>
se sa
sesa r</w>
sci enti
sch val
sa mi</w>
s právní</w>
s man</w>
rá di</w>
roz ši
rostou cí</w>
ro ads</w>
rizi kové</w>
rizi kov
ri ghtly</w>
respe k
representa tives</w>
reali zaci</w>
reak ci</w>
re ven
re public</w>
re je
ra l</w></w>
r y</w></w>
quanti ties</w>
připrav eni</w>
připrav ena</w>
přeshrani ční</w>
překá žek</w>
před běž
př e</w>
pros per
propo se</w>
progra my</w>
produk ci</w>
pro vést</w>
priorit ou</w>
preven ting</w>
precis ely</w>
pr á</w>
potřeb ná</w>
potra vin
posí lení</w>
poskytu je</w>
podpor ují</w>
po tom</w>
pe ace</w>
partici pation</w>
parlia ments</w>
papí rů</w>
p len
ov ý</w>
osob ní</w>
os la
or </w></w>
on going</w>
oko l
od hod
obje m</w>
ob chod</w>
o svěd
ní k</w>
následu jící</w>
násled ků</w>
národ ů</w>
nove mber</w>
nov ou</w>
nor thern</w>
nor mali
ni mi</w>
nedo ká
ne po
na místo</w>
na jít</w>
na i
na h
mléč nými</w>
mis sion</w>
meth od</w>
messa ge</w>
med ina</w>
marke ting</w>
mal ých</w>
madri d</w>
ma tely</w>
loď ař
lo žen
lin ked</w>
libera d
liberad zk
li te
les ů</w>
l ání</w>
l ta</w>
l led</w>
konzulta ce</w>
kamion y</w>
k at</w>
jed ná
institu tion</w>
institu cí</w>
infrastruktu ry</w>
in zer
i ce</w>
hist ory</w>
harmoni zaci</w>
hap py</w>
h ard</w>
gi ving</w>
gen er
gdaň ské</w>
g ni
g ly</w>
g </w></w>
fungu je</w>
forwar ded</w>
fo e
fish eri
fisheri es</w>
fac tors</w>
fa iled</w>
expe cted</w>
ev en
equi p
enti re</w>
enfor cement</w>
ed y</w>
e stima
e stic</w>
e quality</w>
dáv á</w>
dv ou
dra f
douf áme</w>
dom estic</w>
do hod</w>
dlou ho</w>
dis ea
des cri
democra ts</w>
dan é</w>
da tes</w>
d oda
d ala</w>
cí </w></w>
contro ls</w>
compli ance</w>
competen ce</w>
clar i
chrá nit</w>
cha ir
ch ví
ch ova
certain ty</w>
cen a</w>
ce s</w></w>
ce r</w>
campa ign</w>
bý val
brea ches</w>
brazi l</w>
braz í
blo ků</w>
be l
barro so</w>
b li</w>
associ ation</w>
ap preci
agentu r</w>
ad ap
ab s
ab oli
2 8</w>
19 7
. </w></w>
žá dost</w>
ů vod
ší ření</w>
Špi dla</w>
ý m</w></w>
účin ně</w>
ú řed
ú prav
á ny</w>
á d</w>
zá kon</w>
způsob ené</w>
zeměděl ci</w>
zaměst n
zamě řené</w>
zahr nuje</w>
za znamen
z ó
z ování</w>
z jist
z ar
z an
x ed</w>
w ron
w or</w>
výbu š
vý no
váž né</w>
vytvá ře
vytvo řen
vole b
vo ta
vnitrozem ské</w>
vi ce</w>
veřej ných</w>
valenci ano</w>
v čera</w>
urč it</w>
ur gency</w>
udá losti</w>
udrži telné</w>
u vol
u f
tě ší</w>
tý če</w>
tý d
té ž</w>
ty pe</w>
tur bu
turbu lence</w>
trest né</w>
tr ž
to lik</w>
tick ý</w>
tick ou</w>
thre at
thin king</w>
tex ty</w>
te ro
takový chto</w>
tak že</w>
systé mů</w>
sup porting</w>
su s</w>
střed is
stupo vat</w>
statisti cs</w>
stat us</w>
stanov it</w>
standar dis
stan ces</w>
st it</w>
spole č</w>
spojen ém</w>
spe k
součá st</w>
solidar ita</w>
směr nic</w>
simp le</w>
se para
s ám</w>
s z
s wi
s p</w>
roman ian</w>
regu lar</w>
regi ster</w>
refor my</w>
read ing</w>
re s</w></w>
re mind</w>
quot a</w>
pří rod
přimě řené</w>
přij me</w>
při stoupení</w>
přes ně</w>
před čas
před pis</w>
práv ním</w>
prote st</w>
problemati ku</w>
pre di
prav da</w>
pr ises</w>
pr i</w>
pr a</w>
poško zení</w>
potře b</w>
politi cká</w>
pokrač ování</w>
pod a
po zem
po sil
po h
plá n
plán ování</w>
pi e
perfor man
performan ce</w>
pe s</w>
pe ra
parlamen tní</w>
označ ování</w>
os n</w>
or e</w>
opera tional</w>
opera ting</w>
okam ži
od ůvod
obje v
ob jas
ob dr
o de
návr hem</w>
nástro jem</w>
no te</w>
nepochyb ně</w>
ne budeme</w>
naš im</w>
nan e
na víc</w>
na va
měk kého</w>
mys li</w>
mu ž
monit or</w>
mno ho
mlu v
milion y</w>
mezi vládní</w>
me t</w>
me an
mar gin</w>
m ou
lé tě</w>
lá ch</w>
logisti ku</w>
lisabon ské</w>
like ly</w>
li ve</w>
len ých</w>
le g</w>
large ly</w>
krá tk
koordiná tora</w>
kontro la</w>
konferen ci</w>
kan ad
k ru
ju di
ju d
ji žní</w>
její m</w>
jegg le
je te</w>
jak ý
j a</w>
is rael</w>
invest ments</w>
inter net</w>
inter governmental</w>
inten ds</w>
innov ation</w>
infor m</w>
influ ence</w>
inclu sion</w>
im munity</w>
i munity</w>
heal thy</w>
h ů
gh t</w></w>
geographi cal</w>
fung ovat</w>
fri en
for ced</w>
foe tal</w>
flexi bility</w>
fir med</w>
figu res</w>
fede ral</w>
fe t
fa ced</w>
extre me</w>
environment ální</w>
end or
effor t</w>
easi er</w>
e co
dí l
dyna mi
du ty</w>
doprav ě</w>
doprav a</w>
dolar u</w>
dod ané</w>
dob y
do čas
dlou h
dis abilities</w>
deta iled</w>
deci ded</w>
d r</w>
d p</w>
d on
cust om
cor porate</w>
contain ed</w>
constan tly</w>
conclu de</w>
comprehen sive</w>
com pu
colleag ue</w>
co .</w>
co -
chy bí</w>
cestu jících</w>
cel ého</w>
ca ble</w>
c op
byrokra cie</w>
budou cí</w>
broad ca
bod ů</w>
balí čku</w>
b le</w></w>
b </w></w>
ave rage</w>
au dit
at titu
aspe kte
appro a
appli es</w>
appe ar</w>
any one</w>
analý zu</w>
an ou</w>
an iž</w>
amoun ts</w>
ale spoň</w>
akci í</w>
ak ce</w>
ac y</w>
a w</w>
a tive</w>
a p</w>
3 3</w>
2 3.
199 9</w>
15 .00</w>
život y</w>
ži ly</w>
ž íme</w>
ž ity</w>
Žá dost</w>
škod livé</w>
šen y</w>
š ir
Španěl sku</w>
člensk ý</w>
červen ci</w>
červ na</w>
čen ím</w>
če lit</w>
č tě
č ný</w>
Č í
úlo ha</w>
ú mr
základ ním</w>
změ nu</w>
zmí r
zem ím</w>
zdravot ních</w>
zastav it</w>
zapomín at</w>
zahrani ční</w>
za vádě
z t</w>
y e</w>
w ns</w>
w ants</w>
vě jší</w>
vě dě
význam né</w>
výsled kem</w>
vá ny</w>
vzájem né</w>
využí vají</w>
vyplý vá</w>
vykon ávat</w>
vy uži
vy mez
vy hlá
vo jen
vlá d</w>
vliv u</w>
vli vem</w>
ver theless</w>
velk ým</w>
ve ments</w>
v dě
v ala</w>
v ac
uvědom it</w>
uplat nění</w>
u je</w></w>
těhot né</w>
těho ten
těhoten ství</w>
tur u</w>
tu n</w>
trag edy</w>
tr e</w>
ton nes</w>
th ly</w>
terorist é</w>
te li</w>
ta ges</w>
svět a</w>
svob od</w>
sup ply</w>
subjek tů</w>
stu dies</w>
sta ven
st rea
spravedl nosti</w>
spolu pracov
sp e</w>
sou n
socie ties</w>
sna d</w>
smlou vě</w>
slov y</w>
slov en
skuteč ností</w>
sk la
sion </w></w>
signifi can
significan tly</w>
sende rové</w>
sen sus</w>
sc ru
sa fe</w>
s rozu
s ac
růz nými</w>
rozhod ující</w>
rit éri
representa tive</w>
religi ous</w>
rela tion
regula ce</w>
refor mní</w>
reas on
re mov
re fu
ran ce</w>
ra ce</w>
r j
rj r</w>
případ ů</w>
příj mu</w>
přis pí
přirozen ě</w>
připo mně
předlo žil</w>
pá tek</w>
pur cha
prů bě
proto ko
prosaz ovat</w>
proc ent
pro ved</w>
pravomo c</w>
prak tické</w>
poz ná
pozná m
potřebu je</w>
posto jů</w>
posto j</w>
postav it</w>
poslan ce</w>
portugal sko</w>
port álu</w>
politi ckou</w>
politi ci
podni ka
poda ří</w>
pod ař
podař ilo</w>
po stupem</w>
pan el</w>
palest ini
palestini an</w>
pa ti
ov ého</w>
opě tov
opě t</w>
opera tors</w>
op ak
on es</w>
ok ru
of fers</w>
odstra ňování</w>
odpovída jící</w>
ob rá
o ther
ní zk
náklad ních</w>
nor m
no stech</w>
ni lo</w>
ne vertheless</w>
na z
n c
mů j</w>
mí ra</w>
mini mum</w>
mili tary</w>
meziná rodních</w>
medi a</w>
mechanis my</w>
me ps</w>
max im
main tain
lond ý
lo cated</w>
livo st</w>
leti ště</w>
lete ckých</w>
les ních</w>
langu age</w>
la test</w>
kva lity</w>
koordin aci</w>
kon solid
kom un
k ritéri
jim iž</w>
jedno značně</w>
jedno ho</w>
jedn om
j </w></w>
is on</w>
invol vement</w>
inter ne
integra ted</w>
integ rov
ing u</w>
incor pora
in s</w>
impro vement</w>
im pli
i mi</w>
i .
hrá t</w>
hovo říme</w>
hospodář ská</w>
hodno tu</w>
happen ing</w>
gre e</w>
galin ers</w>
ga in</w>
g ů</w>
funk ční</w>
funk ci</w>
for mer</w>
fir mly</w>
fak t</w>
fa mily</w>
f ru
f our
f all</w>
exper ts</w>
exer cise</w>
en cies</w>
elek tro
druh ý</w>
drin ks</w>
dota z</w>
dohod u</w>
do b</w>
di ed</w>
deta ils</w>
deli ver</w>
deleg ace</w>
deal ing</w>
d é
d ous</w>
d ings</w>
d ila</w>
cou n</w>
consid ering</w>
com ments</w>
ck ému</w>
ck ém</w>
cis m</w>
chair man</w>
cel ý</w>
ce sty</w>
cal ling</w>
bu y</w>
bro a
bod u</w>
blo ky</w>
bi r
bezpe č</w>
be h
at ory</w>
as y</w>
ameri ckých</w>
al ly</w></w>
ak tu
air ports</w>
air port</w>
advan tage</w>
accord ance</w>
ab sur
ab sor
a in</w>
9. 05</w>
5 </w></w>
5 5</w>
4 ,
. .</w>
. ..</w>
žádo sti</w>
ži v
ší mu</w>
škod liv
š et
říj na</w>
ří dit</w>
ře ší</w>
ěj ších</w>
čen i</w>
úče ly</w>
úvě ry</w>
úspor y</w>
úlo hy</w>
zí tra</w>
závis í</w>
zástup ce</w>
zvá žit</w>
za sa
z pochyb
z ně
z na</w>
work ed</w>
wee ks</w>
water way</w>
w ol
w an
wan ted</w>
všech na</w>
vě dět</w>
výz vy</w>
východ ní</w>
výbuš n
vý bě
vá žení</w>
vz ít</w>
vz bu
vo id</w>
vlast ně</w>
vis ory</w>
vi g
vešker é</w>
ve ra
v nějších</w>
v ar
užiteč né</w>
urg ent</w>
une mp
unemp lo
un necessary</w>
un ds</w>
tě m</w>
ty pu</w>
tu r</w>
tu </w></w>
tran sev
transev rop
tr žní</w>
tr val
tr o</w>
to ol</w>
ter </w></w>
tast rop
tar get</w>
takov ou</w>
t ter</w>
symbo l</w>
sub- prime</w>
su d
strá n
streng th</w>
stran ami</w>
sti mu
stanov í</w>
sta tion</w>
st ru</w>
st on</w>
st ent
st ali</w>
srozu mi
spolu rozhodování</w>
spe ech</w>
sociali st</w>
so le
směr u</w>
skuteč né</w>
simp son</w>
sig ná
si ves</w>
ship s</w>
see k</w>
sect ors</w>
se ll</w>
se l</w>
s éri
s ně
sně mov
roz manit
ro ky</w>
ris di
respon d</w>
redu ced</w>
rec ru
re s
re act</w>
rat ing
ra ising</w>
pří jem</w>
přispě t</w>
přeru šení</w>
předsed y</w>
předsed nict
před ání</w>
př en
pé če</w>
práv y</w>
práv ními</w>
propo jen
prop ag
prom ise</w>
projek tů</w>
prohi bi
proce ed
problemati ce</w>
practi ces</w>
pra cí</w>
poč á
povol ení</w>
považ ovat</w>
postup u</w>
poskytu jí</w>
politici ans</w>
politi cs</w>
poli sh</w>
pohy b</w>
podpor ujeme</w>
pochy b</w>
po vě
po va
po s</w>
pla te
pl né</w>
peně z</w>
pe vně</w>
pe v
pa yment</w>
p un
p sy
p ping</w>
p n
pn r</w>
p ers</w>
očekáv á</w>
ov acích</w>
ot ře
ostat ní</w>
osob ně</w>
osob ních</w>
os lab
organi zaci</w>
or teg
opráv ně
opak ovat</w>
ohro žení</w>
of fered</w>
odbor né</w>
oce ňuji</w>
obyva tel
ob zvláště</w>
ob li
o logy</w>
ní m</w></w>
ní ka</w>
nástro ji</w>
ná mi</w>
nu tri
nu cen
no rem</w>
ni koliv</w>
ni a</w>
new yor
nej lépe</w>
nebezpeč né</w>
ne mohou</w>
nc r</w>
naš imi</w>
nalé zt</w>
na </w></w>
mon th</w>
mobili ta</w>
mo l
minu lého</w>
minist ers</w>
min orities</w>
mil li
milli ons</w>
mi gran
men i
maxi mum</w>
mar ch</w>
man date</w>
main ly</w>
ma je
m ům</w>
lé ta</w>
lé d
low s</w>
lond on</w>
logisti ce</w>
logi cal</w>
lo an</w>
li fe
li a</w>
len ě</w>
legisla tivní</w>
le žit</w>
la ter</w>
la stly</w>
kul tury</w>
konzulta cí</w>
konzu m
kon tak
kon fli
kon ce</w>
kom bin
koli k</w>
koleg y</w>
katastrof ách</w>
ka za
ka tegori
ka </w></w>
k m</w>
k at
ju risdi
jin ý</w>
jednotliv é</w>
jednodu še</w>
jak ými</w>
j ist</w>
itá lii</w>
itu re</w>
iniciativ u</w>
il ls</w>
il l
i. e
i.e .</w>
hu </w></w>
hovo řili</w>
ha jí</w>
h á
h ned</w>
h la</w>
h at
geo grafi
g nan
g as</w>
fun kce</w>
fun ction</w>
fu n</w>
frank fur
forwar ding</w>
fi de
fide lity</w>
facilita te</w>
f áz
extre mis
exten d</w>
explo sives</w>
experi en
expen d
expend iture</w>
execu tive</w>
evrop ští</w>
es ses</w>
er a</w>
equip ment</w>
energe ti
e cb</w>
dě je</w>
dr a</w>
dopad ů</w>
doku d</w>
dob ro
do z
do w</w>
disku sí</w>
differ ences</w>
develop ments</w>
deci de</w>
de e
de ath</w>
de a
da pe
d lo</w>
d ali</w>
contin ues</w>
ci t</w>
ce le
ca tastrop
c ování</w>
c ed
busin esses</w>
bureaucra tic</w>
bureaucra cy</w>
bu dape
brit áni
brit ain</w>
bla ho
ben e
beli eves</w>
balí ček</w>
b p</w>
b ad</w>
avi ation</w>
asse mb
ambici ózní</w>
ad vo
accep ted</w>
a tion</w></w>
9 .00</w>
3 4</w>
3 1</w>
200 2</w>
20 15</w>
ž im
ško lní</w>
š ti</w>
š ovat</w>
ňu jících</w>
ň ové</w>
čí mž</w>
čas op
č er</w>
č ase</w>
účin ných</w>
úspě ch
úpl né</w>
í te</w>
é ance</w>
zů stat</w>
závis losti</w>
zástup ci</w>
zákon ů</w>
zákon a</w>
záj mem</w>
zá tě
zá jmů</w>
zvyš uje</w>
zvláš ť</w>
zpravodaj ce</w>
zne či
zkušen ostí</w>
zi stent
zdravot ním</w>
zamě řit</w>
zah ynu
z ů</w>
wor ld
world wide</w>
wel f
welf are</w>
we st
w ine</w>
ví ch</w>
vá na</w>
vzta hů</w>
vzta hu</w>
využí vat</w>
vykon áv
vy vážen
vy vol
vy ba
vra ž
volu n
vo dem</w>
vnitř ním</w>
vlá d
vlast ních</w>
vi r
ven ture</w>
ve s
valu able</w>
v an</w>
v </w></w>
uvádě ní</w>
u vít
u ses</w>
transpo sition</w>
tou ris
to ti
toti ž</w>
ti va
territ ory</w>
territ ori
teku tin</w>
te red</w>
tab ly</w>
t ách</w>
sí ť</w>
sz p</w>
su spe
stáv a
stron gly</w>
stri ct</w>
strategi í</w>
strategi es</w>
sto letí</w>
sti cké</w>
stat ing</w>
stand ard</w>
stake holders</w>
st op
st an</w>
spolu pracovat</w>
spo ke
sp ad
součas ných</w>
souhla s</w>
sou thern</w>
some times</w>
snad no</w>
smlou va</w>
sled ovat</w>
skupin u</w>
skot u</w>
sk é</w></w>
simpli fying</w>
shro má
shromá ž
shor tage</w>
ship building</w>
sha res</w>
sen si
se t
schů ze</w>
samot né</w>
s éance</w>
s par
s lab
s jedno
rádi o</w>
ry b
rozší řit</w>
rozprav u</w>
rozhod nout</w>
ro se</w>
region ů</w>
region y</w>
region u</w>
refer red</w>
reco gni
recei ve</w>
re žim
re vised</w>
ra t</w>
ra e
půj ček</w>
pří pravy</w>
přev á
předmě tem</w>
předložen ých</w>
předlo žit</w>
pře kva
pě ti</w>
práv ně</w>
prote cting</w>
prohlási la</w>
prohlá sil</w>
prode j</w>
pro dlou
prezi dent</w>
pre gnan
pregnan cy</w>
pre ad</w>
považ ujeme</w>
pou h
politi cký</w>
pol lution</w>
pok le
pochy by</w>
po š
po w
po ses</w>
po prvé</w>
per man
pa in
p la</w>
p alu
ozná mil
otev řené</w>
orteg a</w>
op í
okamži ku</w>
obvyk le</w>
obser v
obe zře
ob ran
ně né</w>
ně kdy</w>
ná sob
nezávis lý</w>
nej vět
ne přija
ne pře
ne musí</w>
ne jistot
ne chá
na znač
na vš
n y</w></w>
měsí ce</w>
míst ních</w>
mys let</w>
mobili tě</w>
mlé ce</w>
mid dle</w>
mi stake</w>
me me</w>
mc ca
mcca w</w>
mar ks</w>
mar i
madri du</w>
m on</w>
m as</w>
lob by</w>
lo s</w>
lin ed</w>
liberali sation</w>
libe ral</w>
li li</w>
les ní</w>
len ding</w>
legisla tivních</w>
la id</w>
kvó ty</w>
ku d</w>
kontro le</w>
konkurenceschop nosti</w>
konkré tních</w>
konfli k
kon zistent
klá dá</w>
k or
jí ch</w>
ju jí</w>
jeggle ové</w>
je st
j uje</w>
j te</w>
j ně</w>
innov ative</w>
informov an
inform ovat</w>
inf ring
immedi ately</w>
ide as</w>
i te
hod ně</w>
histori cal</w>
hear t</w>
h ování</w>
h eu
go es</w>
gi ves</w>
gi ble</w>
ge tting</w>
ga ve</w>
g dan
g bp</w>
fre qu
fran ce</w>
for get</w>
f as</w>
exclu sion</w>
examp les</w>
evropsk ému</w>
ev ent</w>
eston ia</w>
en s</w>
emplo ye
ele ctions</w>
efek tivní</w>
e ls</w>
du b
dodrž ovat</w>
docu ment</w>
do lo
do h
dne ch</w>
dialo gů</w>
demokra tů</w>
demokra tické</w>
dea ths</w>
de man
da ňové</w>
d va
ct </w></w>
criti cal</w>
cove red</w>
conside ration</w>
conne cted</w>
conce pt</w>
con vin
con sensus</w>
con ci
comple te</w>
commit ted</w>
co decision</w>
cháze jící</w>
chan ging</w>
ch o</w>
cen u</w>
care fully</w>
c li
bu tter</w>
ban ka</w>
b s</w>
audit ors</w>
associ ated</w>
assemb ly</w>
as i</w>
anti ci
ans wers</w>
an u
an ge
amoun t</w>
ameri cké</w>
ak čního</w>
af ter
abs ence</w>
a void</w>
a head</w>
7 0</w>
6 7</w>
2 ,
žád ná</w>
život ů</w>
šen é</w>
še st</w>
ě ji</w>
čist ý</w>
úřad y</w>
úmr tí</w>
úko lem</w>
é ž</w>
é m</w></w>
zá no</w>
zví ř
způsob ů</w>
zlep šování</w>
zen y</w>
zdůraz nila</w>
zahá jen
zach ování</w>
za slouží</w>
za m
za ká
za jist
z važ
z mi
z bran
y us
yus z</w>
y sl
y mp
wron g</w>
wol ski</w>
w a</w>
vě nov
výrob u</w>
vý nos
vý jim
vý hod</w>
vál ky</w>
vá ch</w>
vzděl áv
vyjád ření</w>
vy rov
vy pracovat</w>
vera ges</w>
velk á</w>
ved ou</w>
va ší</w>
va i</w>
v nit</w>
uspoko ji
uni í</w>
unemplo yment</w>
un i</w>
un anim
ukon čena</w>
u vnitř</w>
u de</w>
tý den</w>
tvo ří</w>
tur ned</w>
treat ment</w>
transatlan tic</w>
trans ported</w>
tragi c</w>
tot éž</w>
too ls</w>
tick ého</w>
ti to</w>
ti ally</w>
thir dly</w>
ther </w></w>
terro r</w>
ten s</w>
tel ství</w>
tax es</w>
takov ého</w>
tak z
tab á
t ům</w>
t ří
t á
syndro me</w>
sup ports</w>
suf fered</w>
sub sequ
su n
střed o
střed ním</w>
střed ních</w>
studi i</w>
stron ger</w>
sto rage</w>
statu t</w>
st ních</w>
srp na</w>
správ ným</w>
správ ního</w>
spoko jen
spo třeba</w>
soun d</w>
sociál ním</w>
sm r
služ bách</w>
situ ací</w>
silni cích</w>
sig n</w>
shipy ards</w>
secu re</w>
se min
se ction</w>
se as
sar yusz</w>
sa my</w>
s pr
s ove
sove re
s ent</w>
s an</w>
rá m</w>
rychle ji</w>
rumun ska</w>
ru sko</w>
ru skem</w>
ru ch</w>
rozpor u</w>
rov nost</w>
repe al</w>
relation ship</w>
recor d</w>
rea d</w>
re sol
re sid
re pr
re n</w>
rap i
rapi dly</w>
rail ways</w>
ra ted</w>
ra kou
qu i</w>
qu ali
přísluš ných</w>
pří zni
přin e
přev ody</w>
předložen é</w>
před ví
pře ji</w>
publi shed</w>
prá zd
proved ení</w>
profession al</w>
pro střed</w>
pro sa
pro motion</w>
pro hla
prezi dent
preven tive</w>
pr vo
poč í
pozměňov acích</w>
pos al</w>
poru šení</w>
port </w></w>
por tation</w>
pok les</w>
podstat ě</w>
podob ě</w>
pochop i
po vodně</w>
po st
plan ned</w>
pla ying</w>
pil lar</w>
peop les</w>
pas s</w>
part ner</w>
p ál
oznámil a</w>
ovan ý</w>
ov ou</w>
ov ní</w>
other wise</w>
or m
op posed</w>
on s</w></w>
om in
ol ymp
okamžit ě</w>
odstran it</w>
od u</w>
od stav
od rá
od ob
od hal
od e</w>
occur red</w>
obě ti</w>
obchod ních</w>
ob novu</w>
násled ný</w>
ná růstu</w>
ni mž</w>
nevyhnu telná</w>
nej lep
ne zákon
ne za
ne sty</w>
ne mohu</w>
ne mají</w>
ne ither</w>
navš tí
nadměr né</w>
na tion
na ději</w>
n t</w>
n omin
n aru
může te</w>
mo des</w>
mnoho krát</w>
mléč ného</w>
mla dist
minu lý</w>
main tain</w>
ma yer</w>
m ém</w>
m bi
lor ries</w>
lo sses</w>
lo </w></w>
li es</w>
less ons</w>
lead ers</w>
l íme</w>
l ying</w>
l hů
l ds</w>
kro ků</w>
kon ci</w>
komplex ní</w>
komisař ka</w>
ko sov
kaz y</w>
ka jí</w>
k ů</w></w>
k tivní</w>
jí mž</w>
jas ný</w>
jaké koli</w>
jader né</w>
j m</w>
ish ed</w>
is mu</w>
investi ční</w>
interpre tation</w>
intellig ence</w>
individu als</w>
indi cate</w>
inc en
in ter</w>
in i</w>
ig no
identi fy</w>
hroz ba</w>
hom es</w>
hod né</w>
hla s</w>
high light</w>
high est</w>
hi m</w>
he avy</w>
he ar</w>
harmoni zace</w>
ha si
gro w</w>
grea test</w>
gra du
gdan sk</w>
g st</w>
funk čních</w>
fron t</w>
fre d
for d</w>
flexi ble</w>
fi xed</w>
fi kov
f ó
f in</w>
f f
f an
exist s</w>
evid ence</w>
enter prises</w>
encoura ging</w>
en vis
en try</w>
en orm
employe es</w>
elektro ni
ele ments</w>
el se</w>
ed ing</w>
e re</w></w>
e asy</w>
důvod y</w>
děl níků</w>
dyna mic</w>
dro p</w>
dosáh li</w>
doby tka</w>
dob rou</w>
dis posal</w>
di l</w>
destro yed</w>
den ně</w>
den mark</w>
decisi ve</w>
dal šími</w>
dai ly</w>
d ing</w></w>
concentra te</w>
con ta
comple tion</w>
commer cial</w>
colla bo
clo ser</w>
clar ity</w>
citi zen</w>
circum stances</w>
chví li</w>
chil d</w>
centr a</w>
ca using</w>
ca tion</w></w>
c ra</w>
c ou</w>
c ent</w>
c .</w>
bý vá</w>
bur den</w>
bulhar ska</w>
budge ts</w>
bri ef</w>
bo w
bez pochyby</w>
be verages</w>
be ings</w>
ba mi</w>
b ing
availa bility</w>
autom a
au tor
au stri
attemp t</w>
as </w></w>
ar ise</w>
ap plying</w>
anti -terrorism</w>
amon gst</w>
am nesty</w>
alkoho lis
al lowing</w>
ak tivní</w>
adjour ned</w>
ac ting</w>
6 5</w>
4 7</w>
3 9</w>
199 4</w>
1 0.
žen ím</w>
ž ím</w>
ště stí</w>
šen í</w></w>
řád ně</w>
řidi če</w>
ři ly</w>
řek la</w>
ře tí</w>
ě ny</w>
čin í</w>
č uje</w>
č tí</w>
č t
ý mi</w></w>
úto ky</w>
úspěš ně</w>
úspě chu</w>
úro kové</w>
ú stav
á t</w>
á no</w>
Ú če
zří dit</w>
zúčastně ných</w>
záležito stech</w>
zá kaz</w>
zvý ší</w>
zvyš ování</w>
ztrá ty</w>
způsob u</w>
zne u
zje v
ze </w></w>
zdravot ně</w>
zač ala</w>
zat řetí</w>
zar dous</w>
zaměst nava
založen a</w>
za řa
z vo
z kla
z jistit</w>
z ce</w>
x u
west ern</w>
we a
wa sh
wash ing
w il
vš ude</w>
většin ou</w>
vědom i</w>
věd í</w>
vě ku</w>
výda je</w>
výbušn in</w>
vý stav
vzta huje</w>
vz dá
vyu žití</w>
vylou čení</w>
vyjád řila</w>
vyjád řil</w>
vy chází</w>
vrá tit</w>
veřej nou</w>
ved ení</w>
ve s</w></w>
val y</w>
va ti
v z</w>
v ul
v stup
v ries</w>
v ení</w>
usu ra</w>
urč ené</w>
urg ently</w>
uni ver
una c
unac cep
unaccep table</w>
ul ti
u vést</w>
u si
u káz
tvr d
tr vat</w>
tr en
touris m</w>
top ic</w>
tiv ním</w>
tionali sation</w>
ti vely</w>
ti cal</w>
thu an
ter ia</w>
te s</w></w>
ta pe</w>
ta bility</w>
t led</w>
t j</w>
svobod ná</w>
svo ji</w>
sv á</w>
suf fering</w>
sub mit</w>
stoup it</w>
sto od</w>
standardis ation</w>
st ví</w></w>
st mi</w>
společen stvím</w>
spe ed</w>
soustřed it</w>
soudrž nost</w>
so ci</w>
sk vě
sk on
sin ci</w>
si vní</w>
si tes</w>
si ce</w>
sho p</w>
ser ved</w>
sen sible</w>
se ven</w>
schop na</w>
saz by</w>
satis fac
safe guard</w>
s vět</w>
s myslu</w>
s mu
s l</w>
s ale</w>
ryb ář
rozpoč tové</w>
roz měr</w>
rou tes</w>
rost ou</w>
ro ni
ri c</w>
reven ue</w>
republi ky</w>
ren e
regula te</w>
region ech</w>
refor ms</w>
refor ma</w>
refle ct</w>
reali se</w>
re ži
re ite
re infor
r it</w>
půjč ky</w>
přím ých</w>
přiná ší</w>
přiměřen á</w>
přesvěd čeni</w>
přeprav ě</w>
překá ž
předmě t</w>
předklá dá</w>
před sed</w>
pě st
pur pose</w>
práv u</w>
prud ential</w>
proceed ings</w>
problé mům</w>
pro ve</w>
pro ud</w>
pro sinci</w>
pro du</w>
presen ting</w>
pre mi
pre ced
pre -
pracu jí</w>
požad a
postup ně</w>
poslan kyně</w>
poskyt nu
poskyt ly</w>
politi ci</w>
podí le
podpo r</w>
podob né</w>
podo tk
podni k</w>
pochop it</w>
po u</w>
po st</w>
plá nuje</w>
pl nou</w>
pie ce</w>
pe č
patriar ch
part ne
over -
out come</w>
ou ring</w>
ou n</w>
ost rov
ori enta
ord in</w>
or gi
opini ons</w>
opatřen ími</w>
on e
ologi cal</w>
ohro ž
odstran ění</w>
och ot
ob ě</w>
o s</w>
ní ho</w></w>
ná h
ni či
neu stá
nejdůležit ější</w>
nega tivní</w>
nedostat ku</w>
necess arily</w>
ne měly</w>
ne měla</w>
ne leg
ne hod</w>
ne ch</w>
ne arly</w>
nabíd ka</w>
na vý
na pl
na b
n ment</w>
myšlen ky</w>
muž ů</w>
moder ní</w>
mobili tu</w>
mluv čí</w>
mili on</w>
mi ž</w>
men ší</w>
mechanis mus</w>
mati c</w>
ma ga
maga z
m s</w></w>
m oda
m n</w>
liv ou</w>
lim its</w>
liberadzk i</w>
li ší</w>
li thuan
li sts</w>
leto š
leta del</w>
len o</w>
lear n</w>
lea ve</w>
le ží</w>
le tov
le rs</w>
laun ched</w>
lar ger</w>
la n</w>
l t</w>
ku po
krátk odob
konstat ovat</w>
kon zer
klíčov ým</w>
kla si
kdy bychom</w>
každ á</w>
ka zem</w>
ka pac
k ý</w>
k en
jin ým</w>
jin ého</w>
ji ho
její ž</w>
jedin ým</w>
jedin ý</w>
jako ž</w>
j ila</w>
invol ving</w>
inve stic</w>
inve st</w>
introdu cing</w>
interest ed</w>
inten ded</w>
in ě</w>
in u</w>
in sufficient</w>
in spi
impro vements</w>
im migration</w>
ign s</w>
ig nor
identi fied</w>
i or</w>
hun g
hung ary</w>
hu man
hodno tí
ho c</w>
high ly</w>
he k
he cta
hecta res</w>
he ard</w>
ha zardous</w>
ha vi
h lou
h i</w>
gro unds</w>
gre en</w>
go als</w>
go al</w>
globali zace</w>
fu l
fore ca
for mu
for ma
fli ghts</w>
fin land</w>
figh ters</w>
fe a
fac ts</w>
f é
expres sion</w>
expla in</w>
exce p
ev rop</w>
estima ted</w>
equ ity</w>
equ ally</w>
enti rely</w>
en de
emis sions</w>
ele cted</w>
dů vod</w>
duš ev
dostup né</w>
domá c
doku ment</w>
doda teč
dobro vol
dob a</w>
do jde</w>
dist or
diskutov ali</w>
dis ci
disci pl
direc ted</w>
deva stating</w>
determin e</w>
de ca
daňov ých</w>
d ce</w>
cu l</w>
ct ors</w>
cri teria</w>
coun ter</w>
cou rage</w>
corre ct</w>
coordin ated</w>
consid ers</w>
condu ct</w>
con trover
con solida
con firmed</w>
co operate</w>
co her
cla ssi
cháze jících</w>
cho sen</w>
chara c
chan ged</w>
cha mber</w>
cest ovní</w>
cent ů</w>
cen ts</w>
cel kové</w>
ce lou</w>
campa igns</w>
ca p</w>
c tual</w>
budouc nu</w>
br zy</w>
bing e</w>
bi o
beh ind</w>
be havi
be gin
be came</w>
b lat
b 6</w>
at mo
asse ts</w>
aspekte ch</w>
ari an</w>
appro xi
appe ars</w>
appe al</w>
an ého</w>
alterna tive</w>
advan tages</w>
adop ting</w>
ací ho</w>
ac tual</w>
a f</w>
4 6</w>
4 3</w>
0 0
0 /
žád ném</w>
žá dám</w>
život ním</w>
ži to</w>
žen ý</w>
že me</w>
ž ď
šen ého</w>
šen o</w>
šen a</w>
še jí</w>
š ují</w>
š kr
š em</w>
řád né</w>
Ř í
čin y</w>
č ující</w>
úřad u
ú mlu
závaz ků</w>
záva zek</w>
zá ch
zách ran
ztrá tu</w>
způsob ených</w>
zo zem
znamen at</w>
zk ý</w>
zen ím</w>
zdů vod
začá tek</w>
zasta ra
zaji ště
za váz
z pož
z ba
z </w></w>
y ments</w>
y i
wi der</w>
wel com
welcom ed</w>
wa ste</w>
wa it</w>
w o
w n
w ent</w>
všeobec né</w>
význam ný</w>
význam nou</w>
výz vu</w>
výkon u</w>
vzděl ání</w>
vyžad ují</w>
vytvá ří</w>
vysvět lení</w>
vy vin
vy ty
vy pracování</w>
vy mě
vy hov
vy </w></w>
vol ného</w>
voj násob
vnitrostát ním</w>
vlá dě</w>
vil la
vid íme</w>
ved ou
ved ly</w>
ved en
v š</w>
v lá</w>
us d</w>
urč en
uni t</w>
undermin e</w>
umož ňuje</w>
uf man</w>
u ž
u spo
u ložen
u jících</w>
u aw</w>
té matu</w>
tu mn</w>
trans portation</w>
tradi tional</w>
tra g</w>
toubon a</w>
tho rou
th or
tele vision</w>
tele fon
techni cké</w>
te ful</w>
tar ů</w>
takov ých</w>
tak ová
taková to</w>
t kem</w>
t ini
sí tí</w>
syste ma
symbo li
swi ft</w>
sur ve
sur pr
sup posed</w>
sum mar
substan tial</w>
su sh
struk turu</w>
stru čně</w>
sto ři</w>
sti l</w>
stan ds</w>
sta ro
st ů</w>
st ře
st í</w></w>
st ant</w>
správ y</w>
správ ná</w>
spravedl nost</w>
spojen ého</w>
spo n</w>
spar y</w>
sp ir
součas ná</w>
soukro mý</w>
soli d</w>
so lu</w>
sli p
slip ways</w>
sled ování</w>
skla d
sk ému</w>
sit cen</w>
simpli fy</w>
sig nature</w>
si d</w>
shro ma
shroma žď
shor t
sha red</w>
sen blat
see king</w>
se xu
se stav
se em</w>
scru tiny</w>
scienti fic</w>
schen gen
sch e
sa les</w>
sa dly</w>
s op
s mo
rámcov ého</w>
russi an</w>
rumun sko</w>
rozhod li</w>
rozhod la</w>
ro senblat
ris ing</w>
revi dov
recogni tion</w>
recogn ise</w>
re moving</w>
re min
re member</w>
ra r
působ í</w>
pů vodní</w>
příspěv ky</w>
přísluš né</w>
přistěhov ale
přijí má</w>
přijat é</w>
přezkou mání</w>
představ it</w>
předpo kladem</w>
pře su
pře h
prost ě</w>
proje vu</w>
prof it</w>
produc tivity</w>
pro ven</w>
pro pu
pro b</w>
prim arily</w>
pri or</w>
pri l</w>
pre par
pre limin
prelimin ary</w>
prax i</w>
pracov níky</w>
požád al</w>
požadav ků</w>
požada vek</w>
považ uje</w>
použí vat</w>
posti žení</w>
poslan ců</w>
pos sibly</w>
port ál</w>
politi kou</w>
politi ckým</w>
politi cky</w>
politi cally</w>
pokle su</w>
poděkov ala</w>
podpo řil</w>
podpo rov
podni ku</w>
podmín kách</w>
pode pis
po vodní</w>
po ně
poně kud</w>
po nech
po hledu</w>
plat nost</w>
pla yed</w>
pl ant</w>
partici p
parlamen tních</w>
palu bu</w>
pa yments</w>
pa mě
pamě ti</w>
p al
očekáv at</w>
ozna čení</w>
ovan ých</w>
ov a</w>
ou s</w></w>
ostat ních</w>
orgá nu</w>
organi zovan
okol ností</w>
od li
occa sions</w>
občan ských</w>
ob vious</w>
o stra
o rem</w>
ně ním</w>
ně muž</w>
náz vem</w>
nut nost</w>
nu tím</w>
nor my</w>
no tably</w>
no body</w>
ni zozem
ni miž</w>
ni m</w>
neighb our
ne znamená</w>
ne z</w>
ne l</w>
navrh nout</w>
navr hu
na š</w>
na hra
mě ří
mír ně</w>
mí r</w>
mysl í</w>
muse li</w>
mus li
mo tiv
mo h</w>
mnoh ých</w>
mléč né</w>
minu te</w>
me et
meet ings</w>
mat sush
manu fac
ma ta
ma ssive</w>
ma r</w>
ma c</w>
m y</w></w>
m ně</w>
lé vai</w>
lá me</w>
lá m</w>
lu mbi
lisabon u</w>
lid u</w>
li í</w>
li v</w>
li gent
letiš tích</w>
len ím</w>
leg ally</w>
le žito</w>
large st</w>
l .
kva lit
kul tu
kr mi
konzer va
kon cep
kon cem</w>
kom is</w>
koleg y
každ ého</w>
kaž do
katastro fa
katastrofa mi</w>
ka ufman</w>
ka pacity</w>
k ře
k ých</w>
k vět
k ra</w>
k ot
k ing
king dom</w>
k es</w>
jud g
jin á</w>
jednom ysl
jedno znač
jedno tek</w>
jedin ého</w>
ja ce
jace k</w>
j in</w>
isla mic</w>
ir sku</w>
invol ve</w>
inten d</w>
inte ligent
indu stri
incorpora ted</w>
in su
in sist</w>
in es</w>
i ze</w>
i e</w>
hu manit
hrani cích</w>
hra je</w>
hovo řil</w>
hlu bo
hlav ními</w>
hlas ovali</w>
hlas ovala</w>
hel ping</w>
hek tarů</w>
head ing</w>
han d
h mata
h al</w>
guarante ed</w>
gra teful</w>
gh </w></w>
gen der</w>
g ence</w>
g an
fáz i</w>
funda menta
fred die</w>
foun da
founda tions</w>
for mě</w>
fogliet ta</w>
fin an</w>
fi r</w>
faci lities</w>
fa st</w>
f u</w>
f o</w>
f ish</w>
f il
f f</w>
experi ences</w>
ex plan
ex ac
evrop an
every where</w>
europo lu</w>
euro just</w>
et c.</w>
ep c</w>
environment álních</w>
ent h</w>
energi e</w>
en ron</w>
en jo
efektiv nější</w>
ef ly</w>
ed s</w>
dě di
dí l</w>
dá na</w>
dru žení</w>
dru hy</w>
dru g</w>
dra wing</w>
doporu č
dokáz ali</w>
dodáv ané</w>
do or</w>
dis pu
dis po
dis ability</w>
dimen ze</w>
deri va
der </w></w>
demokra cii</w>
deman ds</w>
dela y</w>
def end</w>
def en
decla rations</w>
dec line</w>
deba ted</w>
de set</w>
de gree</w>
de centrali
dan í</w>
dan gers</w>
dal šího</w>
cí li</w>
custom ers</w>
cour ts</w>
coordin ate</w>
contain s</w>
constru ctive</w>
consolida ted</w>
consist ent</w>
consist ency</w>
conside rable</w>
confli ct</w>
con ge
competen ces</w>
com ply</w>
com pla
com m</w>
collabo ration</w>
chy l
cho dem</w>
chan ce</w>
cha in</w>
ch ri
ch ování</w>
ch i</w>
cent res</w>
cen tury</w>
cel á</w>
can ada</w>
ca tegori
ca spary</w>
ca r</w>
c vi
c ti</w>
c ope</w>
bur nt</w>
buil t</w>
bot tom</w>
bot t
bo e
behavi our</w>
be ar</w>
barni er</w>
bac ked</w>
b oun
b ou
b it</w>
avoi ding</w>
au tumn</w>
au to</w>
at tra
aspek t</w>
as sure</w>
ari es</w>
appreci ate</w>
appli cable</w>
ap par
ak ty</w>
administra tivní</w>
addre ssing</w>
ad ju
ac qui
a pril</w>
; </w></w>
9 ,
8 .
5 8</w>
5 1</w>
2 50</w>
199 2</w>
0 0</w></w>
žád á</w>
šir ší</w>
ši ly</w>
š il</w>
řízen ím</w>
řen ím</w>
ře cké</w>
řa dou</w>
čá ste
čtě jší</w>
čty ř</w>
člen it</w>
účin nější</w>
úrov ně</w>
ú zem
ú pravy</w>
ár ní</w>
ál ními</w>
á z</w>
á ty</w>
závaž né</w>
zása da</w>
záp as
zá zna
zpravodaj ka</w>
zneči štění</w>
změ nou</w>
zk va
zkva lit
zjednodu šit</w>
zer o</w>
zeměděl ců</w>
ze pt
zdra vé</w>
začleně ní</w>
zač le
zač ali</w>
zapo jit</w>
zapo jení</w>
zaměřen ých</w>
zaměstn ání</w>
založen é</w>
zají má</w>
za zně
za myslet</w>
za cí</w>
z pět</w>
z pracování</w>
z pracov
z opakovat</w>
z ku</w>
wor th</w>
wor rying</w>
wi de
wide ly</w>
where by</w>
wee k
we b
w ri
vě j
vě d</w>
výno sy</w>
výmě ny</w>
vít áme</w>
ví ce
vzni k</w>
vyš et
vysí lání</w>
vyh nout</w>
vy členě
vy stoupení</w>
vy rovn
vy pad
vul ne
vulne rable</w>
volu me</w>
vie wed</w>
vi dět</w>
ve čer</w>
v ého</w>
upozor nil</w>
uplatň ují</w>
under taken</w>
under stood</w>
under standing</w>
uložen á</w>
udržitel ného</w>
u tr
tře tího</w>
těž ké</w>
těž ká</w>
té ma</w>
té ma
tvor bu</w>
trv ale</w>
tru ly</w>
trans fer</w>
tragé die</w>
tragé di
to wns</w>
to lta</w>
thou ght</w>
tex as</w>
teri o
te a
targe ted</w>
tan gible</w>
ta j
t ob
tob ac
tobac co</w>
t ari
svobod a</w>
sup pli
sun day</w>
sugge st</w>
su šeného</w>
su rely</w>
stát ních</w>
stoup il</w>
sto cks</w>
spoke sman</w>
spo jení</w>
sp ě</w>
sp ent</w>
sou hr
souhr n
sor t</w>
sm es</w>
slo v</w>
sklad ování</w>
sk im
skim med</w>
sil né</w>
si ze</w>
si des</w>
sh ear
sev enth</w>
sensi tive</w>
secre t</w>
se zó
se where</w>
se bou</w>
sch edu
sc ot
satisfac tory</w>
s ů</w>
s vými</w>
s on
s lo</w>
s ity</w>
s fé
s al
rumun sku</w>
rozpočtov ého</w>
roz měr
roz mě
rovnová hu</w>
rosenblat t</w>
ro ste</w>
ro kem</w>
ro d</w>
rizikov ými</w>
reži m</w>
reál né</w>
rej stří
regu lovat</w>
recogn ised</w>
re ta
re place</w>
re da
rat ings</w>
ra id</w>
ra cion
r rb</w>
r ence</w>
questi on
pů vodně</w>
případ y</w>
přím é</w>
pří čin</w>
připomín ky</w>
připomně l</w>
přin es
přij al</w>
při hlí
přesvěd čena</w>
před u</w>
před em</w>
před e
před cházet</w>
pře krač
průbě hu</w>
prü m</w>
prá vem</w>
prv ních</w>
prozkou mat</w>
provádě cí</w>
prospě š
prosper ity</w>
proportion ate</w>
produ ctive</w>
probí há</w>
problemati ka</w>
pro spe
pro since</w>
pro mo
pro káz
pri vati
prak ticky</w>
prak ti
pracu je</w>
požár ní</w>
pozmě ňující</w>
poz o
povin nosti</w>
pou žity</w>
potenci ální</w>
pos ing</w>
poli cie</w>
pode ps
pod lé
pochyb nosti</w>
po vede</w>
po plat
po mal
po ji
plá nová
plan ts</w>
pla cing</w>
pl ném</w>
peti ce</w>
pers on</w>
per spe
particip ate</w>
pad u</w>
pa rate</w>
oček ávání</w>
otá z</w>
otev ře
osvěd čených</w>
ostat ními</w>
or i</w>
oprav ného</w>
op tions</w>
offi cial</w>
off ences</w>
odpověd né</w>
odbor ů</w>
odbor níků</w>
od sou
obč an</w>
obli ged</w>
obje mu</w>
obezře t
obec né</w>
obdr že
ob tain
něj ž</w>
ně ná</w>
ně kdo</w>
ní me</w>
náz ory</w>
náv r</w>
násled ně</w>
námoř ní</w>
ná tla
nor th</w>
nor ma
no ti
newyor ské</w>
nes l</w>
neighbour ho
ne zapo
ne stačí</w>
ne j</w>
navr huje</w>
nadměr nou</w>
nabíd ku</w>
na sto
na le
n ům</w>
n ých</w></w>
n ou
mě st
míst ě</w>
má sla</w>
mu r
mož ností</w>
monito rov
mode lu</w>
mod al</w>
mo s</w>
mo ral</w>
minist er
minim ální</w>
mini -
mezinárod ního</w>
mb ers</w>
manu el</w>
ma te
m ým</w>
m no</w>
m alo
lu </w></w>
lo se</w>
lo ha</w>
lin u</w>
lim it
li cen
li ation</w>
letov ého</w>
les y</w>
len y</w>
led na</w>
le vi
la tions</w>
la l</w>
l rb</w>
l ové</w>
l kov
ku je</w>
kr ý
kr vi</w>
kontro lou</w>
komuni ka
koleg ů</w>
ko m</w>
klíč ové</w>
katastrof ám</w>
kapit ál
ka m</w>
k ální</w>
k ry
k odifi
jící mu</w>
jurisdi ction</w>
jo in</w>
jin de</w>
její mž</w>
jednotli vými</w>
jednodu ch
jedin ě</w>
jas nou</w>
j u</w>
j s</w>
j ar
j acqu
jacqu es</w>
it ou</w>
isla misti
is lands</w>
investi g
interne tu</w>
intenzi vnější</w>
inten tion</w>
intellig ent</w>
institu tionalisation</w>
iniciativ a</w>
infra structures</w>
informa čních</w>
indi cat
increa ses</w>
inc .</w>
in ely</w>
im possible</w>
im port</w>
ide lines</w>
hru b
hospo da
hol ding</w>
hlu b
highli ghted</w>
hi c</w>
hel ped</w>
hab it
h nutí</w>
h ance</w>
gu idelines</w>
gover ning</w>
gov ina</w>
genu inely</w>
genu ine</w>
gener ální</w>
gene ration</w>
g re</w>
g ot
g mati
g am
gam es</w>
funda ment
fu tures</w>
frien dly</w>
four th</w>
for um</w>
figu re</w>
fie lds</w>
fi kace</w>
fi c
fak torem</w>
fac tor</w>
explo it
ex tra
ex changes</w>
evropsk ými</w>
ess enti
es s</w></w>
er t</w>
er o</w>
en ty</w>
en hance</w>
en han
el sewhere</w>
ekonomi cké</w>
easi ly</w>
e ty</w>
e th
e state</w>
e men
e c
dědi ctví</w>
dě lat</w>
dá l</w>
druh ů</w>
dovo lit</w>
dov ed
do kazují</w>
dne ss</w>
dlouhodob é</w>
disea se</w>
dis semin
di g</w>
deser ve</w>
descri bed</w>
deri vá
demonstra ted</w>
demonstra ce</w>
defini tion</w>
defin ed</w>
deca des</w>
deal t</w>
de terio
de signed</w>
de part
de m</w></w>
de fici
de -
de- institutionalisation</w>
dan ou</w>
dal o</w>
da ble</w>
da </w></w>
d ry</w>
d ili</w>
convin ced</w>
contra di
conserva tion</w>
con stant</w>
con firm</w>
con dem
comb ined</w>
cház ení</w>
chu době</w>
chi ef</w>
che cks</w>
chara kter</w>
categori es</w>
cat tle</w>
c over
c ode</w>
by </w></w>
bu ying</w>
boj ovali</w>
boe ingu</w>
bo hat
bi lateral</w>
bi d</w>
bene fi
be comes</w>
bankov ní</w>
b all</w>
auth ority</w>
auth or</w>
austri a</w>
au to
attitu de</w>
aspek ty</w>
as sist</w>
ar ri
ar d</w></w>
appoin ted</w>
announ ced</w>
an ými</w>
al located</w>
af raid</w>
adjour nment</w>
ad </w></w>
accord ingly</w>
ab and
a z
a part</w>
a e
0 13
život ě</w>
železni ci</w>
že </w></w>
ž ilo</w>
ší me</w>
ško l
š ke
ške rou</w>
š et</w>
ří dí</w>
řeč níka</w>
řen í</w></w>
řen y</w>
řen a</w>
ředi telství</w>
ře šením</w>
ře ckých</w>
ň ujeme</w>
ň </w></w>
ě na</w>
čí ch</w>
čt ení</w>
čast ěji</w>
č ní</w></w>
č ilo</w>
účin něji</w>
účin ný</w>
úto kům</w>
úspě ch</w>
ú zké</w>
ú zce</w>
á n</w>
Úmlu va</w>
závis lost</w>
závaz né</w>
zá c
zvíř at</w>
zvyš ují</w>
způsob ily</w>
zneuží vají</w>
znepoko ji
znalo stí</w>
zi m</w>
zen o</w>
zdro jem</w>
začá tku</w>
zau j
zasáh ly</w>
zastav ení</w>
zach ovat</w>
zabý váme</w>
za stup
za les
za kot
z ři
z vyk
z rani
z prostřed
z ována</w>
z ované</w>
z odpovědnost</w>
z hodnotit</w>
z dr
yor ku</w>
wor st</w>
where as</w>
we red</w>
wa iting</w>
w on
w ed
vše obecně</w>
vše ho</w>
vědě li</w>
vědom a</w>
vě nuje</w>
vě nová
vě dom</w>
význam ná</w>
vývo ji</w>
vývo je</w>
výsled ku</w>
výrob ní</w>
výrob ce</w>
výjim kou</w>
výda jů</w>
východ ě</w>
výbě r</w>
výbo rem</w>
vý še</w>
vý sledek</w>
vý lu
vý hra
vzá jem</w>
vzta zích</w>
vz bud
vyvol ává</w>
vysí lá</w>
vysvět lit</w>
vy víje
vy vod
vy vo
vy slov
vy nu
vy jednáv
vlast nictví</w>
visi ted</w>
villa ges</w>
vi di
vi a</w>
vhod ná</w>
ver heu
velk ého</w>
vehi cle</w>
ved l</w>
ve škerou</w>
ve z
ve stock</w>
valenci an
va mi</w>
va jících</w>
v čas</w>
v s</w>
v ané</w>
uvědom ujeme</w>
uvaž ovat</w>
usu al</w>
usi lu
uprav ují</w>
under taking</w>
u sil
u kazuje</w>
tře ch</w>
tí nez</w>
tí me</w>
tvor bě</w>
tur ning</w>
tu n
tu jí</w>
trž ních</w>
tro chu</w>
tradi tions</w>
tra n</w>
tra ck</w>
tr pí</w>
tr end</w>
tot ally</w>
tor ture</w>
to p</w>
tisí ce</w>
ti la</w>
there by</w>
ther lands</w>
terori sty</w>
ter ri
terri ble</w>
te prve</w>
te am</w>
tax ation</w>
ta sk
ta dy</w>
t ý</w>
sí lu</w>
systemati c</w>
sym pa
super visory</w>
super vision</w>
sugge stion</w>
sugge sti
suggesti ons</w>
such o</w>
subsi dies</w>
sub committee</w>
su i
střed ě
střed omo
stá tě</w>
stej nou</w>
statisti ky</w>
stanov ených</w>
st rov
st ra</w>
správ ný</w>
spotřebi tel
specu lation</w>
speak ers</w>
sovere ign
součas ný</w>
souvise jí</w>
sour ce</w>
soukro mí</w>
souhla sit</w>
sou d</w>
sol v
sociali sti
so ld</w>
sly še
slov o</w>
skuteč ný</w>
sku teč</w>
sk ých</w></w>
sk lu
shromáž dění</w>
sho wing</w>
shi re</w>
shi d
sh ing</w>
seve ro
sel ství</w>
sel ling</w>
see ing</w>
se parate</w>
se hr
sdě lil</w>
schval ování</w>
scho pen</w>
sch li
san trag</w>
sa ma</w>
s ť
s va
s sible</w>
s qu
s in</w>
s děl
ru ption</w>
rozši řování</w>
rozsáh lé</w>
rozprav ě</w>
rozhov orů</w>
rozhov ory</w>
rozdí ly</w>
roz ví
rovnová hy</w>
rod iny</w>
ro un
ro b</w>
režim u</w>
respe ctive</w>
res cu
ren ch</w>
rela tively</w>
rejstří ku</w>
recru it
recruit ment</w>
recommen d</w>
rec all</w>
rea f
re fers</w>
re ct</w>
re conci
ran ge
rae li</w>
radikali zaci</w>
radikali zace</w>
r ům</w>
příspěv ku</w>
příno s</w>
příj my</w>
pří klad
přistěhov al
přispě je</w>
připo mí
přine jmen
přinejmen ším</w>
přijí mat</w>
přij aly</w>
při šli</w>
předcho zí</w>
pře trv
pur poses</w>
prů mysl
práv nických</w>
prv kem</w>
prote st
propos ing</w>
proportion ality</w>
proce ssing</w>
problemati ky</w>
pro sto</w>
pro jednáv
presid encies</w>
pres sion</w>
prepara tion</w>
pre ss</w>
pracu jících</w>
pracov níkům</w>
pra ven</w>
pra c</w>
pozi tivních</w>
poz ději</w>
povin nost</w>
použí t</w>
potenci ál</w>
poskytov a
poskyt ovat</w>
posil ování</w>
pos ite</w>
portugal sku</w>
polo žky</w>
pol sko</w>
pokrač uje</w>
pok ry
podpo řili</w>
podepis ování</w>
pode zře
po vzbu
po selství</w>
po hrani
plea se</w>
plate b</w>
plat nosti</w>
pla ys</w>
pla yers</w>
pl ní</w>
pi pe
pipe line</w>
peč livě</w>
peti tions</w>
perspe ctive</w>
perman ent</w>
peri ods</w>
partner ů</w>
partici pan
parlamen ty</w>
palest ine</w>
pain e
pa per</w>
p th</w>
p li</w>
p ení</w>
očekáv áme</w>
over come</w>
ovan á</w>
ov šem</w>
out standing</w>
otevřen á</w>
otev ření</w>
ori gin</w>
orgá nům</w>
orgá n</w>
opera cí</w>
op u
one moc
on i</w>
om </w></w>
od středě
oc it
obsa hovat</w>
obec ného</w>
o roz
o fici
ně me</w>
ní kem</w>
náz orem</w>
následu jících</w>
nápo je</w>
ná rodních</w>
nu mbers</w>
nov ém</w>
normali zace</w>
no on</w>
no </w></w>
nen a
nej hor
neighbourho od</w>
nehod y</w>
nedostateč ná</w>
ne zaměstnanosti</w>
ne therlands</w>
ne se</w>
ne měl</w>
ne mov
nemov it
ne budu</w>
navrh l</w>
nabíd ky</w>
na vig
na prosto</w>
n er
n alo
mě st</w>
mí sta</w>
my self</w>
mus lim
mož ných</w>
mor ning</w>
mo ž</w>
mo ři</w>
mno zí</w>
minist rů</w>
menš in</w>
mechanis mu</w>
mb er</w></w>
maxim ální</w>
max tor</w>
mar tínez</w>
man age</w>
magaz ine</w>
m itu</w>
m b</w>
lá r
lov á</w>
loděni cích</w>
lis ing</w>
lid skými</w>
li že</w>
li vestock</w>
letoš ního</w>
let ter</w>
lep h
leh ne</w>
legislativ y</w>
le p</w>
le cted</w>
laun ch</w>
lar s</w>
langu ages</w>
la y</w>
la mi</w>
l y
kvali fikov
kultur ní</w>
ku ři
ku kuři
krá t
kri z
kosov o</w>
konkuren ci</w>
kon sen
komun it
ko re
klíč ových</w>
ke rage</w>
ka rat
k in
k il
join tly</w>
jo s
ji mi</w>
jest liže</w>
její ch</w>
jednot ky</w>
jednodu š
jas ná</w>
jaké koliv</w>
j ším</w>
j .</w>
iz rael</w>
ist s</w>
invest ovat</w>
invest or</w>
inve stoři</w>
inter institutional</w>
integra ci</w>
insu rance</w>
institucion ali
institu te</w>
indicat ors</w>
in for</w>
in ev
impli cations</w>
im pose</w>
identi ty</w>
i ed</w>
i ch</w></w>
hroz bě</w>
hroz bou</w>
horizon t
hon est</w>
hol ds</w>
h ům</w>
h ours</w>
h léd
guarante es</w>
gran ted</w>
go t</w>
gla s
gi galiners</w>
gi ants</w>
ga me</w>
g ro</w>
g are
fran cou
fran cis
foreca sts</w>
focu sing</w>
fis her
finan čními</w>
finan čního</w>
fi re
fer red</w>
fe jme</w>
fe at
fav ourable</w>
far ms</w>
fa il</w>
f rench</w>
exten ded</w>
ex pi
ex pan
evid ent</w>
evalu ate</w>
euro med</w>
eu roz
environment ally</w>
ent schli
enorm ous</w>
energi i</w>
endor se</w>
en large
en ab
emplo yers</w>
emp ty</w>
ede sá
ear nings</w>
e ta</w>
důležit ých</w>
dů raz
dán sku</w>
du mp
druh ém</w>
druh á</w>
druh ou</w>
dru hu</w>
dou fejme</w>
dosáh neme</w>
dostup nosti</w>
dospě t</w>
dopl nit</w>
dokumen ty</w>
dobr ých</w>
do t
do statek</w>
do cház
dneš ního</w>
distribu tion</w>
di versity</w>
determin ed</w>
deterio ration</w>
depen ds</w>
depen d</w>
demonstra tion</w>
dela ys</w>
decla ration</w>
deb ating</w>
de sí
de pth</w>
de institucionali
de ad
dead line</w>
d ci</w>
cre d
corre ctly</w>
contro lled</w>
conge stion</w>
con ver
comple ted</w>
commission ers</w>
com promise</w>
com pared</w>
clari fy</w>
ci ent</w>
cház íme</w>
chova telé</w>
cho ice</w>
ch an</w>
ch a</w>
cest ě</w>
cep ti
cen ter</w>
cen nými</w>
celkov ého</w>
cele k</w>
car rying</w>
ca tional</w>
c tion</w></w>
c ating</w>
bur ze</w>
bu b
bro kerage</w>
británi i</w>
bor u</w>
bor n</w>
bom b
blo od</w>
bil ní</w>
bi a</w>
bez prostřed
begin ning</w>
ban king</w>
b ý</w>
au ton
aspek tů</w>
as set</w>
argu ments</w>
ar range
approa ches</w>
an t</w></w>
an gli
an cient</w>
ameri ckými</w>
ak t</w>
ak ci</w>
af gh
administra tion</w>
adju st
ad vis
ad vice</w>
achie vement</w>
acci dent</w>
acce ssible</w>
ac ted</w>
9 0</w>
8 00</w>
7 </w></w>
7 .
6 9</w>
6 ,
5 7</w>
5 .
4 4</w>
20 20</w>
2 9</w>
1 50</w>
1 3.
1 10</w>
žád nou</w>
žen í</w></w>
ž ou</w>
Ž ád
ů m</w></w>
špat né</w>
ško lení</w>
širo ké</w>
š la</w>
š edesá
říj nu</w>
ří </w></w>
ře těz
Řeck a</w>
ňu jícím</w>
ňov ala</w>
ł o</w>
ď me</w>
čí sla</w>
člen ové</w>
čin ů</w>
čen y</w>
če mu</w>
če ká</w>
č á</w>
č ná</w>
účin nou</w>
úče l
úlo ze</w>
úlo hou</w>
úko ly</w>
ú zk
ö ff
öff net</w>
ál ů</w>
závaž ný</w>
závaz ných</w>
zátě že</w>
zása du</w>
zákaz u</w>
zá v</w>
zá pla
zá mě
zá jm
zvýšen é</w>
zu jící</w>
zpráv ách</w>
zpráv ou</w>
zprostřed kov
zpravoda je</w>
zo sta
zosta ło</w>
zná mý</w>
zná mo</w>
zni čení</w>
zn at</w>
zji šť
zept at</w>
zen í</w></w>
zen á</w>
zen ie</w>
ze v</w>
ze ch</w>
ze b</w>
zd vi
zaved la</w>
zaměst náv
zajíma vé</w>
zahrnu jí</w>
zahrani čí</w>
za klá
z tra
z organi
z ních</w>
z mín
z hru
zhru ba</w>
z do
zdo la</w>
z dan
x u</w>
wor ried</w>
won der</w>
wit nes
wh ite</w>
we ight</w>
wat son</w>
war ran
war ming</w>
w to</w>
vět šího</w>
význam ným</w>
význam ného</w>
výzku m
výlu čně</w>
vý š</w>
vý ji
výji me
vé d
vz rů
vyvin out</w>
vyso kou</w>
vyh ra
vy stav
voi ce</w>
vo l</w>
vní mat</w>
vnitrostát ního</w>
vlá du</w>
vlá dou</w>
visi ble</w>
ven cy</w>
ved lo</w>
vari ety</w>
va tele</w>
v ri
v r</w>
v l
v ance</w>
už ší</w>
uznáv ání</w>
uvádě t</w>
uveden ého</w>
uti lities</w>
uspo řád
urč ených</w>
ur ban</w>
una ble</w>
un less</w>
un certainty</w>
umož nit</w>
u kaza
u d
u bezpeč
tě mi</w>
týka jícím</w>
týd nů</w>
tý kat</w>
tý k
ture </w></w>
tur no</w>
tur k
turk ish</w>
tu dí
tudí ž</w>
trest ních</w>
trea ted</w>
transparent ní</w>
tran si
transi tional</w>
tragédi i</w>
tragi ckých</w>
tr hem</w>
tov ých</w>
toubon ovi</w>
ton ight</w>
tisí c</w>
tin ě</w>
tick ým</w>
ti se</w>
ti fi</w>
threat s</w>
th </w></w>
teroristi cká</w>
technologi í</w>
technologi es</w>
tea ms</w>
te us</w>
te ore
te lem</w>
targe ts</w>
tack led</w>
t ých</w>
t wi
t t</w>
t ová
t nější</w>
t at</w>
séri e</w>
systema ticky</w>
sympa thy</w>
sustain ability</w>
supple ment</w>
sui ci
succe ed</w>
subje cts</w>
su m</w>
středis ko</w>
stáva jících</w>
sto j
sti ck</w>
stave c</w>
stave b
statisti cal</w>
star ting</w>
star ted</w>
spotřebi telé</w>
společ ném</w>
společ nostem</w>
spoleh livost</w>
spo lé
specu la
sovereign ty</w>
součas ného</w>
sop hi
sophi sti
solv ent
sol vency</w>
sociál nímu</w>
sociál ními</w>
sna žíme</w>
smě r</w>
sm al
složit é</w>
slou žit</w>
sk ies</w>
sk and
sig nal</w>
si lách</w>
si li</w>
si lence</w>
si al</w>
shor tly</w>
shear son</w>
sh u
sen ior</w>
see ks</w>
secre tary</w>
sebe vraž
se s</w></w>
schop ny</w>
sche mes</w>
sav ary</w>
samo stat
sa zeb</w>
sa d</w>
s wit
s rov
s právních</w>
s mí
s ch</w>
rá no</w>
run s</w>
rozši ř
roz sud
rov ého</w>
rov ných</w>
rov né</w>
rov nosti</w>
ro váním</w>
ro nic</w>
ro ma
ro di
ri ch
reál nou</w>
restri ct</w>
respon ses</w>
resol ved</w>
repr en
repe ated</w>
remov al</w>
remain ing</w>
rela tes</w>
rekla my</w>
reje cted</w>
reite rate</w>
regula ted</w>
regu lov
regre t
refer ring</w>
redu ces</w>
rec over
reason able</w>
reali zovat</w>
re ve
re serve</w>
re move</w>
re feren
re c</w>
ran i</w>
ra el
r ill</w>
působ nosti</w>
pů vodu</w>
pů l</w>
případ ně</w>
pří nos
pří jem
přispě li</w>
přispí vají</w>
přijat á</w>
při způsobit</w>
při vít
při stupovat</w>
při stoup
přen o
předsed ovi</w>
předpo kladu</w>
předložen y</w>
před tím</w>
pře sa
pře ce</w>
pé či</w>
pursu e</w>
pu stit</w>
pu st
průměr u</w>
prv ky</w>
provádě t</w>
prote cted</w>
pros ím</w>
propo jení</w>
produk ty</w>
produk tiv
produ cing</w>
prode je</w>
problemati kou</w>
pro vá
pro dáv
priv acy</w>
princi p
preven ted</w>
pres ence</w>
prepara tory</w>
prepar ing</w>
premi é
pre cise</w>
pracov níci</w>
požá rech</w>
počá tku</w>
poznamen at</w>
poznamen al</w>
pozměňov acím</w>
pow der</w>
pou žití</w>
pou káz
potě šením</w>
potí žím</w>
potí ží</w>
potvr dit</w>
potravin y</w>
postižen é</w>
post -
poslan ec</w>
poskyt ne</w>
posi ed
posied zenie</w>
pos sibilities</w>
pos lu
pos lou
por tu</w>
polo žit</w>
polit ová
politová ní
poin ted</w>
podí let</w>
podpo ro
podnik ání</w>
pod zim</w>
po ž</w>
po č</w>
po vr
po vod
po ps
po ns</w>
po gratu
plá nov
plod iny</w>
plo teus</w>
pla tit</w>
pla ces</w>
pilí ře</w>
person ally</w>
per pe
patriarch ate</w>
patriar chá
partner ships</w>
participan ts</w>
part ly</w>
para do
pan em</w>
paci ties</w>
pa ň</w>
pa tional</w>
pa ted</w>
p h
očekáv ají</w>
ozná mil</w>
ovliv nit</w>
ovan ého</w>
ov ě
ov ými</w>
ov ým</w>
our g</w>
otáz kám</w>
ot s</w>
origin al</w>
ord ers</w>
opti mis
opatřen ích</w>
op pose</w>
op era</w>
omez ování</w>
of fering</w>
odvět vích</w>
odstav ci</w>
odpověd í</w>
odpově dět</w>
odpo vím</w>
odbor y</w>
od z</w>
od stavec</w>
od chyl
occu r</w>
occu pational</w>
občan ská</w>
oby če
oblig ation</w>
objev ují</w>
ob vin
ob la</w>
ob a
o sm
o se</w>
o k</w>
o gra
něme ckého</w>
ně ni</w>
ně kterými</w>
ně která</w>
náv y
nábožen ství</w>
ná ležit
nutri tion</w>
nu me
nez leti
nes pl
nepřija telné</w>
nejdůležit ějších</w>
nej nov
negoti ated</w>
nedostat ky</w>
nedostat kem</w>
ne máme</w>
ne jsme</w>
ne g
ne ar</w>
navý šení</w>
nar ů
nane štěstí</w>
nane j
nanej výš</w>
nahra dit</w>
nah oru</w>
nabí zí</w>
nabí ze
na vzájem</w>
na chází</w>
mě nového</w>
má na</w>
myšlen ku</w>
my slu
mu čení</w>
monito rovat</w>
modifikov ané</w>
mo ře</w>
mlé ká
min i</w>
met oda</w>
mer rill</w>
me ant</w>
matsush ita</w>
mati ckých</w>
materi al</w>
mari time</w>
man že
man dát</w>
ma ize</w>
m odified</w>
m ate</w>
lé ka
lá tky</w>
loň ském</w>
lov ě
lon i</w>
lo gi</w>
limit ations</w>
lid ové</w>
liberali zaci</w>
li ly</w>
lhů ta</w>
len ou</w>
legislativ ního</w>
led </w></w>
lea ving</w>
le y</w>
le m</w></w>
lat ter</w>
lat or</w>
lan ce</w>
la tion</w></w>
la tin</w>
la tin
l ým</w>
květ na</w>
kvali ta</w>
koup it</w>
koordin ovat</w>
kontro l</w>
konstruk tivní</w>
konku rence</w>
koneč né</w>
kon čí</w>
komuni kace</w>
kom pen
koleg ům</w>
ko sti</w>
ko le
ko ho</w>
ko de
klá st</w>
ke e
kee ping</w>
ke </w></w>
každo ročně</w>
kam paň</w>
k s</w></w>
k ro</w>
k op
k lu
k ing</w></w>
k cí</w>
judi cial</w>
jiho afri
jas ným</w>
j oh
j anu
janu ary</w>
j ac
iz rael
it age</w>
ist an</w>
is m</w>
is lá
intenzi vní</w>
intenzi v
inteligent ní</w>
institu cemi</w>
inst itu</w>
inova čních</w>
ing ing</w>
infring ement</w>
infrastruktu ra</w>
infra strukturu</w>
inform ování</w>
in á</w>
in stability</w>
in ov
ima g
imag ine</w>
identi fi
i ra
i d</w></w>
i ces</w>
hun dre
hundre ds</w>
hroz by</w>
hovo řím</w>
hou sing</w>
hospodá ř</w>
hodno tě</w>
hod in</w>
ho pes</w>
ho pe
hledis ko</w>
her itage</w>
harmon ogra
hab its</w>
ha mas</w>
h omo
h lá</w>
h it</w>
h dp</w>
gro ss</w>
gover n</w>
gene rate</w>
g odz</w>
g dp</w>
fu els</w>
frequ ently</w>
fran k</w>
form al</w>
fore most</w>
for med</w>
fo rem</w>
finan ced</w>
fin e</w>
fin ding</w>
fi l</w>
fi ci</w>
fel t</w>
fe ll</w>
fe ar</w>
fal ls</w>
fak torů</w>
fair ly</w>
fa shi
exten ding</w>
expre ssing</w>
exploit ation</w>
expla ined</w>
experien ced</w>
exper t</w>
exist ující</w>
exac tly</w>
ex tra</w>
evropan ů</w>
evrop ané</w>
ev ening</w>
euroz ó
etike ty</w>
essenti ally</w>
er öffnet</w>
envis aged</w>
enlarge ment</w>
enjo y</w>
enab ling</w>
en e
en ce</w></w>
emplo yed</w>
emis í</w>
emb ar
em ise</w>
ele ction</w>
el les</w>
ekonomi ka</w>
e le</w>
e bo</w>
e b
důvě ry
důvě ra</w>
důsled kem</w>
důklad ně</w>
dů stoj
děl níci</w>
dí te</w>
druh ým</w>
dru gs</w>
dri ver</w>
doub ts</w>
dou ble</w>
dosa hují</w>
domá cí</w>
dom ů</w>
dod al</w>
docház ky</w>
dobr ý</w>
do jít</w>
dlou há</w>
dlou hou</w>
diskrimin aci</w>
diskrimin ace</w>
di ov
desi rable</w>
deriva tives</w>
demokra tických</w>
deli ghted</w>
de regulation</w>
de red</w>
de gra
de cre
de ar</w>
dan ish</w>
dal y</w>
da ce</w>
d ně</w>
cí mi</w>
cu r</w>
criti cism</w>
criti cise</w>
controver sial</w>
contribu ted</w>
condi tion</w>
compu l
communi cations</w>
comm it</w>
com pon
com pen
co v</w>
cla use</w>
circu lation</w>
chu doby</w>
chu d
chtě li</w>
cho ices</w>
cha e
cest ou</w>
cen é</w>
celkov ý</w>
ce l</w>
catastrop hic</w>
care ful</w>
cal cu
cal </w></w>
ca pacities</w>
c re</w>
c lu</w>
c lo</w>
bí lkov
byrokra cii</w>
by t</w>
bude te</w>
bud ovat</w>
bu ď</w>
bu d</w>
brit ští</w>
bri efly</w>
brazí lie</w>
bos nia</w>
bor ne</w>
bezpečno stních</w>
be lon
be gan</w>
be aring</w>
bat tle</w>
bal tic</w>
b lack</w>
b ed
b al</w>
au tor</w>
assess ing</w>
asi i</w>
asi a</w>
as ing</w>
ari é
ar y</w></w>
ar rest</w>
ar ising</w>
approxi mately</w>
ap pro</w>
antici pated</w>
analý zy</w>
analý za</w>
an ě</w>
an ebo</w>
ameri ckého</w>
amen ded</w>
am p</w>
alkoholov ého</w>
alko ho</w>
alco po
al ar
ak </w></w>
ag ing</w>
after noon</w>
affe cting</w>
addi ction</w>
ad vance</w>
accoun tability</w>
abu ses</w>
aboli tion</w>
9 6</w>
5 ,
3 8</w>
0. 2</w>
žád at</w>
ži vota
ži jí</w>
ť mi</w>
ško lách</w>
ško ly</w>
š ných</w>
š ili</w>
Š vý
Švý car
ří t</w>
řeč níci</w>
ředi tel</w>
řad y</w>
ř ů</w>
Ře k
ň ovány</w>
ě h
ę te</w>
část ky</w>
čá stí</w>
člen ského</w>
čist ě</w>
či ly</w>
ček at</w>
če líme</w>
č lově
Č ud
ý chod
účin ek</w>
úč in</w>
úvěrov ých</w>
úvěrov ou</w>
úvě rové</w>
úto k</w>
úspěš né</w>
úspěch ů</w>
úrov ních</w>
úrov ní</w>
úro kových</w>
ú střední</w>
áv ám</w>
áv ající</w>
ál ní</w></w>
á vek</w>
ß un
ßun g
ßung santrag</w>
závě ru</w>
závě rech</w>
závaž ných</w>
záv od</w>
zásad ním</w>
zájm ům</w>
zvý šila</w>
zvlá d
zpravoda jem</w>
zpož dění</w>
zovan ých</w>
zná mé</w>
zneu žití</w>
změ ní</w>
zmí něno</w>
zlep šovat</w>
zjist ili</w>
zjednodu šování</w>
zen a</w>
ze sí
ze govina</w>
zbyteč ně</w>
zbyteč né</w>
zač al</w>
zau jí
zan ed
zaměřen á</w>
zaměstnan ci</w>
zam kni
zamkni ęte</w>
zalo žení</w>
zakot ven
zahá jit</w>
zahrani čních</w>
zach rá
zabrá nila</w>
za mě</w>
za mít
z vy
z přístup
z přís
z pě
z ovány</w>
z ovali</w>
z ná</w>
z dy</w>
yi e
yie ld</w>
y s</w></w>
witnes sed</w>
wi des
wides pread</w>
who m</w>
week end</w>
web ber</w>
wea pons</w>
washing ton</w>
wa ke</w>
w n</w></w>
w it</w>
vš im
většin u</w>
vě ří</w>
vě ce
věce ch</w>
výz vám</w>
výrob ců</w>
výrob ci</w>
výrob a</w>
výro ční</w>
vý ži
vý hledu</w>
vá mi</w>
vzdá len
vyvod it</w>
využí vá</w>
vytváře t</w>
vysvět lil</w>
vysok ý</w>
vyrovn at</w>
vymě ňovat</w>
vyjadř uje</w>
vy zdvi
vy staven
vy rá
vy plá
vy jas
vy dáv
vri ese</w>
vr cho
vla st</w>
vi ly</w>
verheu gen</w>
ver </w></w>
velk ém</w>
ved li</w>
ved le</w>
ved eme</w>
ved </w></w>
van ých</w>
van un
vanun u</w>
va ši</w>
v ů</w>
v ře
v ze
v stří
v lo
v ad
uzav ře
uza ví
uved ené</w>
ur s</w>
uprav ující</w>
uplatň uje</w>
up u
under take</w>
under tak
undertak ings</w>
un its</w>
umož ňují</w>
ulti mately</w>
ukon čit</w>
uděl ali</w>
udě lal</w>
u res</w>
u kazují</w>
u jícím</w>
u jí</w></w>
u jete</w>
tý dne</w>
téma tem</w>
ty pi
ty pes</w>
twi ce</w>
tu s</w>
tro j
tri ed</w>
transpo sed</w>
transevrop ských</w>
tradi ční</w>
tr i</w>
tiv ně</w>
tiv ci</w>
tion al</w></w>
ti tle</w>
thorou gh</w>
territori es</w>
teroristi ckým</w>
ten tion</w>
tel y</w></w>
tel nost</w>
technologi e</w>
techni ckých</w>
te plo
takový to</w>
ta tive</w>
ta jem
t ů</w></w>
t ř
t á</w>
t v</w>
t ly</w></w>
sť an
síd lem</w>
syndro mu</w>
symbo lem</w>
světov ého</w>
svěd čí</w>
svo je</w>
super markets</w>
super marke
sum mitu</w>
substan tially</w>
subsequ ent</w>
su ver
su p</w>
su itable</w>
su b</w>
su a
středo zem
stup ně</w>
studi í</w>
stru gg
stru ck</w>
strength ened</w>
stre ssed</w>
strategi cké</w>
stra tion</w>
stra te</w>
stop ped</w>
sti an</w>
stej ným</w>
ste in
star é</w>
stan ov</w>
stan ou</w>
stabili tu</w>
sta ví</w>
sta ff</w>
st im
st even
ss on</w>
srp nu</w>
spr ing</w>
spotřebitel ských</w>
spotřebi telům</w>
spotřeb u</w>
spokojen i</w>
spo ři
spo u
spir it</w>
spe ci</w>
sp here</w>
součas ně</w>
soula d</w>
sou stra
sou du</w>
solidar itě</w>
sole ly</w>
so lan
sněmov ně</w>
sna ze</w>
smě řování</w>
smu t
slyše li</w>
služ bami</w>
slu či
skupin ami</w>
sk ills</w>
situ acích</w>
sit u</w>
sil nice</w>
sig na
si mil
simil arly</w>
si lou</w>
si emen
siemen s</w>
shr ined</w>
shid ler</w>
shi ft</w>
sh el
seve rely</w>
sen d</w>
sek tor</w>
sed mi</w>
seas on</w>
se ctions</w>
schop né</w>
sch wa
san ctions</w>
samot ná</w>
sa ve</w>
s wed
s ory</w>
s mu</w>
s low</w>
s cepti
růz no
rádi a</w>
rych lou</w>
run ning</w>
ru ku</w>
ru kou</w>
ru ce</w>
rozhod l</w>
roz děl
rov ých</w>
rodin ám</w>
ro ris</w>
ro ot</w>
ro om</w>
ro me</w>
ro m
ro bu
rizi kem</w>
restrukturali zaci</w>
restrukturali zace</w>
restri cting</w>
respon ding</w>
rescu e</w>
republi kou</w>
repren eu
repe a
remov ed</w>
remain ed</w>
regula čních</w>
regula ční</w>
regre t</w>
reda k
rea ching</w>
re ty</w>
re tain</w>
re spon</w>
re serva
re qu
re ported</w>
re fer</w>
re construction</w>
re as</w>
rating ových</w>
radi cal</w>
ra tifi
ra p</w>
ra jí</w>
ra bly</w>
quar ters</w>
příspě vek</w>
přírod ním</w>
příprav u</w>
příprav né</w>
příprav a</w>
příležito stech</w>
pří jmů</w>
přistěhovale ctví</w>
připrav ila</w>
přijí m
přij meme</w>
při znat</w>
při družení</w>
při cházejí</w>
předsednict vo</w>
předpis ům</w>
předpis u</w>
předlo ží</w>
předklá dání</w>
předklá dat</w>
před nost
před nesl</w>
pí t</w>
pá ni</w>
pu rely</w>
psy chi
prů mysl</w>
prü mu</w>
prvo řad
prv ního</w>
protoko l</w>
proti teroristických</w>
proti teroristické</w>
prote in</w>
prostřed ím</w>
prospě šné</w>
prosa dit</w>
propor tion</w>
propo ses</w>
promis ed</w>
proje v</w>
profe sion
prof itable</w>
prof it
produc ent
proce sy</w>
probí ha
pro stu
pro gra</w>
pri ced</w>
prezident a</w>
preced en
prak tická</w>
pracov ního</w>
pra gmati
pra cov</w>
pr vek</w>
pr is
pr in
poží váním</w>
požá r</w>
pořád ku</w>
pořád at</w>
pozor ně</w>
pozi ce</w>
pou žit
pou ští</w>
pou kázat</w>
pou kazuje</w>
potvr dila</w>
posu zování</w>
posto je</w>
postižen ým</w>
posti h
posled ním</w>
pon ti
pomá hat</w>
pol ska</w>
pok ou
poin ting</w>
pogratu lovat</w>
podí ve
podrob něji</w>
podporov al</w>
podpo ří</w>
pochyb ovat</w>
pochopi telně</w>
pochop ení</w>
po rovnání</w>
po může</w>
po bře
po blaho
ply nov
plen ary</w>
plat né</w>
pl nit</w>
pi lot</w>
pi lo
phenom ena</w>
person nel</w>
per mitted</w>
pe lo
pelo pon
pe i
pei p
peip si</w>
pan uje</w>
paine webber</w>
p it</w>
p in
p hy
ov y</w>
ov acím</w>
our </w></w>
ou ld</w></w>
otře sy</w>
otáz kami</w>
ote pl
orgi o</w>
organis mů</w>
opera ce</w>
opatřen ím</w>
op tion</w>
onemoc nění</w>
on e</w></w>
on al</w>
om i</w>
ologi e</w>
ologi cké</w>
offi ces</w>
odstředě ného</w>
odrá ží</w>
odpo led
odpoled ne</w>
odbor níci</w>
odbor nou</w>
od vahu</w>
od su
od bo
od </w></w>
occa sion</w>
obě ťmi</w>
obyče j
obyvatel stvo</w>
obyvatel stva</w>
obran y</w>
ob ra
o w
o proti</w>
o pož
o h</w>
německ o</w>
několi krát</w>
ně hož</w>
návr zích</w>
návr hům</w>
národ ního</w>
náro dy</w>
námoř ních</w>
náku p
ná sledek</w>
ná klad</w>
ná ch</w>
ná </w></w>
nucen i</w>
nov ými</w>
norm al</w>
non e
none theless</w>
ni jak</w>
nezávis le</w>
new spa
nevyhnu telně</w>
neu mož
nes ou</w>
nes mírně</w>
nepřízni vě</w>
nepří jem
nen áv
největ ších</w>
nejnov ější</w>
nej bliž
nedoká že</w>
ne vědí</w>
ne víme</w>
ne přiměřen
ne mělo</w>
na mi</w>
n ers</w>
n ch</w>
myšlen ka</w>
my l
musli ms</w>
multi lateral</w>
mu ga
mož ného</w>
mov ed</w>
mortg ages</w>
mon tá
moda lity</w>
mod e</w>
mobili sed</w>
mo v</w>
mnoh dy</w>
mléká ren
mil i</w>
messa ges</w>
meni cal</w>
me z</w>
mc gu
mcgu in
maďar sku</w>
manufac ture
manag ed</w>
man dá
mandá tu</w>
m lé</w>
m all</w>
lé vai
lé to</w>
lé mu</w>
lá ním</w>
ly nch</w>
logisti cal</w>
lod í</w>
lo v</w>
lo b</w>
lithuan ia</w>
lin ks</w>
likvid ity</w>
liber ální</w>
li ch
len g
legis lator</w>
lead s</w>
le x</w>
la ting</w>
la ke</w>
l. j.</w>
l on</w>
kře sťan
ku meni
kter ého</w>
kte m</w>
kov á</w>
kov ou</w>
kor up
konzerva tivci</w>
konkré tním</w>
kon ala</w>
komis a</w>
klíčov ými</w>
klíčov ou</w>
kles ly</w>
kles l</w>
kla dech</w>
kla de</w>
kaž dod
každod en
katastrof u</w>
katastrof a</w>
karat z</w>
ka men
k ým</w>
k ání</w>
k ování</w>
k er
k ací</w>
justi fy</w>
jos é</w>
jmé nu</w>
jmen ování</w>
ji sti</w>
ji hov
jihov ýchod
jednomysl ně</w>
jednoduš ší</w>
jedno značné</w>
jedno m</w>
je vu</w>
je me</w></w>
jazy cích</w>
j ovat</w>
is raeli</w>
is ova
inzer áty</w>
invest orů</w>
interven e</w>
inter view</w>
inter parliamentary</w>
institu tu</w>
inst al
ing s</w></w>
infor ma</w>
industri al</w>
incen tive</w>
in te</w>
in ové</w>
in habit
im ports</w>
identi fying</w>
i v</w>
i ii</w>
i b</w>
hypoteč ní</w>
human ity</w>
hou se
horizon tal</w>
hor ských</w>
ho t</w>
hled ání</w>
hi e
hie rar
her zegovina</w>
her ce
hel sin
head ings</w>
happen s</w>
han ds</w>
ha u
h ome
h in
h g
guar ding</w>
gradu ally</w>
go ld
gn ity</w>
glas go
gi use
gi orgio</w>
gh e
ghe zi
gene tically</w>
gene race</w>
gen o
ge ts</w>
gdaň sku</w>
gar cí
garcí a</w>
ga p</w>
ga le
g y</w></w>
g side</w>
g mos</w>
g .</w>
fundament ally</w>
fu el</w>
frankfur t</w>
francou z
fran cii</w>
foun dation</w>
form ální</w>
form ou</w>
fore station</w>
for th</w>
for th
fol lowed</w>
flo od</w>
fis cal</w>
finan čním</w>
fin dings</w>
fi f
fenomé nu</w>
fe wer</w>
fe ed</w>
fe bru
febru ary</w>
far ming</w>
famili ar</w>
fa ster</w>
f tly</w>
f on</w>
f ed
exten sion</w>
exist ovat</w>
exist en
excep tional</w>
exce ss</w>
exce ption</w>
exce eds</w>
examin ation</w>
ex port</w>
ex p
every body</w>
even tually</w>
etike tách</w>
er i</w>
entschli e
entschlie ßungsantrag</w>
ent repreneu
energe tické</w>
ende av
en shrined</w>
en cy</w></w>
effici ently</w>
ef fe</w>
edu cational</w>
ed it
ed ed</w>
ecu menical</w>
economi cally</w>
eco logical</w>
e radi
e li
e kumeni
důvěry hod
důležit ější</w>
dů vodem</w>
dů m</w>
dů ležit</w>
děl á</w>
dí tě</w>
dá ch</w>
dvou stran
dva ce
du ly</w>
du je</w>
dostup ných</w>
doprav ního</w>
dopl ňujících</w>
dopl nění</w>
dom in
dolo ž
dokumen tu</w>
doh led</w>
dobr ým</w>
do wn
do stat</w>
do prav</w>
do l
do hledu</w>
dispo nuje</w>
disea ses</w>
discipl ine</w>
direc to
dialo gy</w>
di ly</w>
di gnity</w>
di cta
deseti letí</w>
deseti let
demonstra tes</w>
demonstra te</w>
demokra tická</w>
deli very</w>
del la</w>
defini tely</w>
defin e</w>
de sá
de me</w>
de fic
dama ged</w>
da u
d ál
d vo
d lení</w>
d edi
cy cle</w>
cul tiva
ct s</w></w>
ct ory</w>
cro p</w>
cor ruption</w>
cor bet
conven i
contribu tions</w>
contra ct</w>
conta ct</w>
constitu tional</w>
conserva tives</w>
consequ ently</w>
confli cts</w>
confi dent</w>
condu cted</w>
conclu ded</w>
con su</w>
con fu
compul sory</w>
comm is</w>
colle ctive</w>
ck ých</w></w>
ck en</w>
ci gare
chri stian</w>
cho ose</w>
chi ca
ch roni
ch in
ch en</w>
ch e</w>
cel ku</w>
cel kem</w>
ca tho
c or</w>
bře z
běž ným</w>
býval ý</w>
bílkov in</w>
bur za</w>
budou cích</w>
budape st</w>
broadca sting</w>
broa der</w>
bri d
br inging</w>
bor ghezi
bod ě</w>
blí zké</w>
bla me</w>
ber g</w>
be t</w>
be coming</w>
bal t
bac k
b ought</w>
b ak
bak er</w>
ay ale</w>
automa tically</w>
author ised</w>
au stra
atmo sfé
arrange ments</w>
argu ment</w>
ar son</w>
ar rest
ar no
ar che
ar chae
ar </w></w>
appoin t
an d</w></w>
an ci</w>
amen d</w>
alterna tiv
alon gside</w>
alkoholis mu</w>
alcopo ps</w>
al ing</w>
ak cie</w>
air lines</w>
agre es</w>
ag re</w>
adjust ment</w>
accoun ts</w>
acce le
ac knowled
aband on
a tel
a red</w>
9 /
4 0
3 2</w>
3 .00</w>
198 8</w>
1 25</w>
1 2
0 s</w>
ží t</w>
žen ou</w>
žele z
ž h
žh ář
ž as
Žá dáme</w>
ště ním</w>
ště </w></w>
šedesá titu
š tí
š ka</w>
Š véd
Š tra
ře šen
ře lo</w>
ře ckého</w>
ř ovat</w>
ř ovacích</w>
ř ilo</w>
ř </w></w>
Řek l</w>
ňov ali</w>
ěj ším</w>
ě n</w>
částe čně</w>
člán kem</w>
člen ka</w>
če muž</w>
časop isu</w>
č ují</w>
č ování</w>
č ných</w>
č nímu</w>
č nost</w>
Č er
Č e
Č ast
ýš le
úřadu jícího</w>
účin ků</w>
úč a
úča sti</w>
úto cích</w>
úprav ě</w>
úko lů</w>
ú vodní</w>
ú stní</w>
ú mysl
ó z
áv áme</w>
ál nímu</w>
ád u</w>
á na</w>
á m</w></w>
Úče tního</w>
Ú loha</w>
zů stávají</w>
zúčastně nými</w>
získ ání</w>
získ ala</w>
záv od
zása dách</w>
západ ní</w>
zákonodár ce</w>
základ u</w>
zác py</w>
zá p</w>
zá min
zvyš ováním</w>
zvláš tního</w>
zu jeme</w>
zni čující</w>
zneuží váním</w>
znalo stní</w>
zmí nit</w>
zkou mat</w>
zjišť ujeme</w>
zjist íme</w>
zjev né</w>
zis ky</w>
zis ku</w>
zer land</w>
zen ých</w>
zeměděl ská</w>
zeměděl ce</w>
země pis
ze ň</w>
zdan ění</w>
zbran í</w>
zaved en
zau jmout</w>
zaměř uje</w>
založen ý</w>
založen á</w>
zaká záno</w>
zají m
zaji šť
zahá jila</w>
zahynu lo</w>
zabezpeč í</w>
za členit</w>
za va
z mě</w>
z mat
z it
z d</w>
y ou
y or</w>
y ho</w>
x </w></w>
wri ter</w>
wom an</w>
wh a
wha te
whate ver</w>
w in
w aged</w>
vž dy
vždy ť</w>
věnová na</w>
věnov ala</w>
vče rej
výsled kům</w>
výrob cích</w>
výro čí</w>
výro be
výrobe k</w>
výraz né</w>
výhod ou</w>
výbor ů</w>
vý kladu</w>
ví těz
vé e</w>
váž ných</w>
vá te</w>
vzta h</w>
vzrů stá</w>
vyžad ovat</w>
vyzý vá</w>
vyz vat</w>
využí vány</w>
využi l</w>
vytváře jí</w>
vyso ká</w>
vynu cování</w>
vymez ení</w>
vyjád řili</w>
vy čí
vy ú
vy ví
vy sle
vysle ch
vy má
vymá hání</w>
vy budování</w>
volun te
volun tary</w>
voleb ním</w>
vole b</w>
vol ném</w>
vojen ské</w>
vo la
vola ti
vnitrostát ními</w>
vis it</w>
vi ously</w>
vhod ný</w>
vešker ých</w>
veřej ným</w>
vez meme</w>
vers al</w>
ver ze</w>
ver i
vedou cím</w>
ve ge
valencian ové</w>
va st</w>
v ite</w>
v ili</w>
v ary</w>
uzn ání</w>
uveden o</w>
utr pení</w>
usu ry</w>
usu ally</w>
určit ý</w>
určit á</w>
urč eny</w>
urych lit</w>
uni versal</w>
uni ons</w>
uni form</w>
unanim ous</w>
un ter
unter bro
unterbro chen</w>
un like</w>
un de
ubezpeč it</w>
u stanoven
u mí
u kra
u ji
u byt
ubyt ování</w>
u be</w>
tře b</w>
tý mu</w>
tvr zení</w>
tureck a</w>
tu je</w>
trest ní</w>
transevrop ské</w>
tran sition</w>
traffi ck
tradi c</w>
tra vel
tot o
toto ž
ton ne</w>
toleran ci</w>
tole rovat</w>
to v</w>
to d</w>
tion ary</w>
tini ho</w>
tin op
tinop le</w>
tick ými</w>
ti me
ti li</w>
ti k</w>
ti </w></w>
the ore
than king</w>
th care</w>
territori al</w>
teore ticky</w>
ten ing</w>
ten der</w>
technologi cký</w>
te leph
teleph one</w>
tax pa
task s</w>
tan e
takz vané</w>
takový mto</w>
ta tions</w>
ta mi</w>
ta </w></w>
t vá
t sman</w>
t ovány</w>
t ní</w></w>
t less</w>
t ků</w>
sá h</w>
systemati cally</w>
swit zerland</w>
svět ová</w>
svobod ně</w>
suspe cted</w>
surve il
surveil lance</w>
surpr ised</w>
supple mentary</w>
summar y</w>
suici de</w>
suf fer</w>
success fully</w>
succe ssive</w>
su r</w>
su dek</w>
stá tem</w>
sty le</w>
stri ctly</w>
stri cken</w>
strategi ckého</w>
strate gi</w>
stra s
stras b
strasb ourg</w>
stra igh
stou pen
sto jí
stitu te</w>
sti ly</w>
sti cs</w>
stej ný</w>
ste pping</w>
star ší</w>
stabili ta</w>
sta čit</w>
sta vech</w>
sta g
st ov
sr b
spotřeb ě</w>
spolupracov aly</w>
společ ným</w>
spojen á</w>
spl nit</w>
speku lace</w>
speku la
specifi cký</w>
souvise jícím</w>
soustra st</w>
soukro mých</w>
sor ry</w>
sole te</w>
sniž uje</w>
sna hy</w>
sna ha</w>
smě ry</w>
smal ler</w>
sla v</w>
skvě lou</w>
skuteč ným</w>
skon čí</w>
sk lon
sil nou</w>
signific ance</w>
si vely</w>
si st
si mul
simul tane
si fication</w>
shu t</w>
sezna mu</w>
sezna m</w>
ser bia</w>
sel hání</w>
sed mý</w>
se ts</w>
se ssions</w>
se le
scot land</w>
schwa b</w>
saz bu</w>
safe guarding</w>
sac ri
sacri fi
sa vers</w>
s ł
s rovnání</w>
s pread</w>
s myslu
s lu</w>
s díl
rů stem</w>
rám c
rá ku</w>
rá ch</w>
ru p
ru led</w>
rozvin out</w>
rozum ím</w>
roz sudek</w>
roz li
roz hod</w>
roz dělení</w>
roz dě
rov i</w>
rodin né</w>
ris ky</w>
ri zi</w>
ri d</w>
revidov ané</w>
reta il</w>
reserva tions</w>
require ment</w>
reque sted</w>
repe at</w>
religi on</w>
rele ase</w>
regula tors</w>
regret table</w>
region álních</w>
reg u</w>
reg i</w>
recover y</w>
reason ed</w>
reali sed</w>
re turned</w>
re solve</w>
re pre
re placed</w>
re marks</w>
re la</w>
re k</w>
re forem</w>
re for</w>
re d</w></w>
re -
rapporte urs</w>
rail way</w>
ra w</w>
ra tional</w>
ra li</w>
ra jící</w>
ra ději</w>
r ý
r t</w>
r ně</w>
quot e</w>
působ nost</w>
působ ení</w>
pů da</w>
přítom nost</w>
přírod ními</w>
přím ý</w>
pří stupem</w>
pří stav
pří klady</w>
přis lí
připrav uje</w>
připrav eny</w>
přij at</w>
při praven</w>
při pis
při danou</w>
převá ž
přeshrani čních</w>
přeh nan
předčas ného</w>
předví da
představi telé</w>
předsed u</w>
předpis ech</w>
před lo</w>
pře stě
pře jít</w>
pře jeme</w>
pá teč
pu ts</w>
pu sto
pu sh</w>
pt ám</w>
psychi at
psy cho
pruž nost</w>
provádě ny</w>
proved i
proved ena</w>
protoko lu</w>
proti požární</w>
propor cion
proporcion ality</w>
proper ties</w>
projev uje</w>
proje vy</w>
produ cen
prode ji</w>
procent ní</w>
prob ěh
prob lé</w>
pro secu
pro padu</w>
pro mp
pro ká
pro je</w>
priorit ami</w>
prior itu</w>
princip al</w>
preven tivní</w>
presid ents</w>
presen tation</w>
predi cted</w>
pre viously</w>
pre sid</w>
pre served</w>
pravidel né</w>
pravi dly</w>
pravi dlo</w>
pracov ali</w>
pr ison</w>
požár ům</w>
požár níků</w>
požád ala</w>
poško zuje</w>
poš tov
počí ta
pozem ní</w>
poz dě</w>
povr ch
potřeb nou</w>
potě šen</w>
posled ního</w>
poslan cům</w>
poskytnu ta</w>
poskyt la</w>
pora den
poptáv ky</w>
pomá hají</w>
polov inu</w>
polo žek</w>
politování hodné</w>
pol sku</w>
pok y
podstat ně</w>
podstat né</w>
podrob ně</w>
podotk nout</w>
podnika tel
podnik nout</w>
pod výboru</w>
pod at</w>
po čas
po za
po tla
po stal</w>
po j
po cházejí</w>
po bí
plá nu
ple asu
pleasu re</w>
plat form</w>
pla men
pl ore</w>
pil lars</w>
pi jí</w>
pi c
pic ture</w>
phy si
per fe
pe ter</w>
pe m</w>
pe </w></w>
pat h</w>
pas sed</w>
partne ři</w>
parlamen tů</w>
par la</w>
pan ic</w>
pan e
palestin ských</w>
pad á</w>
pa mat
p y
p i</w>
p ha
p ful</w>
ová ni</w>
ovliv ňuje</w>
ovan ou</w>
ovan ost</w>
ov ě</w>
ou zký</w>
otevřen ě</w>
otepl ování</w>
ot ra
ostra žit
osob ám</w>
osla bu
osla ben
os m</w>
orgá nech</w>
organiza cemi</w>
organ ise</w>
org an</w>
or te
or g</w>
opětov ně</w>
opož dě
opera ční</w>
opakov aně</w>
op ít</w>
op position</w>
op h
oph obi
om men</w>
ohrož uje</w>
odpověd ný</w>
odpověd ností</w>
odpoví dá</w>
odi fication</w>
odhod lání</w>
od vol
od po</w>
od o
od mě
od lo
od koup
od ing</w>
od díl</w>
och rá
obtain ed</w>
obstac le</w>
obser ved</w>
objas nění</w>
objas nit</w>
obchod níci</w>
ob y</w>
ob vodu</w>
ob tain</w>
ob solete</w>
ob raz</w>
ob i</w>
ob chodem</w>
o wing</w>
o stro
o par
o lu
něme cké</w>
něj šího</w>
ně jaký</w>
nízk á</w>
ní zké</w>
ní cích</w>
náv az
nábožen ské</w>
ná mit
ná hra
nume rous</w>
nu ti
nov .</w>
non- discrimination</w>
no stní</w>
no ci</w>
ni ct</w>
ni cké</w>
nezbyt ná</w>
nezbyt nou</w>
nevy nuti
nes mysl
nejistot y</w>
nej vyš
nej me</w>
neighb ouring</w>
nehod ách</w>
nedostateč né</w>
nedo sáh
nech at</w>
necess ity</w>
nebezpeč ného</w>
ne souhlasí</w>
ne při
ne patří</w>
ne myslím</w>
ne mlu
ne dě
ne dodrž
ne byli</w>
naz ý
navští vil</w>
navrh la</w>
nah raz
na plánová
na klá
na jí</w>
na je
naje vo</w>
na cházejí</w>
n ést</w>
n ské</w>
n ine</w>
n an</w>
měří tku</w>
míst ním</w>
mí stem</w>
mí stech</w>
mí nění</w>
má te</w>
má ch</w>
mov es</w>
mov ements</w>
moun tain
mot o
mor ální</w>
monito red</w>
mon opo
mol da
moder ni
mobili se</w>
mlu vit</w>
mladist vými</w>
mlad ým</w>
minist ra</w>
mini- package</w>
mini mali
min u</w>
min ist</w>
mimořád né</w>
migran ts</w>
migran t</w>
mezi parlamentních</w>
met odi
mer a</w>
me tod</w>
me ss
me mor
me galiners</w>
maďar ské</w>
mate ř
mar ke</w>
man i
man </w></w>
mak lé
maje tek</w>
maintain ed</w>
ma tion</w>
ma sa</w>
m ž</w></w>
m or</w>
lévai ové</w>
lu mo
lu ji</w>
lor ry</w>
londý ně</w>
logi sti</w>
loděni cím</w>
lite ra
li tre</w>
li mon
les a</w>
lep ších</w>
leg is</w>
lear ned</w>
le vée</w>
le tů</w>
le j</w>
le ctual</w>
la jí</w>
l ly</w></w>
l l</w></w>
l ini
kvali tě</w>
kultur ního</w>
kukuři ce</w>
kov ali</w>
kontro lovat</w>
kon tra
kon tin
komunika ční</w>
kom promis
kom pli
kolegy ně</w>
ko lumbi
ko her
kno ws</w>
kategori e</w>
katastrof ě</w>
kat oli
k te</w>
k shire</w>
k lid
k g</w>
k do
justi fied</w>
judg ment</w>
ju jeme</w>
joh n</w>
jist é</w>
jen om</w>
jedná me</w>
jednot nou</w>
jed not</w>
je v</w>
je t</w>
jak ého</w>
it ali
itali an</w>
it al</w>
it al
issu ed</w>
islá m
is ian</w>
ira q</w>
ir ska</w>
ir ing</w>
ir </w></w>
iná ch</w>
interven ční</w>
inter im</w>
intel lectual</w>
inov ace</w>
iniciativ ou</w>
inhabit ants</w>
informovan osti</w>
informovan ost</w>
informov al</w>
inform al</w>
inf lation</w>
indi cated</w>
indepen d
independ ently</w>
inc lu</w>
in vite</w>
in ts</w>
in ation</w>
in adequate</w>
im pera
il l</w></w>
ignor e</w>
i sti
i re</w>
i cs</w>
hypoteč ními</w>
hypo té
hu jící</w>
hrani ci</w>
hou ston</w>
horizont ální</w>
hope fully</w>
hodnotí cí</w>
ho v</w>
ho tov
hlí d
histori e</w>
histori ckých</w>
hg vs</w>
hel pful</w>
heal thcare</w>
he at</w>
har d
h nout</w>
h its</w>
h ills</w>
gre at
great ly</w>
graphi c</w>
got ten</w>
glob álního</w>
gla d</w>
gi ant</w>
gh ly</w>
gen ommen</w>
gen e</w>
ge ment</w>
garg an
g ri
fungu jí</w>
fun ded</w>
fun ctions</w>
fu r</w>
frien ds</w>
frat tiniho</w>
frank ly</w>
forth coming</w>
for my</w>
for gotten</w>
focu ses</w>
fo ods</w>
flo oding</w>
fla mes</w>
fin ed</w>
fi ero</w>
fenomé n</w>
fek tiv
fed er
fak tory</w>
facilita ting</w>
f ú
f t</w></w>
f ra</w>
f lu
f l
f as
extré m
extremis t</w>
extra ordinary</w>
experien cing</w>
existen ci</w>
ev a</w>
euro s</w>
enti rety</w>
enti als</w>
encoura ged</w>
en ter</w>
en i
en ess</w></w>
en da
elect ronic</w>
elect ric</w>
ekonomi ckých</w>
ekonomi cký</w>
ekonomi ce</w>
e ye</w>
e ro
e mi</w>
e ment</w></w>
e igh
e h
e ch
e -
důvě ře</w>
důraz ně</w>
důležit ými</w>
dě jin
dva krát</w>
dušev ního</w>
dub nu</w>
du ties</w>
du jeme</w>
dro gy</w>
draf ting</w>
dota zy</w>
dota cí</w>
dosa hování</w>
doprav ou</w>
domní vat</w>
doká že</w>
dohod li</w>
dod ávek</w>
dod nes</w>
do g
distribu ted</w>
disku s
dis ku</w>
directo rate</w>
difficul ty</w>
dif ference</w>
desí tky</w>
desi re</w>
dese ti</w>
depen dent</w>
depart ment</w>
deinstitucionali zace</w>
defini ce</w>
dedi cated</w>
deb t</w>
deb at
de vi
de stru
de regulaci</w>
de pri
de crea
dan ube</w>
dan ce</w>
dal šímu</w>
da ted</w>
da mi</w>
d ži
d vojnásob
d ve
d ency</w>
d ed</w></w>
d atory</w>
d ating</w>
d an</w>
cí tím</w>
cí len
cu tting</w>
criti cis
cri mes</w>
cred entials</w>
crea m</w>
cre di
cov ers</w>
counter -
coun tless</w>
corbet t</w>
cor e</w>
cop y
conveni ence</w>
continu ous</w>
contin ent</w>
consu l
constitu ency</w>
constan tinople</w>
consist ently</w>
conside rations</w>
conce r</w>
con ten
con cep
compu ter</w>
compli cated</w>
compe te</w>
com pati
com par
com mun
colle ction</w>
coher ence</w>
co existence</w>
classi fication</w>
cla uses</w>
chy bě
chy b</w>
chov u</w>
che mi
che a
chea per</w>
charac teri
chara kter
cha jí</w>
ch om</w></w>
ch ers</w>
centr u</w>
celo světové</w>
ce ss</w>
ce ments</w>
catho lic</w>
car riers</w>
c zech</w>
c is</w>
bý vají</w>
byrokra tických</w>
by ť</w>
by tu</w>
by to
by tek</w>
bur ku</w>
bulhar sku</w>
brá t</w>
bro ker
bro jen
brea ch</w>
brazí lií</w>
bott les</w>
bo x</w>
blaho přeji</w>
bio fuels</w>
bezprostřed ní</w>
bezpeč ností</w>
benefi cial</w>
beli ef</w>
be low</w>
bankov ních</w>
bac king</w>
ba sel</w>
b ing</w>
b ag
avoi ded</w>
auton om
autom obil
autom obi
attitu des</w>
arno ld</w>
argu men
are </w></w>
appar ently</w>
ans wered</w>
anim als</w>
anim al</w>
an ým</w>
an s</w></w>
an ni
alterna tivní</w>
alkoholi cké</w>
ali sed</w>
alcoho lism</w>
al l</w></w>
aktu ali
aktiv ně</w>
ag gre
af ford</w>
adap t</w>
ad ing</w>
accu sed</w>
accep table</w>
ac t</w></w>
ac knowledge</w>
ac compan
absur d</w>
ab re</w>
a ční</w>
a y</w>
a side</w>
a sed</w>
8 5</w>
6 </w></w>
6 .
5 4
16 .
10. 05</w>
0 .00</w>
ží ch</w>
žád oucí</w>
život ních</w>
ži je</w>
žhář ství</w>
žen ého</w>
žen ám</w>
žen á</w>
žen ami</w>
ž ních</w>
Žá dám</w>
ť </w></w>
ší m</w></w>
ší ch</w></w>
še tr
še k</w>
š ť</w>
š tiny</w>
š ky</w>
š it</w></w>
Štra s
ří d
řidi či</w>
ři ce
ři </w></w>
ře ckým</w>
ř ád</w>
ř it</w></w>
ř ed</w>
čty ř
člen ům</w>
člen ství</w>
čin ům</w>
čer vn
červn u</w>
č a
Čast o</w>
ý kání</w>
ü b
úřad ům</w>
úřad ů</w>
účin nějším</w>
účin ným</w>
účin ného</w>
územ ní</w>
úto čí</w>
úto ku</w>
úspěš ný</w>
úspěch em</w>
úprav u</w>
úko l</w>
úda jně</w>
ú řad</w>
ú stup
ú ct
í me</w></w>
í cí</w>
ár ním</w>
Úče tní</w>
Úmlu vě</w>
získ al</w>
závě re
záru ky</w>
zápla vy</w>
západ ě</w>
západ ním</w>
záj mech</w>
zá sa</w>
zá ch</w>
zru šit</w>
zru šeny</w>
způsob ila</w>
zpě t
zon es</w>
zná t</w>
zne výhod
znač ný</w>
změ nily</w>
změ nami</w>
zmír nění</w>
zmí něna</w>
zlep ší</w>
zlep šila</w>
zkou má</w>
zjednodu š
zis kov
zeměděl ského</w>
zbyteč ných</w>
začí ná</w>
začle ňování</w>
zazně ly</w>
zavádě ní</w>
zaved li</w>
zaved ena</w>
zava za
zat ýkání</w>
zapo mí
zapo jen
zales ňování</w>
zajím alo</w>
zahynu li</w>
zahr novat</w>
zabezpeč ila</w>
za stáv
za se</w>
za reag
za káz
za ha
za h</w>
za cházení</w>
z totož
z rych
z pů</w>
z ova
z bý
z brojen
you th</w>
x ní</w>
x en
wor sen
wit z</w>
wh en
when ever</w>
weak en</w>
we fa</w>
we al
we ak</w>
wa ve</w>
wa i
w o</w>
w is
w i</w>
w age</w>
w ad
wad a
wada ys</w>
věj ších</w>
věde ckých</w>
vě ři
vě zení</w>
vě z
vě nu
význam ně</w>
výrob ku</w>
výraz ný</w>
výmě nu</w>
výkon ný</w>
výhod ách</w>
východ ním</w>
vý zev</w>
vý kon</w>
vý klad</w>
ví tal</w>
ví no</w>
ví na</w>
ví m</w></w>
ví ken
vážen é</w>
váž ným</w>
váž ná</w>
váž nou</w>
vá š</w>
vá ní</w></w>
vá no</w>
vá n</w>
vzájem ného</w>
vznik la</w>
vzděláv ací</w>
vz po
vyšet řování</w>
vyzý váme</w>
vyvíje t</w>
vyvážen é</w>
vyu žity</w>
vytvořen y</w>
vytvo ří</w>
vytvo řili</w>
vytvo řené</w>
vytvo řen</w>
vyrá bě
vyplý vají</w>
vykon at</w>
vyhra zená</w>
vy ře
vy spě
vy pořádat</w>
vy nalo
vy ložen
vyložen ým</w>
vy cházejí</w>
vy cháze
vrá til</w>
vrcho l
vota cion
votacion es</w>
voleb ní</w>
vol ných</w>
vol bách</w>
vol by</w>
vo sti</w>
vo st</w>
vo len
vlád ních</w>
vlast ními</w>
vlast ním</w>
vlast ního</w>
vis i</w>
vis e</w>
vir tu
vio lations</w>
vil ni
vig il
vie wing</w>
vi ol
viol ent</w>
vi děl</w>
vi able</w>
veřej ném</w>
veře j</w>
ves nic</w>
vers ary</w>
veri fication</w>
veli ké</w>
ved la</w>
ve red</w>
van ta</w>
va rováním</w>
v čas
v u
v stoup
užiteč ná</w>
uzn at</w>
uzavřen ých</w>
uvít ala</w>
uved ení</w>
uspořád ání</w>
usil ovat</w>
urč uje</w>
urč ení</w>
urych leně</w>
ur ges</w>
upozor ňuje</w>
uplat nit</w>
up </w></w>
uni versity</w>
uni que</w>
uni list
unilist an</w>
under lying</w>
under line</w>
unanim ously</w>
un preceden
unpreceden ted</w>
un certain</w>
umož nila</w>
uji stil</w>
udržitel ný</w>
udržitel nost</w>
udrž ovat</w>
udr žet</w>
u váž
u s</w></w>
u leh
u ki
uki p</w>
u jícími</w>
u ght</w>
těž kých</w>
tě stí</w>
týka jícího</w>
tý ka</w>
té m</w>
tv r</w>
tureck u</w>
tu ral</w></w>
tu ne
tru th</w>
tri me
tri g
tren ds</w>
trea su
tre at</w>
tran sit</w>
tradi tion</w>
tr y
tr pě
tov i</w>
ton u</w>
ton i
to wn</w>
tle y</w>
tiv ními</w>
tion ally</w>
tin opo
tinopo le</w>
time table</w>
ti ves</w></w>
ti tley</w>
ti ly</w>
ti gh
thou s
thous and</w>
thor n
thin ks</w>
the ory</w>
th west</w>
th ro
th ri
terro ris</w>
teroristi ckou</w>
tero ru</w>
tero ris</w>
termí nové</w>
ten den
ten ber
televi zní</w>
tel ným</w>
tel nou</w>
teg ory</w>
tal ked</w>
takov ém</w>
tain ing</w>
ta mp
ta jí</w>
ta ce</w>
t te</w>
t ování</w>
t ními</w>
t man</w>
t forward</w>
t d
sí la</w>
sí ch</w>
séri i</w>
systé mech</w>
syst e</w>
syndro m</w>
sy st</w>
swi ftly</w>
světov ý</w>
světov ém</w>
svět ových</w>
svě řené</w>
sv r
svr ch
sur vi
sur roun
suppli ed</w>
substan ces</w>
subsequ ently</w>
sub stitute</w>
su g
su chu</w>
stá nu</w>
stá n
strukturá lní</w>
struktu ry</w>
stri ve</w>
strea m</w>
straigh tforward</w>
stra š
steven son</w>
stein ba
ste war
staro vě
star ých</w>
star ý</w>
stanoven ý</w>
stanov eny</w>
stan tinopole</w>
stabili zaci</w>
sta y</w>
sta jí</w>
sta bilní</w>
st é</w>
st s</w></w>
st r
st ou</w>
st ory</w>
st one</w>
st ně</w>
st ers</w>
ssi vely</w>
ssi er</w>
srb sku</w>
sr dci</w>
správ nou</w>
spotře by</w>
spolu prá</w>
spolu občanů</w>
společ nostech</w>
spo r</w>
spo ke</w>
spo jen</w>
spo j
spen ding</w>
speciali sts</w>
speci es</w>
spe sa</w>
spe e
spee ches</w>
spad á</w>
sp end</w>
soustřed il</w>
souhrn ného</w>
sou vis</w>
sou dů</w>
sou cit</w>
sophisti cated</w>
sol vit</w>
so spesa</w>
so m</w>
so k</w>
so fi
sněmov ny</w>
sní žením</w>
sniž ují</w>
směrni cí</w>
smě ř
smlou vou</w>
sly šet</w>
služ bu</w>
sl ý
skuteč ných</w>
skupin ě</w>
skupin ách</w>
skupin ou</w>
sklon y</w>
sk ry
simultane ously</w>
simpli fied</w>
simp ler</w>
silni ci</w>
sil nic</w>
signá ly</w>
signá l</w>
sig nation</w>
si x
si v
si mp</w>
si la</w>
si ght</w>
shr nout</w>
shod neme</w>
shod li</w>
sho wed</w>
sh i</w>
sh ar
sezó n
sezna mů</w>
ser ves</w>
separa ti
separa tely</w>
sel h
sehr ávat</w>
sed í</w>
seas onal</w>
se at
schvá lena</w>
schop ností</w>
scho p</w>
sc u</w>
satis fied</w>
san kcí</w>
sa w</w>
sa mo</w>
sa ko
sako witz</w>
s si</w>
s pu
s pre
spre ading</w>
s prav
s port</w>
s ová</w>
s met
s low
s car
s at</w>
růz ným</w>
rámcov ý</w>
rychle jší</w>
ry b</w>
ru m</w>
rozší řena</w>
rozvin ut
rozum ně</w>
rozum né</w>
rozpočtov ými</w>
rozpočtov ých</w>
rozpočtov ou</w>
rozměr u</w>
rozmě ry</w>
rozmanit ost</w>
rozdí l
roz lo
rov ou</w>
rou te</w>
rou re</w>
rou ghts</w>
rop lan
rod in</w>
rob ert</w>
ro slav</w>
ro ots</w>
ro ma</w>
ro lling</w>
rizi ku</w>
ri pres
ripres a</w>
ri char
richar d
richard son</w>
revi zi</w>
resul ted</w>
resu l</w>
restri ctive</w>
rest ore</w>
reque sts</w>
republi ka</w>
represen ting</w>
represen ted</w>
repea tedly</w>
remin der</w>
rekla mní</w>
regi me</w>
regar ded</w>
refle cted</w>
reak cí</w>
re viewing</w>
re ver
re si
re pli
re pa
re mic</w>
re g</w>
re fra
re forestation</w>
re du</w>
re ci
re anu
reanu da</w>
rating ové</w>
ras mus
radi kální</w>
ra zem</w>
ra man
ra ises</w>
ra cial</w>
r gen
qui ck</w>
qu es</w>
přísluš nými</w>
případ né</w>
příklad ů</w>
pří ru
pří ro
přá t</w>
přiná šejí</w>
přin ese</w>
přijí mají</w>
přije tím</w>
při způsob
při j</w>
při hléd
při blí
přev z
přev lá
přesvěd či
přes né</w>
přeprav a</w>
překrač uje</w>
předsednict va</w>
předsed ů</w>
předsed ou</w>
předsed kyně</w>
předběž né</w>
před í</w>
před nost</w>
přechod ných</w>
přechod né</w>
pře stěhov
pře m
př ání</w>
pursu ed</w>
purcha sed</w>
purcha se</w>
pun ished</w>
pt ance</w>
průbě h</w>
prů zku
prvo řadou</w>
proti teroristická</w>
prote c
protec tion
propo s</w>
prom is</w>
proje vit</w>
prohlá sit</w>
prohla š
prohi b
profes ní</w>
prof its</w>
produ cer</w>
pro vádí</w>
pro te</w>
pro of</w>
pro mar
pro dat</w>
pro ce</w>
priorit ní</w>
prim ary</w>
pri anou</w>
prezi den
preven tivních</w>
presen ts</w>
pres sive</w>
pre va
prax e</w>
pravi l</w>
prav du</w>
prav dou</w>
pracu jeme</w>
pracov i
pra vy</w></w>
pr é
požá rem</w>
požadav ku</w>
požad uje</w>
pozor nosti</w>
pozmě ňujících</w>
pově řovacích</w>
povo lit</w>
považ ovány</w>
pou čit</w>
pou los</w>
potřeb ě</w>
potí že</w>
potvr zuje</w>
poten tially</w>
postih ly</w>
poslan ky
poskyt nutí</w>
poskyt nut
poskyt lo</w>
poskyt l</w>
poraden ství</w>
pora d
por u</w>
popu lar</w>
popu lace</w>
poptáv ka</w>
ponti ac</w>
pomá há</w>
politi ckými</w>
pokry tí</w>
poji šť
poh ro
podí váme</w>
podstat u</w>
podrob nou</w>
podo kru
podně t</w>
podni kům</w>
podezře lých</w>
pod ce
poblaho přát</w>
po z</w>
po trest
po sure</w>
po stupovat</w>
po předí</w>
po nechá
po nau
ponau čení</w>
po lo</w>
po klá
po každé</w>
po jist
po in</w>
po cit</w>
plo chy</w>
plate b
plat by</w>
pla vi
pi je</w>
physi cal</w>
perpe tra
per ce
perce i
patriarchá tu</w>
passen ger</w>
pas á
parti cu</w>
parla men</w>
para me
par lia</w>
paci t</w>
pa ying</w>
pa sok</w>
pa má
p ě</w>
p tal</w>
p h</w>
p at</w>
označ uje</w>
ově řování</w>
ovliv ňují</w>
over due</w>
otra dov
otradov ec</w>
osvěd čené</w>
ostat ním</w>
orte gy</w>
ori en
or y</w></w>
opu stit</w>
opti m
oprávně ně</w>
ophobi a</w>
opa kuji</w>
on ců</w>
omez ují</w>
omez uje</w>
om lu
olymp ia</w>
okru hu</w>
oko lí</w>
ohle dech</w>
oh led</w>
ofici ální</w>
off set</w>
of obi
odůvod nění</w>
odstran ěny</w>
odstra ňovat</w>
odmít la</w>
odhod lan
odha dů</w>
odbor níky</w>
oct .</w>
ochran ou</w>
och ran</w>
ocen it</w>
obě tem</w>
občan skou</w>
obtíž né</w>
observ at
observat o
obser ve</w>
obser va
obsa hov
obrov ských</w>
obrov ský</w>
obnov ě</w>
obnov ení</w>
obla stmi</w>
obe z
obe sity</w>
ob ou</w>
o živ
o zbrojen
o kla
okla hom
oklahom a</w>
o hi
o ec
oec d</w>
o ce</w>
o ak
německ a</w>
ně ných</w>
ně jaké</w>
náz or
nákup ní</w>
náklad u</w>
ná v</w>
ná stro</w>
ná růstem</w>
ná prav
ná hod
nut ně</w>
nut nosti</w>
nu ys</w>
nu ty</w>
noti ce</w>
nost mi</w>
nos ností</w>
norma mi</w>
nor way</w>
nor d</w>
nor a</w>
non- binding</w>
no wadays</w>
no tes</w>
ni ž</w>
ni </w></w>
nezávis lého</w>
nezávis lé</w>
nezávis lost</w>
newspa pers</w>
neu spoko
nes praved
nejlep ším</w>
nej rychleji</w>
negoti ation</w>
negoti ating</w>
ne závazných</w>
ne x</w>
ne vhodné</w>
ne týká</w>
ne souhlasíme</w>
ne sen
ne schopnost</w>
ne přá
ne poslední</w>
ne ochot
ne mysl
ne existují</w>
ne chceme</w>
naš těstí</w>
navrhov aných</w>
navr žené</w>
navr ženo</w>
nation als</w>
nale zi
nad cházející</w>
nad byteč
na řízením</w>
na čase</w>
na váz
na pad
na j
na cházíme</w>
n ý</w></w>
n ous</w>
n oucí</w>
n one</w>
n on</w>
n it</w></w>
měsí ci</w>
mě nové</w>
mé di
mys le
mus íte</w>
mu n</w>
moun tain</w>
moun t</w>
mot or
mor de
morde cha
molda v
mol dov
moldov a</w>
mode st</w>
mode ls</w>
mo tives</w>
mo thers</w>
mo t</w>
mo c</w>
mladist vých</w>
mit ting</w>
minist r</w>
minim álně</w>
min a</w>
mimořád ných</w>
milion ům</w>
miliar du</w>
mid night</w>
mi sta
mi roslav</w>
mezi institucionální</w>
menš iny</w>
ment al</w></w>
men tions</w>
men ta</w>
medi c
med iny</w>
mechan i
me e</w>
materi ální</w>
mar ked</w>
mar ine</w>
mar co</w>
manže l
man datory</w>
mal ý</w>
ma ss</w>
ma cy</w>
ma chin
ma ast
m obil
m nou</w>
m l
m its</w>
m f
mf alu
mfalu ss
m .</w></w>
lu n
lu gg
lugg age</w>
lor en
loren z</w>
logi cké</w>
lod ě</w>
lo sti</w></w>
lo cation</w>
lo cate</w>
lit r</w>
list in</w>
lisabon skou</w>
lisa be
lisabe th</w>
lin k</w>
limon á
likvid itu</w>
life long</w>
lich tenber
licen ces</w>
liberali zace</w>
liber ty</w>
liber ties</w>
libe rate</w>
li lo</w>
li dech</w>
letiš ti</w>
lete ctví</w>
lete ckou</w>
let ý</w>
lep šího</w>
leng th</w>
leh man</w>
legiti macy</w>
lea ves</w>
le vanta</w>
le jší</w>
laun ching</w>
lan ding</w>
labe l</w>
la ys</w>
la ying</w>
la w
la mfaluss
la cking</w>
l ům</w>
křesťan ských</w>
ky prianou</w>
kultur u</w>
kultu ra</w>
ku předu</w>
kter ému</w>
krmi v</w>
kritéri í</w>
kritéri a</w>
kri tické</w>
konzum ního</w>
konzulta ci</w>
konzu l
kontro lov
kone ck
koneck onců</w>
kon zu</w>
kon trover
kon stantinopole</w>
kon ce
kon al</w>
komisař ce</w>
kom promis</w>
koleg a</w>
koher ent
ko </w></w>
klíč ová</w>
klí čem</w>
klu te</w>
kli matických</w>
kin ds</w>
kdy si</w>
kaz ovat</w>
katastrof ou</w>
kapit ál</w>
kapit o
kamen em</w>
ka raman
ka pacit</w>
k tiv
k i</w>
k de
jí ž</w>
jun ction</w>
ju m
ju jící</w>
jmé no</w>
jmen ovat</w>
jm é</w>
jistot y</w>
jistot u</w>
jist ý</w>
jin í</w>
jedná ních</w>
jednotliv ců</w>
jedno du</w>
jedin ou</w>
jed n</w>
je vy</w>
jazy k</w>
jaký koli</w>
jaký ch
jako sti</w>
ja ter</w>
j ům</w>
j šího</w>
j ší</w></w>
j unilistan</w>
j ní</w>
it ím</w>
it ted</w>
isla mis
ir sko</w>
ir a</w>
interven ce</w>
interpre ting</w>
inter -
inten sive</w>
inten se</w>
integrov ané</w>
institucion álních</w>
institu t</w>
inova ční</w>
informa cemi</w>
inev itable</w>
indi rect</w>
inde x</w>
incen tives</w>
in vit
in ve</w>
in va
in ti
in ou</w>
in appropriate</w>
impli es</w>
imp acts</w>
im self</w>
im posing</w>
il lu
il led</w>
il ing</w>
il </w></w>
i ráku</w>
i on</w>
i la</w></w>
i ka</w>
i j
i ho</w>
hon our</w>
hol dings</w>
hodno tou</w>
hodno ta</w>
hod no</w>
ho st</w>
ho pis
ho li
ho are</w>
hlub ší</w>
hled at</w>
hla v</w>
hla d
histori c</w>
highli ghts</w>
her scu</w>
he m</w></w>
he avi
heavi er</w>
har b
hand led</w>
han dle</w>
hal t</w>
ha p</w>
ha m
h üb
h y</w></w>
h ové</w>
h our</w>
h le</w>
h imself</w>
guarante eing</w>
gre en
gra bow
grabow ska</w>
gov et
govet t</w>
go ld</w>
giuse ppe</w>
gi bra
gh ting</w>
ger ing</w>
geografi cké</w>
geno wefa</w>
gener álního</w>
gene rali
gene ra
gargan iho</w>
g r
g ord
g on
g g</w>
g ation</w>
g as
g ab
fó rum</w>
ful fil</w>
fru it</w>
fre ely</w>
frankfur tu</w>
francis co</w>
fra ss
fra g
fortuna te</w>
forest ry</w>
for mu</w>
fol lows</w>
focu sed</w>
fo ot</w>
fo ot
fli ght</w>
flexi ku
flexi curity</w>
fire bir
financ ovat</w>
finan cí</w>
fin sku</w>
fi les</w>
fet álního</w>
fet ální</w>
feat ure</w>
fea sibility</w>
fe mina</w>
fashi on</w>
fas d</w>
fal ling</w>
fail s</w>
fail ing</w>
f ro</w>
f re</w>
f lows</w>
f lorenz</w>
exten sive</w>
explan ation</w>
expen sive</w>
ex posure</w>
ex ports</w>
ex emp
ex cise</w>
ev ro
ev o
ev il</w>
euro lat</w>
eston sko</w>
equi p</w>
envi ron</w>
enti tled</w>
enter ing</w>
ent ů</w>
enhan ced</w>
eng aged</w>
encoura gement</w>
en ti</w>
en tered</w>
emphas ises</w>
emphas ised</w>
emer ging</w>
elimin ation</w>
elimin ate</w>
efektiv ně</w>
efektiv itu</w>
efek tivity</w>
edit or</w>
e ts</w>
e lisabeth</w>
e ight</w>
e ib</w>
důsled ků</w>
dů kazy</w>
dů kazem</w>
dů kaz</w>
dé mon
dá r
dá ny</w>
dump ing</w>
du na
du </w></w>
druh ého</w>
dri ve</w>
draf tsman</w>
draf ted</w>
dra matic</w>
dr un
dr u</w>
dosáh ne</w>
dostup nost</w>
dosa vad
dopad y</w>
domác ností</w>
domác nosti</w>
dokáz ala</w>
dokáz al</w>
doká žeme</w>
dod at</w>
do v</w>
do týká</w>
do stala</w>
do stal</w>
do ssier</w>
do slova</w>
do jem</w>
do ha</w>
dneš ním</w>
dlu hopis
dlouhodob ý</w>
dlouh ých</w>
dlouh é</w>
diver zi
diver se</w>
dissemin ating</w>
diskutu je</w>
diskutov alo</w>
dis appointed</w>
dif fer</w>
di vi
di alo</w>
devi ces</w>
deve lo</w>
deser ves</w>
derivá ty</w>
der sson</w>
depen dence</w>
demokra tickou</w>
deli vered</w>
defic its</w>
decrea se</w>
decla red</w>
de šť
de vět</w>
de sign</w>
de mo</w>
de mar
de fe
de ep</w>
de ad</w>
dau há</w>
dama ging</w>
dama ges</w>
d v</w>
d un
d roughts</w>
d rob
d re</w>
d ph</w>
d né</w>
d lou</w>
cí lech</w>
cust oms</w>
curr ency</w>
cultiva tion</w>
cu bs</w>
ct b</w>
crea tes</w>
cou ple</w>
cor ps</w>
copy right</w>
conver gence</w>
conven tional</w>
contain ing</w>
consu me</w>
constitu tion</w>
consi sts</w>
con tain</w>
con solid
con junction</w>
con fined</w>
compon ents</w>
compen sation</w>
compati ble</w>
compar ison</w>
com posite</w>
col om
coher ent</w>
co ws</w>
co ld</w>
co l</w>
cli ents</w>
clari fication</w>
cla im</w>
ck é</w></w>
ck </w></w>
cit livé</w>
circu it</w>
cháze lo</w>
chica go</w>
ch ž</w></w>
ch tě</w>
ch er</w>
ch ap
chap ter</w>
centr um</w>
cen ých</w>
cen ou</w>
celo životního</w>
celkov á</w>
cel on
ce sta</w>
cap abilities</w>
ca vac
ca tes</w>
ca tegory</w>
ca sh</w>
ca mar
c ri</w>
c odification</w>
c ed</w></w>
c ctb</w>
c cctb</w>
břez nu</w>
býval ého</w>
budouc na</w>
budou cím</w>
brá nit</w>
broadca st</w>
británi e</w>
brea kers</w>
bra t</w>
br zd
boun d</w>
borghezi o</w>
bohat ství</w>
bir th
ber è
bel gi
basi lej</w>
bar celon
ban s</w>
b t</w>
b re
b le
b in</w>
b arié
automa ticky</w>
attemp ts</w>
atta ched</w>
atlan tic</w>
atlan ta</w>
assu me</w>
arti cles</w>
appro ving</w>
anni versary</w>
ange li
ange les</w>
analy se</w>
an í</w>
an ém</w>
an toni
an dersson</w>
an ce</w></w>
an a</w>
ameri ce</w>
ale rt</w>
al u</w>
al tman</w>
al li
al leg
al ber
al a</w></w>
aktiv a</w>
ak čním</w>
agentu rám</w>
agentu rách</w>
ag no
ag en</w>
ag a</w>
afri kou</w>
afri can</w>
ae roplan
advo cate</w>
adver se</w>
ad visory</w>
ad mit</w>
acce ptance</w>
ac tors</w>
absur dní</w>
ab road</w>
ab le</w></w>
a ž
a u</w>
a tions</w></w>
a tes</w>
a polo
a ma
9/ 7
9/7 0/
9/70/ ec</w>
9 5</w>
8 ,
7 57</w>
7 /
7 ,
6 3</w>
40 9</w>
4 </w></w>
3 </w></w>
2 </w></w>
2 3
199 9/70/ec</w>
199 8</w>
198 6</w>
198 0</w>
197 4</w>
19 69</w>
18 .
15 .
1 :
1 60</w>
1 30</w>
1 20</w>
1 /
0 0.
' re</w>
υ ν
υν ε
υνε δ
υνεδ ρ
υνεδρ ί
υνεδρί α
υνεδρία σ
υνεδρίασ η</w>
τ ι
τι ς</w>
σ υνεδρίαση</w>
σ τις</w>
život nímu</w>
žen ými</w>
ž há
žhá ři</w>
ž dě
ů v</w>
ší ří</w>
špat ným</w>
škr ty</w>
škol ního</w>
ši roce</w>
šet ří</w>
šet ření</w>
š tině</w>
š t</w>
š pi
š anci</w>
Štras burku</w>
ří kají</w>
ří di
ří cí</w>
řád ného</w>
řeč ni
řed níci</w>
ře m</w>
ře </w></w>
řad it</w>
ř ská</w>
Ře č
Řeč ník</w>
ň ky</w>
ě ním</w>
čí st</w>
čí ho</w>
člen ů</w>
čin i
čer st
čen í</w></w>
če t</w>
če t
če ká
č ky</w>
č ka</w>
č il</w>
č ast</w>
Čí nou</w>
Č in
ý br
ýbr ž</w>
úřed níků</w>
úřadu jícímu</w>
úče lu</w>
účast nit</w>
úro kov
úprav a</w>
úmlu vy</w>
ú žas
ú vodem</w>
ú va
ú stavech</w>
ú rod
ú nora</w>
ó t
í rá
í kových</w>
í ch</w></w>
é s</w>
é mu</w></w>
ã o</w>
ář ské</w>
áv a
ár ního</w>
áni stánu</w>
á ř</w>
á ze
á sob
á r</w>
à s</w>
Úmlu vu</w>
Ú ředníci</w>
zů stáv
zře teli</w>
zře j
zúčastně né</w>
zúčast nit</w>
zó ny</w>
zí tře
zí t</w>
zázna mů</w>
zázna my</w>
závě rů</w>
závis lé</w>
závis et</w>
závaz ku</w>
záv is</w>
zátě ž</w>
zásad ně</w>
zása hu</w>
zása dou</w>
zápas ů</w>
západ ního</w>
záp i</w>
zámě rem</w>
zámin kou</w>
zákonodár né</w>
základ ů</w>
základ ními</w>
základ ny</w>
zákaz y</w>
zá slu
zá n</w>
zá leží</w>
zvláš tním</w>
zvláš tních</w>
zvlád nout</w>
zrani telné</w>
způsoben á</w>
způsob í</w>
zpravodaj ům</w>
zovan ého</w>
zorgani zovat</w>
zohled něny</w>
zodpověd ný</w>
zná má</w>
zná m
zni čených</w>
zni čeno</w>
znepoko jující</w>
znalo stních</w>
zna l</w>
zmír nit</w>
zmín ku</w>
zmí ním</w>
zmí nila</w>
zmi ňuje</w>
zločin y</w>
zkvalit nění</w>
zkušen ost</w>
zk rá
zji štění</w>
zjednodu ší</w>
ziskov osti</w>
zi ly</w>
zhor šuje</w>
zhor šení</w>
zen é</w>
zem řelo</w>
ze fektiv
zdůraz nili</w>
zdravot nictví</w>
zd ů</w>
zd vojnásob
zd lou
zdlou ha
zbran ě</w>
zařa zení</w>
začleně ny</w>
zač nou</w>
zač ne</w>
zač alo</w>
zaved en</w>
zaru čila</w>
zaned b
zaměřen ý</w>
zaměřen y</w>
zaměř ují</w>
zamě řen</w>
zam ýš
založen ou</w>
zaklá dání</w>
zajist é</w>
zahájen o</w>
zahá j
zahr nutí</w>
zahr nov
zachrá nit</w>
zabý vali</w>
zabý vající</w>
zabý vají</w>
zabezpeč ili</w>
za ční</w>
za ví
za vá
za stán
za slu
za slou
za pla
za mez
za kázat</w>
z ován</w>
z odpovědnosti</w>
z ního</w>
z nám</w>
z ni</w>
z ma
z m
z lep</w>
z kra
z k</w>
z ing</w>
z dra</w>
yor kshire</w>
y o
y ing</w></w>
x ity</w>
work force</w>
wor th
worth while</w>
wor se</w>
with drawn</w>
wil ling</w>
wil lia
wi ed
wied er</w>
wel coming</w>
weal th</w>
wea ther</w>
we l</w>
war mly</w>
w s</w></w>
w in</w>
w al</w>
vů r
vš í</w>
většin ě</w>
větš iny</w>
vět ších</w>
vě říme</w>
vě c
výz na</w>
vývo zu</w>
vývo z</w>
vývo jem</w>
výstav bu</w>
výrob ních</w>
výrob cům</w>
výnos ů</w>
výhra dně</w>
výhod u</w>
vý stra
vý sled</w>
vý sky
výsky tu</w>
vý h
vý cvi
vý chov
víken du</w>
váž ím</w>
váž en</w>
vá dě</w>
vzájem ně</w>
vznik lé</w>
vznik l</w>
vzni kají</w>
vzbud it</w>
vz rost
vyš kr
vyškr t
využí valy</w>
vytvo řil</w>
vysok ými</w>
vyrov náv
vynika jícím</w>
vykon ávání</w>
vykon ává</w>
vyjednáv ání</w>
vyjadř ovat</w>
vyhnu li</w>
vyh led
vyba vení</w>
vyba ven
vy řešení</w>
vy vážená</w>
vy t</w>
vy stoupil</w>
vy sloven
vy sky
vy rovnání</w>
vy nech
vy ko
vy dali</w>
vy dala</w>
vy dal</w>
vy cházet</w>
vstří c
vstup u</w>
vrá tí</w>
volati lity</w>
vol ně</w>
vod ě</w>
vod a</w>
vigil ant</w>
vi zi</w>
vi ii</w>
vi d</w>
veřej ně</w>
ven </w></w>
veli kou</w>
vel k</w>
ve re
vdě čný</w>
valu ed</w>
vac ant</w>
va š
va rov
va jícího</w>
v ing</w></w>
v als</w>
užiteč ný</w>
učin ili</w>
uzav řít</w>
uvědom uji</w>
uveden ý</w>
uved u</w>
uved ena</w>
uvaž uje</w>
uspokoji vé</w>
usnad ňuje</w>
usnad nit</w>
usilu jeme</w>
us ers</w>
urč ila</w>
uplatň ovány</w>
uplatň ována</w>
uplat ňov
up gra
up dating</w>
univer zá
une qui
unequi vo
un known</w>
un ity</w>
un fair</w>
umírně ně</w>
umírně né</w>
umírně ná</w>
umož ňující</w>
umož nily</w>
ukáz alo</w>
udrž uje</w>
udr žení</w>
u ží</w>
u se</w></w>
u ra
u přednost
u prostřed</w>
u lo
u es</w></w>
u e</w></w>
u chov
u ble</w>
těž i</w>
těhot nými</w>
tě žit</w>
tě ším</w>
tý den
té mat
ty p</w>
tw enty</w>
tvr zením</w>
tvr dit</w>
tu čné</w>
tu m</w>
tri bu</w>
transpo se</w>
trans par</w>
trans national</w>
trag edi
tra vel</w>
tra sy</w>
tra ce
trace ability</w>
tr vá</w>
tr u</w>
tov á</w>
to xi
to krát</w>
tla ku</w>
tla k</w>
tisí ců</w>
tin u</w>
tin a</w>
tick ém</w>
ti sation</w>
ti mely</w>
ti ck</w>
ti a</w>
thir ds</w>
theore tically</w>
th rou</w>
th rea
threa ten</w>
th re</w>
teroristi ckými</w>
teroris mem</w>
teplo ty</w>
ten tokrát</w>
ten dency</w>
tem pera
televi zi</w>
tel nějších</w>
tel nými</w>
tel ler</w>
teku tiny</w>
teku tin
techni ques</w>
techni cká</w>
te stu</w>
te ra
te ch</w></w>
te ach</w>
td d</w>
tar y</w></w>
takz van
takov ým</w>
ta kov</w>
t ého</w>
t ám</w>
t z</w>
t vůr
t lumo
sí ti</w>
swed en</w>
svěd kem</w>
svě tu</w>
svob o
susta in</w>
suspen due</w>
suspen di
suspendi da</w>
surroun ding</w>
sur face</w>
sugge sted</w>
sug ar</w>
suffici ently</w>
succe eded</w>
subsidi ary</w>
sub je</w>
su re</w></w>
su pre
supre me</w>
středomo ří</w>
středo zemí</w>
středis ka</w>
stě ží</w>
stě ž
stí ž
stáv ky</w>
stá r
stup uje</w>
stu dent</w>
stru čný</w>
stru k</w>
stru c</w>
strea ming</w>
strea m
strategi cký</w>
strategi ckou</w>
stra ight</w>
stra ch</w>
stou pl</w>
steinba ch</w>
ste </w></w>
statisti k</w>
stanov ili</w>
stanov ené</w>
stabili sation</w>
sta di
sta ble</w>
st ring
string ent</w>
st itu</w>
ssi bility</w>
ss ly</w>
srov na
sr de
spá chan
spočí vají</w>
spor ů</w>
spolé hat</w>
společen ských</w>
spoleh nout</w>
spoleh livé</w>
spojen ým</w>
spo le</w>
spo jit</w>
spl ní</w>
speku lan
spek tra</w>
specifi cké</w>
speciali sed</w>
spad ají</w>
sp lá
sp at
sov ě
sov i
soud nímu</w>
sou čas</w>
sou těži</w>
sou the
sou bor</w>
sor ti
some what</w>
solida r</w>
soli dation</w>
solan a</w>
so f
so </w></w>
sní ženy</w>
směrni cích</w>
smyslu plné</w>
smo o
smoo thly</w>
smlou vách</w>
smet any</w>
slov ak</w>
slov ak
slo žky</w>
slo gan</w>
sli ghtly</w>
sledu je</w>
sl í
sl ala</w>
skuteč ná</w>
sklu zů</w>
sk up</w>
sk rý
sk len
sklen íkových</w>
sk illed</w>
sk ep
sil ím</w>
sil nější</w>
sil ným</w>
sig n
si ble</w></w>
shromažď ování</w>
shromažď ovat</w>
shr nutí</w>
short com
shortcom ings</w>
shod ují</w>
ship </w></w>
sha pe</w>
sha dow</w>
sh ou
shou l
sezna my</w>
sev ere</w>
set tled</w>
sende rová</w>
sen ds</w>
sen ding</w>
sed m</w>
sed m
secon d
second ary</w>
se y</w>
se mi
semi -
se ku
se ch</w>
se as</w>
sdíl ím</w>
scienti fi
scientifi cally</w>
sci ence</w>
schů z
schvá lit</w>
schvá lila</w>
schedu led</w>
schedu le</w>
sch áze
sch ul
sc é
satis fy</w>
sa ves</w>
sa mer</w>
sa lem</w>
sa d
s ům</w>
s práva</w>
s ní</w>
s mus</w>
s cre
s cra
s co</w>
s co
s cen
s at
různo ro
rádi u</w>
rá z
rych lá</w>
rych lost</w>
rozšiř uje</w>
rozvoj ové</w>
rozvin u
rozu mě
rozmanit osti</w>
roz vo</w>
rovnová ze</w>
rodin ami</w>
robu st</w>
ro čního</w>
ro ri</w>
ro li</w>
ri vers</w>
ri er</w>
rgen sen</w>
rezer vy</w>
reven ues</w>
restri ktivní</w>
restri cted</w>
respon sibly</w>
respe cts</w>
repr ise</w>
repli es</w>
repa ir</w>
rene wed</w>
reli able</w>
rekla m
reje ct</w>
reinfor cing</w>
region álního</w>
refle cting</w>
reconci liation</w>
recogn ising</w>
reag ovala</w>
reaf firmed</w>
re volu
re tar
re su</w>
re sto
re signed</w>
re por
re per
reper cu
repercu ssions</w>
re ment</w>
re medi
re course</w>
rat nost</w>
rasmus sen</w>
ras ové</w>
ras ismu</w>
rakou sku</w>
radi o
ra v
ra ti
ra mi</w>
ra </w></w>
r tdd</w>
r k
que sti</w>
quali fied</w>
qu ot</w>
působ it</w>
pů vodních</w>
pů vod
pů dě</w>
pů du</w>
příš tím</w>
přítom en</w>
přístup y</w>
přístup né</w>
přísluš níků</w>
přís nější</w>
přís ně</w>
připrav ují</w>
připrav it</w>
připo jit</w>
přijí máme</w>
přijí man
přija to</w>
přihlí žet</w>
při klá
při dě
při dáv
přezkou m
přev zít</w>
přesvěd čit</w>
přes nit</w>
přeru šila</w>
přeru šil</w>
přeru šeno</w>
přeno su</w>
přem ýš
překáž kou</w>
představi tele</w>
předsta v</w>
předpoklá dá</w>
přede jít</w>
předběž ných</w>
pře sáh
pře pracov
pře pl
pře konat</w>
pře bí
pěst ování</w>
písem né</w>
pál ka
pá r</w>
pá chají</w>
pursu ing</w>
prů ta
prů hled
prů běž
pré sent</w>
práv ům</w>
pru dent</w>
provo z</w>
provi ders</w>
provedi telnosti</w>
protest ovat</w>
prospěš ný</w>
propor tions</w>
propojen é</w>
promo ted</w>
prohlási li</w>
prohibi tion</w>
prohibi ted</w>
produktiv itu</w>
produk tivní</w>
prodlou žení</w>
proce sses</w>
proce ed</w>
probíha jícího</w>
probí hají</w>
problé mech</w>
prob le</w>
pro váz
pro vi</w>
pro sto
pro kázat</w>
pro hlá</w>
pro hlub
pro gn
progn ó
pro dává</w>
pro cu
pro active</w>
pris on
princi p</w>
preven ts</w>
presid ential</w>
pres cri
pre ven</w>
pre s</w>
pre fa
prefa b</w>
pravidel ně</w>
pravidel ných</w>
pravi d
prav di
pracovi šti</w>
pra vách</w>
pra h
pr v</w>
požár u</w>
požád ali</w>
požad ujeme</w>
počíta č
počas í</w>
pozo ro
poznám ky</w>
poznám ka</w>
pozi tivním</w>
pozem ky</w>
poza dí</w>
poz or</w>
poz n
pow er
považ ován</w>
pova hy</w>
použí vají</w>
pouh ým</w>
pouh é</w>
potřeb ovat</w>
potřeb ných</w>
potřeb ami</w>
potvr zují</w>
potenci álu</w>
posí lí</w>
postup né</w>
posto ji</w>
post po
posou dit</w>
poslu cha
poskytova tele</w>
poskyt nou</w>
pos i</w>
poptáv ku</w>
ponech at</w>
polov iny</w>
polo žil</w>
politi ků</w>
polit ování</w>
poku sit</w>
pojišť ov
poji štění</w>
pohrani ční</w>
podíle jí</w>
podstat ou</w>
podrob nější</w>
podrob né</w>
podrob nosti</w>
podob ným</w>
podob ných</w>
podně tem</w>
podmín kami</w>
podlé hat</w>
pod zim
pod pis
podpis u</w>
pod kop
pochopi telné</w>
pobře ží</w>
po vedou</w>
po und</w>
po sta
po sky</w>
po pis
po mohou</w>
po mohla</w>
po mo</w>
po le
po krý
po kra
po hla
pohla ví</w>
po ci
poci ť
po chází</w>
po ch
po bytu</w>
plynov odu</w>
ply nů</w>
ply noucí</w>
pla yer</w>
pla y
pl á</w>
pi ed</w>
pha se</w>
per sua
per sist
per mits</w>
per cen
percen tage</w>
pen sion</w>
pen ding</w>
pat ři
pat ter
pas sive</w>
partne rem</w>
par ti</w>
par isian</w>
par ents</w>
par ent</w>
pa pers</w>
pa k
pa ce</w>
p sá
p ped</w>
p led
p ity</w>
p ho
očekáv ám</w>
ovliv ní</w>
ov ém</w>
ov é</w></w>
ov oce</w>
ov ation</w>
out set</w>
out line</w>
ot o
ot e</w>
ostrov y</w>
ostro vech</w>
ost mi</w>
oslab ení</w>
origin ally</w>
orienta ci</w>
ori ties</w></w>
organis ing</w>
organi zované</w>
opětov né</w>
opí rající</w>
opti misti
open ness</w>
opa kuje</w>
op ční</w>
op ili</w>
op at</w>
omezen ím</w>
omezen é</w>
om o</w>
om e</w>
okamžit é</w>
oh roz
off s</w>
odpově děl</w>
odpově d</w>
odpoví dají</w>
odmít á</w>
odli š
odkoup ení</w>
odifi cations</w>
odhod lá
odhal ení</w>
odchyl ky</w>
odbor ná</w>
od y</w></w>
od stoupení</w>
od s</w></w>
od dělení</w>
ochran né</w>
occur ring</w>
occu pied</w>
occu pation</w>
obě ma</w>
obě hu</w>
observ atory</w>
obrá til</w>
obje ví</w>
obje vil</w>
obha jovat</w>
obha job
obec ný</w>
obe jít</w>
obe c</w>
obdrže la</w>
ob ávám</w>
ob sáh
ob je</w>
oak land</w>
o we</w>
o to</w>
o svobo
o c</w>
ně mi</w>
ně kterým</w>
ní mž</w>
návaz nosti</w>
náv ratnost</w>
nátla k</w>
násled cích</w>
náro čné</w>
námit ky</w>
náku p</w>
ná boru</w>
nu ta</w>
nu t</w>
nost í</w></w>
non- governmental</w>
no where</w>
no tion</w>
no ted</w>
no ise</w>
nezleti lých</w>
nez ohled
new s
neustá lou</w>
neuspoko ji
neu tu
neu ro
nes práv
ner v
nepří tom
nenáv i
nena roz
nemovit ostí</w>
nejlep ších</w>
nejhor ší</w>
nejbliž ší</w>
neg lected</w>
nedostateč ně</w>
nebezpeč ný</w>
ne y</w>
ne určitou</w>
ne souhlasím</w>
ne se
ne přiměřené</w>
ne pro
ne podařilo</w>
ne mohla</w>
ne mo
ne jmé
nejmé ně</w>
ne děl
ne chci</w>
naznač uje</w>
navrhu ji</w>
navrhu jeme</w>
navrh ování</w>
navr žená</w>
nau čit</w>
naléha vé</w>
nalezi ště</w>
nadměr ná</w>
nabí zených</w>
nabí dek</w>
na tolik</w>
na stal</w>
na pě
na prost
na plnění</w>
na děje</w>
na cí</w>
n ýbrž</w>
n ého</w></w>
n ing</w></w>
měsí cích</w>
měsí c</w>
mě sta</w>
mí rou</w>
muse la</w>
mun ity</w></w>
mu sely</w>
mu jící</w>
mož nými</w>
mož ný</w>
moř ského</w>
motor ways</w>
moto rových</w>
mot or</w>
mot e</w>
monitorov ací</w>
monit or
mon d</w>
mom ent
moder ních</w>
mode ly</w>
mobi le</w>
mo za
mo stly</w>
mnoh ými</w>
mnoh ým</w>
mlékáren ského</w>
mlad ými</w>
mis placed</w>
minu ty</w>
minim ise</w>
mini balíčku</w>
min ors</w>
min ds</w>
min ded</w>
mimořád ný</w>
mil dly</w>
migra ce</w>
mi x</w>
mi les</w>
mi le</w>
mez itím</w>
meth od
met odu</w>
mer </w></w>
menta ce</w>
med i</w>
mechanis mů</w>
mechanis mech</w>
mean time</w>
mean ing
me tri
me ga</w>
me ga
mcguin ness</w>
maxi mali
mat ur
mat i</w>
mar tin</w>
manufacture rs</w>
man n</w>
mak er</w>
maje tku</w>
maintain s</w>
maintain ing</w>
main streaming</w>
ma yor</w>
m one</w>
m koli</w>
m d
m al</w>
lí to
lí te</w>
lár ních</w>
lu jí</w>
loň ského</w>
low ering</w>
logisti cké</w>
lob bi
lo kali
lo g
lo cations</w>
livo sti</w>
liv u</w>
list ened</w>
list en</w>
list en
listen ers</w>
lis mus</w>
lis mu</w>
lid skou</w>
lid ová</w>
li ver</w>
li on</w></w>
li hov
li cop
li ber</w>
less on</w>
len í</w></w>
len e
len ces</w>
lea der</w>
le v
le s</w></w>
le ry</w>
